{
  "version": "1.0",
  "truncation": null,
  "padding": null,
  "added_tokens": [
    {
      "id": 0,
      "content": "[UNK]",
      "single_word": false,
      "lstrip": false,
      "rstrip": false,
      "normalized": false,
      "special": true
    },
    {
      "id": 1,
      "content": "[BOS]",
      "single_word": false,
      "lstrip": false,
      "rstrip": false,
      "normalized": false,
      "special": true
    },
    {
      "id": 2,
      "content": "[EOS]",
      "single_word": false,
      "lstrip": false,
      "rstrip": false,
      "normalized": false,
      "special": true
    },
    {
      "id": 3,
      "content": "[PAD]",
      "single_word": false,
      "lstrip": false,
      "rstrip": false,
      "normalized": false,
      "special": true
    },
    {
      "id": 4,
      "content": "[SEP]",
      "single_word": false,
      "lstrip": false,
      "rstrip": false,
      "normalized": false,
      "special": true
    },
    {
      "id": 5,
      "content": "[MASK]",
      "single_word": false,
      "lstrip": false,
      "rstrip": false,
      "normalized": false,
      "special": true
    }
  ],
  "normalizer": null,
  "pre_tokenizer": {
    "type": "Sequence",
    "pretokenizers": [
      {
        "type": "Whitespace"
      }
    ]
  },
  "post_processor": null,
  "decoder": null,
  "model": {
    "type": "BPE",
    "dropout": null,
    "unk_token": "[UNK]",
    "continuing_subword_prefix": null,
    "end_of_word_suffix": null,
    "fuse_unk": false,
    "byte_fallback": false,
    "ignore_merges": false,
    "vocab": {
      "[UNK]": 0,
      "[BOS]": 1,
      "[EOS]": 2,
      "[PAD]": 3,
      "[SEP]": 4,
      "[MASK]": 5,
      "!": 6,
      "\"": 7,
      "(": 8,
      ")": 9,
      "-": 10,
      ".": 11,
      ":": 12,
      ";": 13,
      "[": 14,
      "]": 15,
      "،": 16,
      "؛": 17,
      "؟": 18,
      "ء": 19,
      "آ": 20,
      "أ": 21,
      "إ": 22,
      "ئ": 23,
      "ا": 24,
      "ب": 25,
      "ة": 26,
      "ت": 27,
      "ث": 28,
      "ج": 29,
      "ح": 30,
      "خ": 31,
      "د": 32,
      "ذ": 33,
      "ر": 34,
      "ز": 35,
      "س": 36,
      "ش": 37,
      "ص": 38,
      "ض": 39,
      "ط": 40,
      "ظ": 41,
      "ع": 42,
      "غ": 43,
      "ـ": 44,
      "ف": 45,
      "ق": 46,
      "ك": 47,
      "ل": 48,
      "م": 49,
      "ن": 50,
      "ه": 51,
      "و": 52,
      "ى": 53,
      "ي": 54,
      "٠": 55,
      "١": 56,
      "٢": 57,
      "٣": 58,
      "٤": 59,
      "٥": 60,
      "٦": 61,
      "٧": 62,
      "٨": 63,
      "٩": 64,
      "ٹ": 65,
      "پ": 66,
      "چ": 67,
      "ژ": 68,
      "ک": 69,
      "گ": 70,
      "ں": 71,
      "ھ": 72,
      "ہ": 73,
      "ے": 74,
      "ال": 75,
      "ان": 76,
      "في": 77,
      "ما": 78,
      "من": 79,
      "عل": 80,
      "ول": 81,
      "وا": 82,
      "الا": 83,
      "ها": 84,
      "الم": 85,
      "لا": 86,
      "..": 87,
      "ين": 88,
      "علي": 89,
      "را": 90,
      "وال": 91,
      "اب": 92,
      "ير": 93,
      "ون": 94,
      "ذا": 95,
      "عن": 96,
      "ار": 97,
      "قال": 98,
      "الي": 99,
      "نا": 100,
      "له": 101,
      "قول": 102,
      "ام": 103,
      "قد": 104,
      "وي": 105,
      "ري": 106,
      "لك": 107,
      "اء": 108,
      "هم": 109,
      "يد": 110,
      "الت": 111,
      "مع": 112,
      "وه": 113,
      "فا": 114,
      "كان": 115,
      "...": 116,
      "لي": 117,
      "اس": 118,
      "الح": 119,
      "اي": 120,
      "بع": 121,
      "بي": 122,
      "لم": 123,
      "الف": 124,
      "ور": 125,
      "الع": 126,
      "به": 127,
      "وم": 128,
      "رف": 129,
      "بن": 130,
      "او": 131,
      "قي": 132,
      "ات": 133,
      "ذلك": 134,
      "الن": 135,
      "ست": 136,
      "اد": 137,
      "ية": 138,
      "الك": 139,
      "وت": 140,
      "الش": 141,
      "وج": 142,
      "وان": 143,
      "الج": 144,
      "اح": 145,
      "رب": 146,
      "كر": 147,
      "ته": 148,
      "الس": 149,
      "اع": 150,
      "لان": 151,
      "مر": 152,
      "كون": 153,
      "مل": 154,
      "قل": 155,
      "رج": 156,
      "ائ": 157,
      "هذا": 158,
      "اف": 159,
      "دي": 160,
      "وب": 161,
      "الب": 162,
      "ولا": 163,
      "غير": 164,
      "اخ": 165,
      "اذا": 166,
      "وع": 167,
      "صل": 168,
      "اه": 169,
      "هو": 170,
      "عني": 171,
      "الق": 172,
      "مي": 173,
      "تع": 174,
      "تح": 175,
      "بر": 176,
      "الذ": 177,
      "بل": 178,
      "الخ": 179,
      "وف": 180,
      "لل": 181,
      "وك": 182,
      "وهو": 183,
      "وق": 184,
      "ني": 185,
      "لام": 186,
      "ذه": 187,
      "فيه": 188,
      "ود": 189,
      "مح": 190,
      "كن": 191,
      "مت": 192,
      "قوله": 193,
      "بت": 194,
      "الله": 195,
      "انه": 196,
      "اني": 197,
      "فع": 198,
      "وس": 199,
      "فر": 200,
      "كل": 201,
      "الص": 202,
      "دا": 203,
      "تي": 204,
      "فعل": 205,
      "اج": 206,
      "حو": 207,
      "رة": 208,
      "وح": 209,
      "زيد": 210,
      "الد": 211,
      "الث": 212,
      "ضم": 213,
      "بد": 214,
      "بين": 215,
      "يت": 216,
      "ومن": 217,
      "رك": 218,
      "يم": 219,
      "مث": 220,
      "بعد": 221,
      "شي": 222,
      "الذي": 223,
      "وض": 224,
      "يا": 225,
      "جر": 226,
      "ذكر": 227,
      "كما": 228,
      "وز": 229,
      "شر": 230,
      "بال": 231,
      "سي": 232,
      "فت": 233,
      "كم": 234,
      "با": 235,
      "حد": 236,
      "سم": 237,
      "وقد": 238,
      "حي": 239,
      "الل": 240,
      "وص": 241,
      "ثم": 242,
      "نحو": 243,
      "والم": 244,
      "يج": 245,
      "لة": 246,
      "ابن": 247,
      "اص": 248,
      "هما": 249,
      "فان": 250,
      "اق": 251,
      "خل": 252,
      "سن": 253,
      "يكون": 254,
      "وفي": 255,
      "فس": 256,
      "مد": 257,
      "والا": 258,
      "وقال": 259,
      "بة": 260,
      "عليه": 261,
      "صد": 262,
      "يع": 263,
      "يل": 264,
      "وما": 265,
      "طل": 266,
      "بها": 267,
      "الر": 268,
      "علم": 269,
      "صب": 270,
      "دة": 271,
      "فة": 272,
      "هي": 273,
      "كت": 274,
      "سر": 275,
      "بعض": 276,
      "معني": 277,
      "التي": 278,
      "ضي": 279,
      "ماء": 280,
      "زم": 281,
      "مس": 282,
      "الط": 283,
      "عم": 284,
      "كث": 285,
      "اسم": 286,
      "هذه": 287,
      "قة": 288,
      "اش": 289,
      "ولي": 290,
      "عند": 291,
      "ابو": 292,
      "صر": 293,
      "عر": 294,
      "عة": 295,
      "ضا": 296,
      "سب": 297,
      "اذ": 298,
      "از": 299,
      "عد": 300,
      "عت": 301,
      "قت": 302,
      ").": 303,
      "لما": 304,
      "فاعل": 305,
      "فظ": 306,
      "الوا": 307,
      "هر": 308,
      "جمع": 309,
      "منه": 310,
      "يح": 311,
      "الغ": 312,
      "غة": 313,
      "رجل": 314,
      "مة": 315,
      "راء": 316,
      "بني": 317,
      "يب": 318,
      "النا": 319,
      "مثل": 320,
      "تق": 321,
      "ضاف": 322,
      "اله": 323,
      "تن": 324,
      "تقد": 325,
      "ذف": 326,
      "قيل": 327,
      "راد": 328,
      "\"،": 329,
      "الفعل": 330,
      "اط": 331,
      "ضمير": 332,
      "الاخ": 333,
      "ابي": 334,
      "الان": 335,
      "تر": 336,
      "قبل": 337,
      "بح": 338,
      "لها": 339,
      "شد": 340,
      "اليه": 341,
      "وضع": 342,
      "وهي": 343,
      "قلت": 344,
      "عي": 345,
      "فيها": 346,
      "ليس": 347,
      "اما": 348,
      "ملة": 349,
      "قط": 350,
      "تص": 351,
      "حتي": 352,
      "باب": 353,
      "ليل": 354,
      "يخ": 355,
      "الة": 356,
      "لانه": 357,
      "فعول": 358,
      "لت": 359,
      "يقال": 360,
      "المن": 361,
      "رض": 362,
      "\".": 363,
      "عب": 364,
      "ره": 365,
      "رت": 366,
      "واب": 367,
      "واحد": 368,
      "وجه": 369,
      "لو": 370,
      "مج": 371,
      "الاس": 372,
      "لاث": 373,
      ")،": 374,
      "ضرب": 375,
      "كي": 376,
      "فقال": 377,
      "كانت": 378,
      "تعالي": 379,
      "ورة": 380,
      "رفع": 381,
      "ايضا": 382,
      "تها": 383,
      "تل": 384,
      "قا": 385,
      "بيت": 386,
      "....": 387,
      "دل": 388,
      "ولم": 389,
      "يق": 390,
      "خبر": 391,
      "واما": 392,
      "فلا": 393,
      "است": 394,
      "محل": 395,
      "احد": 396,
      "حر": 397,
      "سان": 398,
      "ارة": 399,
      "قص": 400,
      "اث": 401,
      "امة": 402,
      "الز": 403,
      "جاء": 404,
      "ظر": 405,
      "نس": 406,
      "راب": 407,
      "يقول": 408,
      "المع": 409,
      "الاول": 410,
      "يس": 411,
      "ضر": 412,
      "جعل": 413,
      "بان": 414,
      "حرف": 415,
      "وخ": 416,
      "وط": 417,
      "تك": 418,
      "عا": 419,
      "صح": 420,
      "قر": 421,
      "هنا": 422,
      "عمر": 423,
      "رس": 424,
      "ديث": 425,
      "مه": 426,
      "زة": 427,
      "يش": 428,
      "):": 429,
      "شيء": 430,
      "ده": 431,
      "الاست": 432,
      "ذهب": 433,
      "تب": 434,
      "تم": 435,
      "صدر": 436,
      "اول": 437,
      "عبد": 438,
      "جل": 439,
      "المعني": 440,
      "اخر": 441,
      "زي": 442,
      "اك": 443,
      "فهو": 444,
      "الاع": 445,
      "طر": 446,
      "وكان": 447,
      "منها": 448,
      "العرب": 449,
      "تد": 450,
      "تج": 451,
      "وهذا": 452,
      "بمعني": 453,
      "نفس": 454,
      "انا": 455,
      "ناء": 456,
      "وش": 457,
      "مخ": 458,
      "فتح": 459,
      "تقول": 460,
      "هل": 461,
      "حذف": 462,
      "الكلام": 463,
      "ضار": 464,
      "مست": 465,
      "الاسم": 466,
      "وانما": 467,
      "حق": 468,
      "امر": 469,
      "يء": 470,
      "حين": 471,
      "بك": 472,
      "كثر": 473,
      "الواو": 474,
      "عنه": 475,
      "هد": 476,
      "بتدا": 477,
      "الظ": 478,
      "لمة": 479,
      "يست": 480,
      "الناس": 481,
      "ذي": 482,
      "نف": 483,
      "ثلاث": 484,
      "قب": 485,
      "تكون": 486,
      "جاز": 487,
      "بس": 488,
      "مش": 489,
      "امل": 490,
      "الفتح": 491,
      "وة": 492,
      "والن": 493,
      "يجوز": 494,
      "غيره": 495,
      "جد": 496,
      "انت": 497,
      "اتي": 498,
      "حم": 499,
      "فض": 500,
      "كس": 501,
      "ويه": 502,
      "علق": 503,
      "ينا": 504,
      "الثاني": 505,
      "طف": 506,
      "حل": 507,
      "قام": 508,
      "انها": 509,
      "ولكن": 510,
      "صاح": 511,
      "رق": 512,
      "بما": 513,
      "لاف": 514,
      "وذلك": 515,
      "تس": 516,
      "انما": 517,
      "ويل": 518,
      "البيت": 519,
      "تاب": 520,
      "بالا": 521,
      "للم": 522,
      "واخ": 523,
      "اعر": 524,
      "غي": 525,
      "صار": 526,
      "فاذا": 527,
      "بية": 528,
      "دون": 529,
      "لفظ": 530,
      "كلام": 531,
      "بار": 532,
      "يف": 533,
      "رية": 534,
      "در": 535,
      "دت": 536,
      "ادة": 537,
      "تخ": 538,
      "المس": 539,
      "الرا": 540,
      "قولك": 541,
      "الياء": 542,
      "المص": 543,
      "بط": 544,
      "فقد": 545,
      "عمل": 546,
      "والج": 547,
      "فل": 548,
      "عين": 549,
      "قائ": 550,
      "اض": 551,
      "يرة": 552,
      "موضع": 553,
      "فية": 554,
      "تري": 555,
      "الما": 556,
      "واذا": 557,
      "همزة": 558,
      "وقوله": 559,
      "كذا": 560,
      "الرجل": 561,
      "فه": 562,
      "صي": 563,
      "مما": 564,
      "ويقال": 565,
      "جز": 566,
      "مال": 567,
      "والت": 568,
      "اة": 569,
      "يه": 570,
      "وين": 571,
      "كتاب": 572,
      "وكذلك": 573,
      "زل": 574,
      "يعني": 575,
      "رد": 576,
      "اية": 577,
      "ند": 578,
      "العر": 579,
      "لهم": 580,
      "فق": 581,
      "مبني": 582,
      "المح": 583,
      "سيب": 584,
      "غل": 585,
      "وقيل": 586,
      "ظم": 587,
      "ورا": 588,
      "فرد": 589,
      "زيدا": 590,
      "الفا": 591,
      "عليها": 592,
      "ضع": 593,
      "ياء": 594,
      "ضافة": 595,
      "يوم": 596,
      "مفعول": 597,
      "جب": 598,
      "صوب": 599,
      "قولهم": 600,
      "حيث": 601,
      "الاص": 602,
      "معن": 603,
      "المش": 604,
      "واو": 605,
      "الالف": 606,
      "يز": 607,
      "خط": 608,
      "والح": 609,
      "نة": 610,
      "يرا": 611,
      "جمي": 612,
      "جار": 613,
      "انية": 614,
      "للا": 615,
      "\":": 616,
      "الشر": 617,
      "الشاعر": 618,
      "جه": 619,
      "سيبويه": 620,
      "وية": 621,
      "وث": 622,
      "جرور": 623,
      "وات": 624,
      "وليس": 625,
      "نع": 626,
      "نه": 627,
      "واح": 628,
      "واد": 629,
      "صف": 630,
      "راة": 631,
      "الاصل": 632,
      "العل": 633,
      "الامر": 634,
      "العين": 635,
      "حة": 636,
      "كذلك": 637,
      "سل": 638,
      "اللغة": 639,
      "محمد": 640,
      "طي": 641,
      "نصب": 642,
      "ظهر": 643,
      "القي": 644,
      "المخ": 645,
      "سا": 646,
      "ومنه": 647,
      "ذك": 648,
      "جم": 649,
      "قه": 650,
      "قدم": 651,
      "ئة": 652,
      "اهر": 653,
      "جع": 654,
      "هاء": 655,
      "بالم": 656,
      "رفوع": 657,
      "مام": 658,
      "اهل": 659,
      "تين": 660,
      "قلب": 661,
      "تقدم": 662,
      "ضارع": 663,
      "عمرو": 664,
      "والع": 665,
      "فيما": 666,
      "الشيء": 667,
      "الام": 668,
      "ذوف": 669,
      "تش": 670,
      "يره": 671,
      "الارض": 672,
      "ولو": 673,
      "واء": 674,
      "خر": 675,
      "يدة": 676,
      "ركة": 677,
      "بات": 678,
      "فلان": 679,
      "رات": 680,
      "حال": 681,
      "الض": 682,
      "رفة": 683,
      "يكن": 684,
      "وهم": 685,
      "الفاعل": 686,
      "داء": 687,
      "قدر": 688,
      "حن": 689,
      "اصل": 690,
      "صفة": 691,
      "المت": 692,
      "فار": 693,
      "الخبر": 694,
      "فها": 695,
      "عام": 696,
      "الحديث": 697,
      "ذر": 698,
      "بيه": 699,
      "فن": 700,
      "شرح": 701,
      "فانه": 702,
      "فصل": 703,
      "اللفظ": 704,
      "ريف": 705,
      "منصوب": 706,
      "القر": 707,
      "قوم": 708,
      "وعلي": 709,
      "حت": 710,
      "بعة": 711,
      "وقع": 712,
      "وصف": 713,
      "ثني": 714,
      "واز": 715,
      "يك": 716,
      "المست": 717,
      "واس": 718,
      "ينة": 719,
      "خص": 720,
      "اللام": 721,
      "فعال": 722,
      "وغ": 723,
      "راه": 724,
      "الاد": 725,
      "بلا": 726,
      "الحر": 727,
      "ترك": 728,
      "ماع": 729,
      "واست": 730,
      "الجملة": 731,
      "راس": 732,
      "ومث": 733,
      "الاخر": 734,
      "الحال": 735,
      "الاش": 736,
      "نفسه": 737,
      "والث": 738,
      "حسن": 739,
      "كرة": 740,
      "كانه": 741,
      "نص": 742,
      "نت": 743,
      "كب": 744,
      "الكتاب": 745,
      "انك": 746,
      "بق": 747,
      "ذو": 748,
      "فص": 749,
      "اغ": 750,
      "حيح": 751,
      "........": 752,
      "دع": 753,
      "علامة": 754,
      "طلق": 755,
      "منع": 756,
      "مرفوع": 757,
      "بخ": 758,
      "لاح": 759,
      "النس": 760,
      "ريق": 761,
      "اراد": 762,
      "حديث": 763,
      "بم": 764,
      "ثلاثة": 765,
      "قالوا": 766,
      "حكم": 767,
      "صرف": 768,
      "الشعر": 769,
      "النون": 770,
      "باس": 771,
      "لق": 772,
      "ائل": 773,
      "سمي": 774,
      "يريد": 775,
      "ئذ": 776,
      "وجد": 777,
      "وها": 778,
      "الجمع": 779,
      "وصل": 780,
      "باع": 781,
      "ادي": 782,
      "ذكره": 783,
      "زائ": 784,
      "لانها": 785,
      "بمن": 786,
      "فما": 787,
      "خرج": 788,
      "لغة": 789,
      "الاعراب": 790,
      "وجود": 791,
      "وار": 792,
      "جوز": 793,
      "اخذ": 794,
      "قع": 795,
      "والس": 796,
      "المد": 797,
      "استع": 798,
      "اكثر": 799,
      "زلة": 800,
      "وانشد": 801,
      "لية": 802,
      "مبتدا": 803,
      "بالت": 804,
      "بعضهم": 805,
      "واع": 806,
      "حك": 807,
      "ئا": 808,
      "فلما": 809,
      "وله": 810,
      "لغ": 811,
      "متعلق": 812,
      "فات": 813,
      "ريح": 814,
      "كتب": 815,
      "مار": 816,
      "سنة": 817,
      "١٠": 818,
      "العلم": 819,
      "الفاء": 820,
      "معناه": 821,
      "كثير": 822,
      "دخل": 823,
      "كنت": 824,
      "مق": 825,
      "وبين": 826,
      "والش": 827,
      "رايت": 828,
      "انيث": 829,
      "ورد": 830,
      "فلم": 831,
      "ونث": 832,
      "الذين": 833,
      "ضمة": 834,
      "جن": 835,
      "ضل": 836,
      "يط": 837,
      "شبه": 838,
      "الاولي": 839,
      "جا": 840,
      "الهمزة": 841,
      "بيان": 842,
      "نظ": 843,
      "بالك": 844,
      "لس": 845,
      "النح": 846,
      "فين": 847,
      "ابا": 848,
      "مرة": 849,
      "جملة": 850,
      "والص": 851,
      "طلب": 852,
      "الماء": 853,
      "ائر": 854,
      "غر": 855,
      "مص": 856,
      "زمان": 857,
      "الاسماء": 858,
      "الضمير": 859,
      "لكن": 860,
      "ابة": 861,
      "المفعول": 862,
      "منا": 863,
      "صاحب": 864,
      "بعدها": 865,
      "عرف": 866,
      "وصول": 867,
      "معه": 868,
      "بدل": 869,
      "رح": 870,
      "تهي": 871,
      "تنا": 872,
      "كيف": 873,
      "راي": 874,
      "التن": 875,
      "وائ": 876,
      "يص": 877,
      "الاح": 878,
      "التع": 879,
      "فاء": 880,
      "سع": 881,
      "وء": 882,
      "نية": 883,
      "الثلاث": 884,
      "تا": 885,
      "بفتح": 886,
      "وزن": 887,
      "غني": 888,
      "اري": 889,
      "القوم": 890,
      "وير": 891,
      "والله": 892,
      "ريب": 893,
      "المث": 894,
      "الباب": 895,
      "ترا": 896,
      "شرط": 897,
      "خير": 898,
      "ابه": 899,
      "وجب": 900,
      "نعم": 901,
      "لح": 902,
      "واه": 903,
      "صلة": 904,
      "بالح": 905,
      "النصب": 906,
      "المصدر": 907,
      "حدث": 908,
      "جري": 909,
      "بعده": 910,
      "بنا": 911,
      "تت": 912,
      "المصنف": 913,
      "قيقة": 914,
      "مان": 915,
      "زه": 916,
      "دد": 917,
      "قطع": 918,
      "محذوف": 919,
      "وكل": 920,
      "القول": 921,
      "مني": 922,
      "ظن": 923,
      "والخ": 924,
      "مط": 925,
      "مض": 926,
      "تار": 927,
      "١٩": 928,
      "حب": 929,
      "الجر": 930,
      "منهم": 931,
      "عشر": 932,
      "جة": 933,
      "الخط": 934,
      "وذ": 935,
      "لنا": 936,
      "رار": 937,
      "زع": 938,
      "شع": 939,
      "تلك": 940,
      "رائ": 941,
      "ونه": 942,
      "مالك": 943,
      "قيق": 944,
      "مصدر": 945,
      "دار": 946,
      "الدين": 947,
      "وام": 948,
      "السكون": 949,
      "وغير": 950,
      "رع": 951,
      "دم": 952,
      "احدهما": 953,
      "شيئا": 954,
      "وسي": 955,
      "متصل": 956,
      "هن": 957,
      "قبلها": 958,
      "١٣": 959,
      "بلغ": 960,
      "]:": 961,
      "المبتدا": 962,
      "جي": 963,
      "بـ": 964,
      "حينئذ": 965,
      "١٢": 966,
      "هـ": 967,
      "تكلم": 968,
      "الكلمة": 969,
      "ذات": 970,
      "فاما": 971,
      "مك": 972,
      "الشرط": 973,
      "يدا": 974,
      "فك": 975,
      "حا": 976,
      "دين": 977,
      "موا": 978,
      "باء": 979,
      "والك": 980,
      "برا": 981,
      "الرج": 982,
      "بيل": 983,
      "افعل": 984,
      "الطويل": 985,
      "وقف": 986,
      "جميع": 987,
      "تز": 988,
      "شعر": 989,
      "العربية": 990,
      "بالفتح": 991,
      "ظيم": 992,
      "التاء": 993,
      "حس": 994,
      "فهي": 995,
      "والق": 996,
      "فهام": 997,
      "ارض": 998,
      "ناه": 999,
      "لن": 1000,
      "واحدة": 1001,
      "لب": 1002,
      "ئت": 1003,
      "مات": 1004,
      "شاء": 1005,
      "يدل": 1006,
      "طوف": 1007,
      "مضاف": 1008,
      "تمع": 1009,
      "المضاف": 1010,
      "بقي": 1011,
      "اللغ": 1012,
      "مول": 1013,
      "سمع": 1014,
      "ذب": 1015,
      "كقوله": 1016,
      "١٤": 1017,
      "لد": 1018,
      "الوجه": 1019,
      "جاج": 1020,
      "وانه": 1021,
      "اها": 1022,
      "ثبت": 1023,
      "بقوله": 1024,
      "عش": 1025,
      "هار": 1026,
      "ذاك": 1027,
      "مثال": 1028,
      "الافعال": 1029,
      "انهم": 1030,
      "يري": 1031,
      "كلمة": 1032,
      "اليها": 1033,
      "كلا": 1034,
      "الحسن": 1035,
      "بيع": 1036,
      "البص": 1037,
      "الانسان": 1038,
      "لاق": 1039,
      "ــ": 1040,
      "تلف": 1041,
      "الثالث": 1042,
      "والي": 1043,
      "الحرف": 1044,
      "وبة": 1045,
      "تقدير": 1046,
      "بذلك": 1047,
      "فرق": 1048,
      "ابت": 1049,
      "ومع": 1050,
      "عدم": 1051,
      "اهد": 1052,
      "والد": 1053,
      "واق": 1054,
      "قدير": 1055,
      "الكس": 1056,
      "كا": 1057,
      "ياة": 1058,
      "بش": 1059,
      "صور": 1060,
      "بمنزلة": 1061,
      "يات": 1062,
      "فح": 1063,
      "جواز": 1064,
      "ماض": 1065,
      "ريم": 1066,
      "بهم": 1067,
      "نون": 1068,
      "واش": 1069,
      "طق": 1070,
      "تست": 1071,
      "احسن": 1072,
      "فش": 1073,
      "اليوم": 1074,
      "الرفع": 1075,
      "فمن": 1076,
      "قاء": 1077,
      "ائي": 1078,
      "الواحد": 1079,
      "مضارع": 1080,
      "هور": 1081,
      "فهم": 1082,
      "معي": 1083,
      "قياس": 1084,
      "فوق": 1085,
      "ولة": 1086,
      "اخري": 1087,
      "مكان": 1088,
      "ثر": 1089,
      "اعة": 1090,
      "الباء": 1091,
      "فكان": 1092,
      "لط": 1093,
      "حروف": 1094,
      "مرا": 1095,
      ")؛": 1096,
      "تان": 1097,
      "ثمان": 1098,
      "ولد": 1099,
      "نق": 1100,
      "يدي": 1101,
      "خاص": 1102,
      "واص": 1103,
      "تمي": 1104,
      "خذ": 1105,
      "الحكم": 1106,
      "الفر": 1107,
      "عنها": 1108,
      "معا": 1109,
      "عه": 1110,
      "عق": 1111,
      "ثي": 1112,
      "فتقول": 1113,
      "نين": 1114,
      "شا": 1115,
      "بكر": 1116,
      "نب": 1117,
      "روي": 1118,
      "يده": 1119,
      "الها": 1120,
      "المراد": 1121,
      "تهم": 1122,
      "قبله": 1123,
      "١٥": 1124,
      "وكذا": 1125,
      "خول": 1126,
      "النبي": 1127,
      "نيا": 1128,
      "هب": 1129,
      "ظاهر": 1130,
      "كـ": 1131,
      "تعدي": 1132,
      "وفا": 1133,
      "ماعة": 1134,
      "((": 1135,
      "بير": 1136,
      "خلا": 1137,
      "ارا": 1138,
      "واج": 1139,
      "بغ": 1140,
      "رابي": 1141,
      "قديم": 1142,
      "بينهما": 1143,
      "سة": 1144,
      "زيادة": 1145,
      "عطف": 1146,
      "اكن": 1147,
      "سه": 1148,
      "القران": 1149,
      "لازم": 1150,
      "ويجوز": 1151,
      "حاب": 1152,
      "مذهب": 1153,
      "سبق": 1154,
      "لمن": 1155,
      "ابق": 1156,
      "اعلم": 1157,
      "قتضي": 1158,
      "انتهي": 1159,
      "يض": 1160,
      "الصفة": 1161,
      "مطل": 1162,
      "١٨": 1163,
      "ليست": 1164,
      "كسر": 1165,
      "جان": 1166,
      "الحق": 1167,
      "اسما": 1168,
      "نائ": 1169,
      "تحت": 1170,
      "منهما": 1171,
      "مررت": 1172,
      "يغ": 1173,
      "المق": 1174,
      "تقديره": 1175,
      "ريد": 1176,
      "كقولك": 1177,
      "ومجرور": 1178,
      "مز": 1179,
      "بيض": 1180,
      "ملك": 1181,
      "احمد": 1182,
      "وسط": 1183,
      "الملك": 1184,
      "الحروف": 1185,
      "ايا": 1186,
      "اخره": 1187,
      "ادر": 1188,
      "البلا": 1189,
      "مثله": 1190,
      "جواب": 1191,
      "بالع": 1192,
      "الجز": 1193,
      "التص": 1194,
      "رسول": 1195,
      "وكيد": 1196,
      "المر": 1197,
      "للت": 1198,
      "كله": 1199,
      "بهذا": 1200,
      "عليهم": 1201,
      "صوت": 1202,
      "وبا": 1203,
      "معرفة": 1204,
      "عبيد": 1205,
      "يصح": 1206,
      "بكسر": 1207,
      "وقت": 1208,
      "وفيه": 1209,
      "بالن": 1210,
      "رام": 1211,
      "))": 1212,
      "الثانية": 1213,
      "قائم": 1214,
      "الليل": 1215,
      "دق": 1216,
      "المذك": 1217,
      "١٦": 1218,
      "اهرة": 1219,
      "انة": 1220,
      "حمل": 1221,
      "وظ": 1222,
      "وعلامة": 1223,
      "يقع": 1224,
      "وهما": 1225,
      "اصله": 1226,
      "زائدة": 1227,
      "القسم": 1228,
      "الدار": 1229,
      "ائد": 1230,
      "فعلي": 1231,
      "واي": 1232,
      "كرم": 1233,
      "سام": 1234,
      "الشع": 1235,
      "رجلا": 1236,
      "مقد": 1237,
      "والثاني": 1238,
      "المفرد": 1239,
      "التانيث": 1240,
      "تمل": 1241,
      "١٧": 1242,
      "نج": 1243,
      "شك": 1244,
      "قية": 1245,
      "داد": 1246,
      "الهاء": 1247,
      "راج": 1248,
      "فيف": 1249,
      "هذ": 1250,
      "ليلة": 1251,
      "القص": 1252,
      "عنده": 1253,
      "غم": 1254,
      "سورة": 1255,
      "يمكن": 1256,
      "قتل": 1257,
      "العامل": 1258,
      "سواء": 1259,
      "بث": 1260,
      "الفاظ": 1261,
      "طة": 1262,
      "امن": 1263,
      "اسماء": 1264,
      "دث": 1265,
      "راق": 1266,
      "خلق": 1267,
      "لائ": 1268,
      "وقول": 1269,
      "نقول": 1270,
      "عليك": 1271,
      "لله": 1272,
      "ونحو": 1273,
      "افع": 1274,
      "لاء": 1275,
      "اولي": 1276,
      "الشيخ": 1277,
      "ظرف": 1278,
      "مسة": 1279,
      "خي": 1280,
      "تاج": 1281,
      "قري": 1282,
      "كونه": 1283,
      "يعرف": 1284,
      "بغير": 1285,
      "ومة": 1286,
      "بب": 1287,
      "قسم": 1288,
      "نز": 1289,
      "وجعل": 1290,
      "واللام": 1291,
      "وابن": 1292,
      "ذفت": 1293,
      "فقلت": 1294,
      "عرض": 1295,
      "نوع": 1296,
      "بالس": 1297,
      "يفعل": 1298,
      "بتداء": 1299,
      "خلاف": 1300,
      "ثير": 1301,
      "قلة": 1302,
      "طا": 1303,
      "الاج": 1304,
      "شبيه": 1305,
      "ديد": 1306,
      "منك": 1307,
      "ياتي": 1308,
      "تض": 1309,
      "الماضي": 1310,
      "اته": 1311,
      "كلها": 1312,
      "بالاضافة": 1313,
      "وانت": 1314,
      "فيهما": 1315,
      "رجع": 1316,
      "الار": 1317,
      "اطب": 1318,
      "يذكر": 1319,
      "شديد": 1320,
      "لكم": 1321,
      "فضل": 1322,
      "امس": 1323,
      "نفي": 1324,
      "روا": 1325,
      "عما": 1326,
      "ساكن": 1327,
      "وتقول": 1328,
      "بناء": 1329,
      "بغي": 1330,
      "كة": 1331,
      "قض": 1332,
      "النفس": 1333,
      "عط": 1334,
      "الابل": 1335,
      "الفصل": 1336,
      "لقد": 1337,
      "يجب": 1338,
      "مقام": 1339,
      "الفراء": 1340,
      "راك": 1341,
      "وضوع": 1342,
      "فيد": 1343,
      "جائ": 1344,
      "الاية": 1345,
      "عثمان": 1346,
      "سد": 1347,
      "المراة": 1348,
      "ويا": 1349,
      "سند": 1350,
      "ثنية": 1351,
      "اخت": 1352,
      "القياس": 1353,
      "الزمان": 1354,
      "برد": 1355,
      "واض": 1356,
      "يجعل": 1357,
      "وعن": 1358,
      "المج": 1359,
      "الدنيا": 1360,
      "والجمع": 1361,
      "وقوع": 1362,
      "ناس": 1363,
      "تغ": 1364,
      "لاة": 1365,
      "مصر": 1366,
      "كره": 1367,
      "عار": 1368,
      "ليلا": 1369,
      "وهذه": 1370,
      "طن": 1371,
      "الشمس": 1372,
      "الاضافة": 1373,
      "بري": 1374,
      "ولذلك": 1375,
      "سبب": 1376,
      "المضارع": 1377,
      "ارت": 1378,
      "والغ": 1379,
      "مفرد": 1380,
      "قصد": 1381,
      "الاصمعي": 1382,
      "الساكن": 1383,
      "بخلاف": 1384,
      "امه": 1385,
      "فيكون": 1386,
      "حاج": 1387,
      "اضي": 1388,
      "ارب": 1389,
      "خش": 1390,
      "تبار": 1391,
      "العن": 1392,
      "الكاف": 1393,
      "بضم": 1394,
      "اثر": 1395,
      "تحرك": 1396,
      "جرد": 1397,
      "عاد": 1398,
      "ضرورة": 1399,
      "امع": 1400,
      "زن": 1401,
      "المتكلم": 1402,
      "بص": 1403,
      "ودي": 1404,
      "وغيره": 1405,
      "متي": 1406,
      "ضة": 1407,
      "وذكر": 1408,
      "لات": 1409,
      "ونح": 1410,
      "الية": 1411,
      "الرح": 1412,
      "ليت": 1413,
      "بالكسر": 1414,
      "صلح": 1415,
      "علة": 1416,
      "الكوفي": 1417,
      "قاله": 1418,
      "الجواب": 1419,
      "اعت": 1420,
      "الميم": 1421,
      "تط": 1422,
      "يني": 1423,
      "نعت": 1424,
      "وري": 1425,
      "ونا": 1426,
      "اذن": 1427,
      "ينه": 1428,
      "البصري": 1429,
      "البع": 1430,
      "١١": 1431,
      "ئدة": 1432,
      "الضم": 1433,
      "افة": 1434,
      "معطوف": 1435,
      "المعت": 1436,
      "قليل": 1437,
      "والذي": 1438,
      "تاء": 1439,
      "امراة": 1440,
      "الهم": 1441,
      "طب": 1442,
      "كلم": 1443,
      "وبه": 1444,
      "قيس": 1445,
      "قيم": 1446,
      "الصح": 1447,
      "فهذا": 1448,
      "لع": 1449,
      "نم": 1450,
      "التقدير": 1451,
      "وصوف": 1452,
      "الاستفهام": 1453,
      "راءة": 1454,
      "والف": 1455,
      "بالضمة": 1456,
      "اعرا": 1457,
      "ولاء": 1458,
      "يعلم": 1459,
      "الات": 1460,
      "معر": 1461,
      "غض": 1462,
      "وني": 1463,
      "مثلا": 1464,
      "٢٠": 1465,
      "كنا": 1466,
      "قرا": 1467,
      "مائ": 1468,
      "اشبه": 1469,
      "اين": 1470,
      "فلو": 1471,
      "ويقول": 1472,
      "كانوا": 1473,
      "تقديم": 1474,
      "زوم": 1475,
      "رم": 1476,
      "ارج": 1477,
      "بج": 1478,
      "مطلقا": 1479,
      "كثيرا": 1480,
      "صا": 1481,
      "امث": 1482,
      "الموت": 1483,
      "زا": 1484,
      "تف": 1485,
      "الموصول": 1486,
      "اعي": 1487,
      "ودة": 1488,
      "فتوح": 1489,
      "شياء": 1490,
      "حية": 1491,
      "انشد": 1492,
      "العطف": 1493,
      "تعد": 1494,
      "المومن": 1495,
      "البا": 1496,
      "النفي": 1497,
      "السي": 1498,
      "الاف": 1499,
      "طع": 1500,
      "ومثله": 1501,
      "جهة": 1502,
      "ذن": 1503,
      "عج": 1504,
      "حول": 1505,
      "المعاني": 1506,
      "يلي": 1507,
      "النحوي": 1508,
      "بيعة": 1509,
      "فسير": 1510,
      "الاعرابي": 1511,
      "دها": 1512,
      "الحياة": 1513,
      "الموضع": 1514,
      "ربة": 1515,
      "باح": 1516,
      "يلزم": 1517,
      "نح": 1518,
      "بالفعل": 1519,
      "فاق": 1520,
      "موع": 1521,
      "سير": 1522,
      "بالضم": 1523,
      "ولما": 1524,
      "شيخ": 1525,
      "المض": 1526,
      "المحذوف": 1527,
      "صحيح": 1528,
      "لئ": 1529,
      "الثلاثة": 1530,
      "الاسلام": 1531,
      "سوي": 1532,
      "النحو": 1533,
      "اكل": 1534,
      "الدهر": 1535,
      "اهم": 1536,
      "ونها": 1537,
      "لين": 1538,
      "مجري": 1539,
      "راف": 1540,
      "العمل": 1541,
      "بهما": 1542,
      "نكرة": 1543,
      "قلنا": 1544,
      "الظاهر": 1545,
      "عمال": 1546,
      "زاد": 1547,
      "صدق": 1548,
      "نظر": 1549,
      "يعمل": 1550,
      "دائ": 1551,
      "يرد": 1552,
      "ومنها": 1553,
      "بيب": 1554,
      "سلي": 1555,
      "والر": 1556,
      "وقالوا": 1557,
      "السماء": 1558,
      "سلم": 1559,
      "والان": 1560,
      "اربعة": 1561,
      "فاع": 1562,
      "ناد": 1563,
      "المقص": 1564,
      "ونس": 1565,
      "التنوين": 1566,
      "غلب": 1567,
      "نان": 1568,
      "وانا": 1569,
      "تمام": 1570,
      "اليك": 1571,
      "ويكون": 1572,
      "عندي": 1573,
      "يخرج": 1574,
      "مائة": 1575,
      "وته": 1576,
      "افر": 1577,
      "وجملة": 1578,
      "ثناء": 1579,
      "والجملة": 1580,
      "الناظم": 1581,
      "الحي": 1582,
      "اللي": 1583,
      "٢٣": 1584,
      "ظل": 1585,
      "والط": 1586,
      "ممن": 1587,
      "النساء": 1588,
      "والنون": 1589,
      "يقولون": 1590,
      "القلب": 1591,
      "ضعف": 1592,
      "اعل": 1593,
      "جني": 1594,
      "جنس": 1595,
      "تماع": 1596,
      "بالواو": 1597,
      "اولا": 1598,
      "سبيل": 1599,
      "راهيم": 1600,
      "باد": 1601,
      "مغ": 1602,
      "النار": 1603,
      "لقي": 1604,
      "واسم": 1605,
      "شف": 1606,
      "بالق": 1607,
      "ابد": 1608,
      "اقل": 1609,
      "شة": 1610,
      "مستتر": 1611,
      "ابل": 1612,
      "كلامه": 1613,
      "قلوب": 1614,
      "حص": 1615,
      "٢٥": 1616,
      "تكن": 1617,
      "لف": 1618,
      "نحن": 1619,
      "غام": 1620,
      "الحس": 1621,
      "لسان": 1622,
      "خلف": 1623,
      "معها": 1624,
      "اعراب": 1625,
      "٢٤": 1626,
      "نسبة": 1627,
      "ومما": 1628,
      "بانه": 1629,
      "لالة": 1630,
      "يدخل": 1631,
      "نك": 1632,
      "حركة": 1633,
      "عوض": 1634,
      "العباس": 1635,
      "ايها": 1636,
      "العالم": 1637,
      "ذل": 1638,
      "سك": 1639,
      "عود": 1640,
      "المال": 1641,
      "فليس": 1642,
      "حج": 1643,
      "يوما": 1644,
      "سعيد": 1645,
      "مجرور": 1646,
      "كثيرة": 1647,
      "الاق": 1648,
      "دخول": 1649,
      "الادب": 1650,
      "المذكور": 1651,
      "واله": 1652,
      "لفظا": 1653,
      "ركب": 1654,
      "راض": 1655,
      "كقول": 1656,
      "اتم": 1657,
      "ائب": 1658,
      "طيع": 1659,
      "الحذف": 1660,
      "الخليل": 1661,
      "لذلك": 1662,
      "هناك": 1663,
      "مصد": 1664,
      "دح": 1665,
      "\"؛": 1666,
      "الجوه": 1667,
      "حرك": 1668,
      "ابع": 1669,
      "ضربت": 1670,
      "تدخل": 1671,
      "اللسان": 1672,
      "وعل": 1673,
      "وعد": 1674,
      "دلالة": 1675,
      "غيرها": 1676,
      "العق": 1677,
      "بعث": 1678,
      "جميعا": 1679,
      "مكن": 1680,
      "سيط": 1681,
      "النوع": 1682,
      "فقط": 1683,
      "طريق": 1684,
      "لابن": 1685,
      "وجوه": 1686,
      "والواو": 1687,
      "يجز": 1688,
      "ميت": 1689,
      "البناء": 1690,
      "والياء": 1691,
      "عشرة": 1692,
      "صوص": 1693,
      "اخبر": 1694,
      "ويت": 1695,
      "سط": 1696,
      "الرجال": 1697,
      "].": 1698,
      "امي": 1699,
      "مفر": 1700,
      "المط": 1701,
      "جوا": 1702,
      "راع": 1703,
      "عنا": 1704,
      "اره": 1705,
      "زال": 1706,
      "يزيد": 1707,
      "بالج": 1708,
      "البح": 1709,
      "وكانت": 1710,
      "لكل": 1711,
      "ابراهيم": 1712,
      "شئت": 1713,
      "يث": 1714,
      "٢٦": 1715,
      "اجل": 1716,
      "علية": 1717,
      "بعضها": 1718,
      "٢٨": 1719,
      "واحدا": 1720,
      "فصار": 1721,
      "عيف": 1722,
      "البحر": 1723,
      "بدا": 1724,
      "لزم": 1725,
      "يسمي": 1726,
      "فاست": 1727,
      "المجاز": 1728,
      "نقل": 1729,
      "غد": 1730,
      "حيي": 1731,
      "الفتحة": 1732,
      "................": 1733,
      "الاث": 1734,
      "احب": 1735,
      "وجهه": 1736,
      "فيقول": 1737,
      "لعل": 1738,
      "هات": 1739,
      "ريك": 1740,
      "ونحوه": 1741,
      "بنفس": 1742,
      "الرس": 1743,
      "ومعني": 1744,
      "ارح": 1745,
      "وفة": 1746,
      "الفار": 1747,
      "الصرف": 1748,
      "]،": 1749,
      "٢٧": 1750,
      "فخ": 1751,
      "اظ": 1752,
      "فرا": 1753,
      "عز": 1754,
      "فعلا": 1755,
      "نش": 1756,
      "ثاني": 1757,
      "الاي": 1758,
      "مضي": 1759,
      "يجمع": 1760,
      "خبرا": 1761,
      "والفاعل": 1762,
      "ميل": 1763,
      "الصوت": 1764,
      "وفعل": 1765,
      "امير": 1766,
      "والمعني": 1767,
      "لج": 1768,
      "ومثل": 1769,
      "الكسرة": 1770,
      "الصحيح": 1771,
      "مهم": 1772,
      "هود": 1773,
      "سما": 1774,
      "جرة": 1775,
      "رز": 1776,
      "غلام": 1777,
      "الابتداء": 1778,
      "اصحاب": 1779,
      "شام": 1780,
      "الروا": 1781,
      "وجاء": 1782,
      "التشبيه": 1783,
      "المشبه": 1784,
      "يقوم": 1785,
      "قرة": 1786,
      "خاصة": 1787,
      "التح": 1788,
      "زوج": 1789,
      "جعله": 1790,
      "لولا": 1791,
      "بالفتحة": 1792,
      "قلبت": 1793,
      "ويروي": 1794,
      "الحركة": 1795,
      "حسب": 1796,
      "حذفت": 1797,
      "ثرة": 1798,
      "عندهم": 1799,
      "جمة": 1800,
      "قالت": 1801,
      "المقد": 1802,
      "فسر": 1803,
      "دخلت": 1804,
      "ماد": 1805,
      "مونث": 1806,
      "خد": 1807,
      "صورة": 1808,
      "الجوهري": 1809,
      "وبعد": 1810,
      "تلا": 1811,
      "وربما": 1812,
      "فوا": 1813,
      "الجمل": 1814,
      "المل": 1815,
      "لكان": 1816,
      "الفرس": 1817,
      "ربت": 1818,
      "الاعت": 1819,
      "ابقة": 1820,
      "لمات": 1821,
      "وتع": 1822,
      "ولكنه": 1823,
      "٢٩": 1824,
      "والاست": 1825,
      "والاصل": 1826,
      "متنع": 1827,
      "مقص": 1828,
      "لابي": 1829,
      "حقيقة": 1830,
      "عمرا": 1831,
      "الراء": 1832,
      "اقة": 1833,
      "مرت": 1834,
      "نها": 1835,
      "فيقال": 1836,
      "اعد": 1837,
      "الاخفش": 1838,
      "والالف": 1839,
      "يتع": 1840,
      "اعط": 1841,
      "شم": 1842,
      "صالح": 1843,
      "لانك": 1844,
      "الري": 1845,
      "المكان": 1846,
      "ديق": 1847,
      "الحقيقة": 1848,
      "معل": 1849,
      "صير": 1850,
      "فانها": 1851,
      "ربا": 1852,
      "شه": 1853,
      "الدال": 1854,
      "موصول": 1855,
      "ففي": 1856,
      "للك": 1857,
      "صبح": 1858,
      "التعريف": 1859,
      "الحرب": 1860,
      "البر": 1861,
      "فاد": 1862,
      "هولاء": 1863,
      "ينبغي": 1864,
      "ضب": 1865,
      "تقع": 1866,
      "الكامل": 1867,
      "واصل": 1868,
      "باسم": 1869,
      "تقر": 1870,
      "ماله": 1871,
      "الحاج": 1872,
      "بنو": 1873,
      "لدي": 1874,
      "المومنين": 1875,
      "علمت": 1876,
      "للتع": 1877,
      "ميم": 1878,
      "المسالة": 1879,
      "نافية": 1880,
      "فتي": 1881,
      "مذ": 1882,
      "جعلت": 1883,
      "ضد": 1884,
      "لال": 1885,
      "٣٠": 1886,
      "واك": 1887,
      "يادة": 1888,
      "كانها": 1889,
      "النسبة": 1890,
      "الضرب": 1891,
      "عذ": 1892,
      "اتب": 1893,
      "المثل": 1894,
      "دليل": 1895,
      "هكذا": 1896,
      "والز": 1897,
      "بوت": 1898,
      "زيز": 1899,
      "لهما": 1900,
      "حه": 1901,
      "سق": 1902,
      "باط": 1903,
      "الاشارة": 1904,
      "المذكر": 1905,
      "قائما": 1906,
      "ومر": 1907,
      "لهذا": 1908,
      "واني": 1909,
      "ونة": 1910,
      "الظرف": 1911,
      "ئه": 1912,
      "الاب": 1913,
      "وراء": 1914,
      "المثال": 1915,
      "وهل": 1916,
      "زعم": 1917,
      "موسي": 1918,
      "اردت": 1919,
      "كري": 1920,
      "وشر": 1921,
      "جاءت": 1922,
      "يعود": 1923,
      "الجار": 1924,
      "ظلم": 1925,
      "خبره": 1926,
      "طار": 1927,
      "ظة": 1928,
      "ينت": 1929,
      "الجنس": 1930,
      "بالف": 1931,
      "اوز": 1932,
      "ثة": 1933,
      "قصر": 1934,
      "الترك": 1935,
      "طه": 1936,
      "بالله": 1937,
      "لاب": 1938,
      "وكد": 1939,
      "انظر": 1940,
      "المغ": 1941,
      "بالالف": 1942,
      "النحاة": 1943,
      "صاد": 1944,
      "نصبه": 1945,
      "اكيد": 1946,
      "امرا": 1947,
      "البصريين": 1948,
      "الرابع": 1949,
      "وقي": 1950,
      "التعلي": 1951,
      "جعفر": 1952,
      "بدلا": 1953,
      "ابر": 1954,
      "اخل": 1955,
      "ملا": 1956,
      "بحر": 1957,
      "العب": 1958,
      "شق": 1959,
      "فيا": 1960,
      "تدل": 1961,
      "راسه": 1962,
      "الرحمن": 1963,
      "ابدا": 1964,
      "مجر": 1965,
      "العد": 1966,
      "العدد": 1967,
      "والفعل": 1968,
      "الخير": 1969,
      "اشد": 1970,
      "مجاز": 1971,
      "المونث": 1972,
      "ايام": 1973,
      "الزم": 1974,
      "فرع": 1975,
      "دفع": 1976,
      "فاعله": 1977,
      "كام": 1978,
      "بالغة": 1979,
      "ثعل": 1980,
      "البسيط": 1981,
      "البيان": 1982,
      "ضاء": 1983,
      "استعمال": 1984,
      "يجري": 1985,
      "ترج": 1986,
      "ضارب": 1987,
      "الخيل": 1988,
      "وذهب": 1989,
      "الضمة": 1990,
      "المهم": 1991,
      "ورجل": 1992,
      "مين": 1993,
      "انس": 1994,
      "القيس": 1995,
      "الناقة": 1996,
      "اياه": 1997,
      "التر": 1998,
      "الرب": 1999,
      "البي": 2000,
      "ودا": 2001,
      "قات": 2002,
      "معاني": 2003,
      "مهور": 2004,
      "وعند": 2005,
      "زياد": 2006,
      "كتابه": 2007,
      "ميع": 2008,
      "الاز": 2009,
      "التثنية": 2010,
      "ولقد": 2011,
      "الوصف": 2012,
      "عدي": 2013,
      "الكسر": 2014,
      "ريع": 2015,
      "يضرب": 2016,
      "خمسة": 2017,
      "طلع": 2018,
      "يقتضي": 2019,
      "عدد": 2020,
      "ذين": 2021,
      "كثرة": 2022,
      "عص": 2023,
      "هند": 2024,
      "بعين": 2025,
      "تميم": 2026,
      "الاخري": 2027,
      "مطر": 2028,
      "-:": 2029,
      "تحق": 2030,
      "الدي": 2031,
      "طري": 2032,
      "اور": 2033,
      "نوا": 2034,
      "مفع": 2035,
      "يحذف": 2036,
      "مثلها": 2037,
      "بنية": 2038,
      "بالش": 2039,
      "مييز": 2040,
      "ولها": 2041,
      "اطفة": 2042,
      "بز": 2043,
      "الالفاظ": 2044,
      "وقعت": 2045,
      "كلي": 2046,
      "ادم": 2047,
      "والمن": 2048,
      "سعد": 2049,
      "الكسائي": 2050,
      "المخاطب": 2051,
      "تحقيق": 2052,
      "مفتوح": 2053,
      "العام": 2054,
      "الجن": 2055,
      "شهد": 2056,
      "وروي": 2057,
      "السابق": 2058,
      "العربي": 2059,
      "واعلم": 2060,
      "يظهر": 2061,
      "عوا": 2062,
      "اوله": 2063,
      "جمل": 2064,
      "خالد": 2065,
      "الاط": 2066,
      "تبع": 2067,
      "الصواب": 2068,
      "ثل": 2069,
      "سرة": 2070,
      "فعلت": 2071,
      "الاخبار": 2072,
      "المعرفة": 2073,
      "الوصل": 2074,
      "خم": 2075,
      "بفعل": 2076,
      "حالة": 2077,
      "الته": 2078,
      "واعد": 2079,
      "اقول": 2080,
      "ميز": 2081,
      "طوي": 2082,
      "الكريم": 2083,
      "النكرة": 2084,
      "صة": 2085,
      "دريد": 2086,
      "خف": 2087,
      "وافق": 2088,
      "والخبر": 2089,
      "الحج": 2090,
      "تريد": 2091,
      "الطريق": 2092,
      "والصواب": 2093,
      "مثلة": 2094,
      "الفرق": 2095,
      "يستعمل": 2096,
      "راح": 2097,
      "كونها": 2098,
      "قين": 2099,
      "اجاز": 2100,
      "وبي": 2101,
      "السين": 2102,
      "وجوبا": 2103,
      "كف": 2104,
      "جزم": 2105,
      "خة": 2106,
      "نفسي": 2107,
      "قبي": 2108,
      "جائز": 2109,
      "تقاق": 2110,
      "والاخ": 2111,
      "العلة": 2112,
      "مدة": 2113,
      "واخر": 2114,
      "النظر": 2115,
      "عامل": 2116,
      "بشر": 2117,
      "المول": 2118,
      "بنت": 2119,
      "اللغات": 2120,
      "ارك": 2121,
      "العلماء": 2122,
      "تعمل": 2123,
      "الذكر": 2124,
      "ذكرنا": 2125,
      "فرس": 2126,
      "علينا": 2127,
      "جح": 2128,
      "الاسد": 2129,
      "تعلم": 2130,
      "الخلق": 2131,
      "وحكي": 2132,
      "معد": 2133,
      "تنوين": 2134,
      "ثالث": 2135,
      "الاستاذ": 2136,
      "ائع": 2137,
      "معت": 2138,
      "ارف": 2139,
      "الاض": 2140,
      "الراي": 2141,
      "العروس": 2142,
      "مها": 2143,
      "مختل": 2144,
      "قليلا": 2145,
      "قوي": 2146,
      "جماعة": 2147,
      "سبح": 2148,
      "التوكيد": 2149,
      "المز": 2150,
      "البعير": 2151,
      "ذكرت": 2152,
      "وسف": 2153,
      "ساب": 2154,
      "مرو": 2155,
      "علما": 2156,
      "بحث": 2157,
      "الصلاة": 2158,
      "تعرف": 2159,
      "برة": 2160,
      "الوح": 2161,
      "موضوع": 2162,
      "احدي": 2163,
      "حقه": 2164,
      "مضم": 2165,
      "تفعل": 2166,
      "قار": 2167,
      "عهد": 2168,
      "تاريخ": 2169,
      "المسند": 2170,
      "افية": 2171,
      "غب": 2172,
      "قوة": 2173,
      "حكي": 2174,
      "جلي": 2175,
      "الظر": 2176,
      "٣٥": 2177,
      "باعتبار": 2178,
      "الشعراء": 2179,
      "انفس": 2180,
      "اصبح": 2181,
      "صن": 2182,
      "همز": 2183,
      "بحرف": 2184,
      "عاء": 2185,
      "اوي": 2186,
      "ضعيف": 2187,
      "ولهذا": 2188,
      "٣٦": 2189,
      "ملت": 2190,
      "القد": 2191,
      "صاحبه": 2192,
      "طرف": 2193,
      "محم": 2194,
      "٣٤": 2195,
      "يدع": 2196,
      "قرب": 2197,
      "ضح": 2198,
      "جزء": 2199,
      "سائر": 2200,
      "يحيي": 2201,
      "اجتمع": 2202,
      "فـ": 2203,
      "الليث": 2204,
      "طويل": 2205,
      "ائم": 2206,
      "شرة": 2207,
      "النداء": 2208,
      "وره": 2209,
      "الثلاثي": 2210,
      "المعر": 2211,
      "والمجرور": 2212,
      "ضمن": 2213,
      "خطا": 2214,
      "البدل": 2215,
      "يشبه": 2216,
      "جام": 2217,
      "اشار": 2218,
      "افعال": 2219,
      "الجماعة": 2220,
      "عينه": 2221,
      "وفتح": 2222,
      "داة": 2223,
      "واف": 2224,
      "واوا": 2225,
      "اعدة": 2226,
      "مذكر": 2227,
      "وكسر": 2228,
      "صه": 2229,
      "يقل": 2230,
      "يخل": 2231,
      "تصرف": 2232,
      "مكس": 2233,
      "وعة": 2234,
      "كال": 2235,
      "اهما": 2236,
      "معروف": 2237,
      "اخرج": 2238,
      "يصف": 2239,
      "بعيد": 2240,
      "مسلم": 2241,
      "منذ": 2242,
      "واضع": 2243,
      "اسد": 2244,
      "قراءة": 2245,
      "فقيل": 2246,
      "ركات": 2247,
      "هاب": 2248,
      "اصلا": 2249,
      "المسلم": 2250,
      "٣٧": 2251,
      "طول": 2252,
      "كار": 2253,
      "قاد": 2254,
      "موقع": 2255,
      "يمنع": 2256,
      "رواية": 2257,
      "عدة": 2258,
      "الزيادة": 2259,
      "ارث": 2260,
      "الحك": 2261,
      "شدة": 2262,
      "وحده": 2263,
      "ادخل": 2264,
      "حيان": 2265,
      "الامور": 2266,
      "خلي": 2267,
      "سلام": 2268,
      "النسب": 2269,
      "عظيم": 2270,
      "مقدم": 2271,
      "بلي": 2272,
      "السك": 2273,
      "وول": 2274,
      "ماخ": 2275,
      "والمراد": 2276,
      "بالغ": 2277,
      "واتها": 2278,
      "اريخ": 2279,
      "العقل": 2280,
      "عظ": 2281,
      "الكتب": 2282,
      "فقالوا": 2283,
      "البلاغة": 2284,
      "والتاء": 2285,
      "الحد": 2286,
      "جانب": 2287,
      "ومنهم": 2288,
      "وابو": 2289,
      "ويد": 2290,
      "الفعلية": 2291,
      "يمة": 2292,
      "الاعل": 2293,
      "٣٨": 2294,
      "امره": 2295,
      "متع": 2296,
      "شاعر": 2297,
      "خال": 2298,
      "ويست": 2299,
      "القديم": 2300,
      "زدق": 2301,
      "ائه": 2302,
      "اختص": 2303,
      "بالخ": 2304,
      "خلافا": 2305,
      "تحذف": 2306,
      "رجال": 2307,
      "تما": 2308,
      "الريح": 2309,
      "افضل": 2310,
      "العامة": 2311,
      "انواع": 2312,
      "النحويين": 2313,
      "بشيء": 2314,
      "شوا": 2315,
      "لانهم": 2316,
      "اريد": 2317,
      "٣٩": 2318,
      "حز": 2319,
      "الوقف": 2320,
      "صيغة": 2321,
      "ظهور": 2322,
      "مواضع": 2323,
      "ومعن": 2324,
      "الاسمية": 2325,
      "قم": 2326,
      "فاه": 2327,
      "مجموع": 2328,
      "حالا": 2329,
      "بض": 2330,
      "نات": 2331,
      "اقت": 2332,
      "سمعت": 2333,
      "اعني": 2334,
      "النج": 2335,
      "الكثير": 2336,
      "بينه": 2337,
      "تيب": 2338,
      "ابها": 2339,
      "ذكرها": 2340,
      "اسي": 2341,
      "كسرة": 2342,
      "شئ": 2343,
      "وخر": 2344,
      "وجدت": 2345,
      "عدا": 2346,
      "تهما": 2347,
      "زاء": 2348,
      "سميت": 2349,
      "عارة": 2350,
      "هاد": 2351,
      "يعت": 2352,
      "الشارح": 2353,
      "تعريف": 2354,
      "اجمع": 2355,
      "اتها": 2356,
      "مشي": 2357,
      "وقل": 2358,
      "فانما": 2359,
      "الساكنين": 2360,
      "واصله": 2361,
      "احدا": 2362,
      "البقرة": 2363,
      "واعت": 2364,
      "اده": 2365,
      "الاستثناء": 2366,
      "معناها": 2367,
      "يراد": 2368,
      "ابتد": 2369,
      "موجود": 2370,
      "حما": 2371,
      "ويقولون": 2372,
      "قاب": 2373,
      "خيرا": 2374,
      "اربع": 2375,
      "فلي": 2376,
      "رفعه": 2377,
      "كاد": 2378,
      "اختلاف": 2379,
      "عندك": 2380,
      "فحذف": 2381,
      "ولعل": 2382,
      "والتقدير": 2383,
      "تاتي": 2384,
      "طالب": 2385,
      "غز": 2386,
      "اللغوي": 2387,
      "يصلح": 2388,
      "روح": 2389,
      "جدا": 2390,
      "واث": 2391,
      "يوسف": 2392,
      "العم": 2393,
      "فد": 2394,
      "نصر": 2395,
      "ثابت": 2396,
      "عنهم": 2397,
      "بكل": 2398,
      "حاجة": 2399,
      "لون": 2400,
      "ئب": 2401,
      "ديوانه": 2402,
      "كفر": 2403,
      "ستة": 2404,
      "احي": 2405,
      "يحمل": 2406,
      "صفور": 2407,
      "انسان": 2408,
      "الخطاب": 2409,
      "فعله": 2410,
      "عائ": 2411,
      "ريض": 2412,
      "هشام": 2413,
      "وزعم": 2414,
      "وحذف": 2415,
      "قريب": 2416,
      "الفتي": 2417,
      "والهاء": 2418,
      "بنفسه": 2419,
      "الاغ": 2420,
      "الحب": 2421,
      "ذم": 2422,
      "لغير": 2423,
      "احرف": 2424,
      "للاست": 2425,
      "الامثلة": 2426,
      "بيد": 2427,
      "الفص": 2428,
      "يحتاج": 2429,
      "فجعل": 2430,
      "بره": 2431,
      "سقط": 2432,
      "باه": 2433,
      "معمول": 2434,
      "رن": 2435,
      "كه": 2436,
      "خت": 2437,
      "يعد": 2438,
      "فضيل": 2439,
      "اعمال": 2440,
      "قها": 2441,
      "العظيم": 2442,
      "بئ": 2443,
      "الموصوف": 2444,
      "شخص": 2445,
      "جره": 2446,
      "الكوفيين": 2447,
      "اكت": 2448,
      "فعيل": 2449,
      "٢٢": 2450,
      "ثقل": 2451,
      "ماذا": 2452,
      "بلاد": 2453,
      "المدينة": 2454,
      "غاية": 2455,
      "وكم": 2456,
      "عبيدة": 2457,
      "نزل": 2458,
      "فرة": 2459,
      "الكلمات": 2460,
      "جرير": 2461,
      "الاشياء": 2462,
      "معطوفة": 2463,
      "٤٠": 2464,
      "ذة": 2465,
      "جاءني": 2466,
      "ساكنة": 2467,
      "فاج": 2468,
      "جوازا": 2469,
      "الفضل": 2470,
      "امت": 2471,
      "بلفظ": 2472,
      "تفسير": 2473,
      "حدثنا": 2474,
      "حض": 2475,
      "خفيف": 2476,
      "فارس": 2477,
      "بينا": 2478,
      "مفعولا": 2479,
      "بهذه": 2480,
      "خبرها": 2481,
      "فيهم": 2482,
      "رجة": 2483,
      "سهيل": 2484,
      "المبرد": 2485,
      "ابيات": 2486,
      "عالم": 2487,
      "عامر": 2488,
      "يرجع": 2489,
      "راسة": 2490,
      "فائدة": 2491,
      "العزيز": 2492,
      "الول": 2493,
      "برجل": 2494,
      "عليكم": 2495,
      "الهي": 2496,
      "ذان": 2497,
      "صحة": 2498,
      "تني": 2499,
      "السر": 2500,
      "يوجد": 2501,
      "الشاهد": 2502,
      "فكيف": 2503,
      "ربي": 2504,
      "الواقع": 2505,
      "يحسن": 2506,
      "جلس": 2507,
      "بالص": 2508,
      "المتن": 2509,
      "موت": 2510,
      "ثعلب": 2511,
      "يتعلق": 2512,
      "صباح": 2513,
      "وترك": 2514,
      "طاء": 2515,
      "اشارة": 2516,
      "المطر": 2517,
      "اويل": 2518,
      "باي": 2519,
      "اصلها": 2520,
      "واكثر": 2521,
      "والنصب": 2522,
      "غيير": 2523,
      "التقاء": 2524,
      "النظ": 2525,
      "لفظه": 2526,
      "اثنين": 2527,
      "الظاهرة": 2528,
      "مسالة": 2529,
      "قيقي": 2530,
      "لئلا": 2531,
      "اضافة": 2532,
      "بته": 2533,
      "بيات": 2534,
      "واجاز": 2535,
      "تقل": 2536,
      "ندي": 2537,
      "زهري": 2538,
      "زر": 2539,
      "خلص": 2540,
      "طال": 2541,
      "قيد": 2542,
      "قضي": 2543,
      "حط": 2544,
      "والميم": 2545,
      "فصيل": 2546,
      "ومثال": 2547,
      "حظ": 2548,
      "وجهين": 2549,
      "المقصود": 2550,
      "ئك": 2551,
      "يسمع": 2552,
      "اضر": 2553,
      "فصيح": 2554,
      "حاق": 2555,
      "يقدر": 2556,
      "شان": 2557,
      "قائل": 2558,
      "كلما": 2559,
      "والل": 2560,
      "السنة": 2561,
      "تيار": 2562,
      "الاستعمال": 2563,
      "هدي": 2564,
      "ابوه": 2565,
      "الجزء": 2566,
      "تعل": 2567,
      "كور": 2568,
      "السبب": 2569,
      "شار": 2570,
      "خمس": 2571,
      "اسمه": 2572,
      "حني": 2573,
      "دب": 2574,
      "رقم": 2575,
      "فعي": 2576,
      "ياق": 2577,
      "طاع": 2578,
      "افي": 2579,
      "امية": 2580,
      "التمييز": 2581,
      "والمفعول": 2582,
      "درهم": 2583,
      "الجيم": 2584,
      "يرفع": 2585,
      "عاطفة": 2586,
      "عسي": 2587,
      "بدر": 2588,
      "نط": 2589,
      "ولل": 2590,
      "بالد": 2591,
      "المنصوب": 2592,
      "وهنا": 2593,
      "وليست": 2594,
      "ظاه": 2595,
      "تحدث": 2596,
      "مرك": 2597,
      "سري": 2598,
      "لـ": 2599,
      "الخاص": 2600,
      "باق": 2601,
      "قصيدة": 2602,
      "الراس": 2603,
      "ماح": 2604,
      "فاح": 2605,
      "غيرة": 2606,
      "ترط": 2607,
      "مادة": 2608,
      "عبارة": 2609,
      "تمر": 2610,
      "الامام": 2611,
      "واري": 2612,
      "كبر": 2613,
      "الحمد": 2614,
      "بعضه": 2615,
      "الطعام": 2616,
      "يجيء": 2617,
      "كلامهم": 2618,
      "بالياء": 2619,
      "وتاج": 2620,
      "افا": 2621,
      "النعت": 2622,
      "اللحم": 2623,
      "سيد": 2624,
      "فعلة": 2625,
      "سح": 2626,
      "هذين": 2627,
      "خيل": 2628,
      "التركيب": 2629,
      "عباس": 2630,
      "انف": 2631,
      "ذوي": 2632,
      "اقسام": 2633,
      "والمع": 2634,
      "مراد": 2635,
      "لامي": 2636,
      "حصل": 2637,
      "اصر": 2638,
      "امات": 2639,
      "اللبن": 2640,
      "اسة": 2641,
      "عرفت": 2642,
      "يحتمل": 2643,
      "الروم": 2644,
      "اسمها": 2645,
      "ماه": 2646,
      "معاوية": 2647,
      "وهكذا": 2648,
      "اخير": 2649,
      "انع": 2650,
      "الجنة": 2651,
      "شرب": 2652,
      "واجب": 2653,
      "تسمي": 2654,
      "تجعل": 2655,
      "المرء": 2656,
      "الازهري": 2657,
      "فيك": 2658,
      "يما": 2659,
      "صيص": 2660,
      "وجمع": 2661,
      "بالب": 2662,
      "اللا": 2663,
      "فانك": 2664,
      "استئ": 2665,
      "شج": 2666,
      "عصفور": 2667,
      "سمية": 2668,
      "رضي": 2669,
      "الجاه": 2670,
      "الثوب": 2671,
      "ليم": 2672,
      "والب": 2673,
      "اداة": 2674,
      "لاتص": 2675,
      "سالم": 2676,
      "ابيه": 2677,
      "نفسها": 2678,
      "السيف": 2679,
      "مقت": 2680,
      "حمد": 2681,
      "ترد": 2682,
      "استق": 2683,
      "وسكون": 2684,
      "تمال": 2685,
      "نجد": 2686,
      "التعجب": 2687,
      "مالا": 2688,
      "ثق": 2689,
      "الطيب": 2690,
      "النعم": 2691,
      "ثان": 2692,
      "بعه": 2693,
      "قس": 2694,
      "بزيد": 2695,
      "شهر": 2696,
      "سال": 2697,
      "سف": 2698,
      "طائ": 2699,
      "بينها": 2700,
      "لكنه": 2701,
      "تحمل": 2702,
      "الوافر": 2703,
      "وعليه": 2704,
      "ونظ": 2705,
      "الفي": 2706,
      "حجر": 2707,
      "ذاهب": 2708,
      "وائل": 2709,
      "والثالث": 2710,
      "ضت": 2711,
      "وده": 2712,
      "اصاب": 2713,
      "وحد": 2714,
      "الايام": 2715,
      "واط": 2716,
      "السلط": 2717,
      "اجر": 2718,
      "زهير": 2719,
      "ونحن": 2720,
      "الزيد": 2721,
      "فهوم": 2722,
      "القائل": 2723,
      "الامير": 2724,
      "ناب": 2725,
      "ربك": 2726,
      "وعمرو": 2727,
      "سار": 2728,
      "زق": 2729,
      "ذاب": 2730,
      "اشر": 2731,
      "تجد": 2732,
      "مشبه": 2733,
      "طلاح": 2734,
      "واخذ": 2735,
      "يتعدي": 2736,
      "مضا": 2737,
      "قصة": 2738,
      "مكة": 2739,
      "حتمل": 2740,
      "انهما": 2741,
      "فج": 2742,
      "الحجاز": 2743,
      "غار": 2744,
      "ذكير": 2745,
      "عمله": 2746,
      "كني": 2747,
      "ربما": 2748,
      "والاخر": 2749,
      "الاستعارة": 2750,
      "زية": 2751,
      "شب": 2752,
      "الدر": 2753,
      "الدلالة": 2754,
      "فانت": 2755,
      "عقد": 2756,
      "اقبل": 2757,
      "اكر": 2758,
      "اجد": 2759,
      "المضمر": 2760,
      "شت": 2761,
      "المعروف": 2762,
      "وفر": 2763,
      "عدل": 2764,
      "المرفوع": 2765,
      "ذكرناه": 2766,
      "كلف": 2767,
      "اليمن": 2768,
      "لوب": 2769,
      "عنك": 2770,
      "السلام": 2771,
      "ئين": 2772,
      "يسم": 2773,
      "الاسود": 2774,
      "البلاد": 2775,
      "نفسك": 2776,
      "نسب": 2777,
      "المعطوف": 2778,
      "وضة": 2779,
      "القاضي": 2780,
      "الهوي": 2781,
      "٤٥": 2782,
      "الجد": 2783,
      "عف": 2784,
      "ربه": 2785,
      "ئي": 2786,
      "ياب": 2787,
      "بيها": 2788,
      "ثا": 2789,
      "كبير": 2790,
      "تنبيه": 2791,
      "جبل": 2792,
      "الفرزدق": 2793,
      "سوا": 2794,
      "صلا": 2795,
      "الكوفيون": 2796,
      "وكيف": 2797,
      "فاني": 2798,
      "هام": 2799,
      "ريا": 2800,
      "السير": 2801,
      "زين": 2802,
      "فهذه": 2803,
      "الشبه": 2804,
      "استح": 2805,
      "منزلة": 2806,
      "وعا": 2807,
      "عندنا": 2808,
      "الحم": 2809,
      "استعمل": 2810,
      "وشبه": 2811,
      "لاج": 2812,
      "باج": 2813,
      "حرفا": 2814,
      "طلح": 2815,
      "لمي": 2816,
      "مذك": 2817,
      "العصر": 2818,
      "لاتصاله": 2819,
      "علوم": 2820,
      "فاعلا": 2821,
      "قتي": 2822,
      "الحاء": 2823,
      "كرر": 2824,
      "بينهم": 2825,
      "تعلي": 2826,
      "سج": 2827,
      "البد": 2828,
      "وهن": 2829,
      "المنع": 2830,
      "دوا": 2831,
      "ساد": 2832,
      "شعره": 2833,
      "مله": 2834,
      "يتم": 2835,
      "المرا": 2836,
      "النهار": 2837,
      "التسهيل": 2838,
      "ورق": 2839,
      "الدولة": 2840,
      "واقع": 2841,
      "وزيد": 2842,
      "الحاق": 2843,
      "تمييز": 2844,
      "الرمة": 2845,
      "الشئ": 2846,
      "الوقت": 2847,
      "بقول": 2848,
      "الفت": 2849,
      "فكذلك": 2850,
      "ناف": 2851,
      "وجوب": 2852,
      "اثبات": 2853,
      "الموضوع": 2854,
      "نقله": 2855,
      "المثني": 2856,
      "ينصب": 2857,
      "صارت": 2858,
      "اضرب": 2859,
      "يونس": 2860,
      "٤٧": 2861,
      "طان": 2862,
      "باري": 2863,
      "صره": 2864,
      "امرئ": 2865,
      "شاذ": 2866,
      "رمي": 2867,
      "وضح": 2868,
      "كين": 2869,
      "اليهم": 2870,
      "استفهام": 2871,
      "ضه": 2872,
      "حاف": 2873,
      "غدا": 2874,
      "الحارث": 2875,
      "الشام": 2876,
      "وائد": 2877,
      "ثوب": 2878,
      "المحل": 2879,
      "سيف": 2880,
      "امثلة": 2881,
      "بحيث": 2882,
      "شرا": 2883,
      "مامة": 2884,
      "لاع": 2885,
      "ديع": 2886,
      "تذكر": 2887,
      "وحين": 2888,
      "الخامس": 2889,
      "شاد": 2890,
      "المستثني": 2891,
      "سكن": 2892,
      "يذهب": 2893,
      "فلانا": 2894,
      "بذ": 2895,
      "نبي": 2896,
      "الصاد": 2897,
      "خشري": 2898,
      "يسر": 2899,
      "يتقدم": 2900,
      "وايضا": 2901,
      "٤٨": 2902,
      "كتور": 2903,
      "ظننت": 2904,
      "قاط": 2905,
      "صلي": 2906,
      "العلمية": 2907,
      "قلبي": 2908,
      "قرينة": 2909,
      "لامه": 2910,
      "والض": 2911,
      "وامر": 2912,
      "ورها": 2913,
      "٤٦": 2914,
      "ارس": 2915,
      "الخمسة": 2916,
      "تصغير": 2917,
      "قوب": 2918,
      "يكتب": 2919,
      "تقي": 2920,
      "المجرور": 2921,
      "التاريخ": 2922,
      "اود": 2923,
      "جمعه": 2924,
      "واذ": 2925,
      "خرجت": 2926,
      "لعدم": 2927,
      "الصحاح": 2928,
      "تعلق": 2929,
      "الكري": 2930,
      "فز": 2931,
      "وتن": 2932,
      "وتي": 2933,
      "دام": 2934,
      "الوق": 2935,
      "ادري": 2936,
      "نظير": 2937,
      "ونص": 2938,
      "الصلة": 2939,
      "العي": 2940,
      "خفي": 2941,
      "يقصد": 2942,
      "والكاف": 2943,
      "هز": 2944,
      "منكم": 2945,
      "القرن": 2946,
      "جو": 2947,
      "سود": 2948,
      "شرين": 2949,
      "احمر": 2950,
      "التصغير": 2951,
      "الغائ": 2952,
      "ناقة": 2953,
      "عباد": 2954,
      "وشرح": 2955,
      "ناع": 2956,
      "الخص": 2957,
      "وغيرها": 2958,
      "اسن": 2959,
      "وسع": 2960,
      "فلذلك": 2961,
      "كقولهم": 2962,
      "ارد": 2963,
      "الاخير": 2964,
      "السيد": 2965,
      "جازم": 2966,
      "تباع": 2967,
      "صنع": 2968,
      "مخرج": 2969,
      "جئت": 2970,
      "اوة": 2971,
      "الفارسي": 2972,
      "حاتم": 2973,
      "ئل": 2974,
      "الواحدة": 2975,
      "حسان": 2976,
      "وبعض": 2977,
      "ليلي": 2978,
      "اعرابها": 2979,
      "بوشر": 2980,
      "نساء": 2981,
      "وتر": 2982,
      "المذكورة": 2983,
      "بحسب": 2984,
      "العوا": 2985,
      "بدليل": 2986,
      "ربيعة": 2987,
      "فتحة": 2988,
      "الزجاج": 2989,
      "يمان": 2990,
      "يبقي": 2991,
      "الاكثر": 2992,
      "فقالت": 2993,
      "زيل": 2994,
      "حقا": 2995,
      "فكانه": 2996,
      "زمن": 2997,
      "يفهم": 2998,
      "اجتماع": 2999,
      "تراك": 3000,
      "ينصرف": 3001,
      "سليمان": 3002,
      "حوا": 3003,
      "لازمة": 3004,
      "قن": 3005,
      "شمس": 3006,
      "غري": 3007,
      "اللهم": 3008,
      "ورايت": 3009,
      "القت": 3010,
      "الصورة": 3011,
      "الافراد": 3012,
      "امام": 3013,
      "نار": 3014,
      "الفة": 3015,
      "ضيف": 3016,
      "قيت": 3017,
      "السابقة": 3018,
      "فف": 3019,
      "النف": 3020,
      "قومه": 3021,
      "الاعشي": 3022,
      "الغرض": 3023,
      "بدو": 3024,
      "بحذف": 3025,
      "وثر": 3026,
      "البحث": 3027,
      "العلي": 3028,
      "منس": 3029,
      "حفظ": 3030,
      "المولف": 3031,
      "انتم": 3032,
      "ويع": 3033,
      "تغير": 3034,
      "اكرم": 3035,
      "انني": 3036,
      "اعرف": 3037,
      "طيب": 3038,
      "ينظر": 3039,
      "الجبل": 3040,
      "المعجمة": 3041,
      "التعب": 3042,
      "معرب": 3043,
      "اياك": 3044,
      "يقت": 3045,
      "مضافا": 3046,
      "٣٣": 3047,
      "مون": 3048,
      "اختلف": 3049,
      "استئنافية": 3050,
      "اضيف": 3051,
      "الجمهور": 3052,
      "ولان": 3053,
      "وكما": 3054,
      "جرت": 3055,
      "ههنا": 3056,
      "وحي": 3057,
      "بتها": 3058,
      "الراجز": 3059,
      "تشبيه": 3060,
      "يفيد": 3061,
      "الخي": 3062,
      "ذلي": 3063,
      "صاف": 3064,
      "لز": 3065,
      "الغالب": 3066,
      "حضر": 3067,
      "تات": 3068,
      "بابه": 3069,
      "اسب": 3070,
      "وعي": 3071,
      "فانا": 3072,
      "لاست": 3073,
      "المهملة": 3074,
      "الناب": 3075,
      "٢١": 3076,
      "الربيع": 3077,
      "مفردا": 3078,
      "كاف": 3079,
      "كانا": 3080,
      "شرق": 3081,
      "جنا": 3082,
      "ضيق": 3083,
      "الاصول": 3084,
      "علماء": 3085,
      "لخ": 3086,
      "لبس": 3087,
      "واغ": 3088,
      "حياة": 3089,
      "قف": 3090,
      "هذيب": 3091,
      "اهله": 3092,
      "بنات": 3093,
      "فعلان": 3094,
      "ومه": 3095,
      "مثني": 3096,
      "لبي": 3097,
      "بطن": 3098,
      "الاه": 3099,
      "اسحاق": 3100,
      "ومعناه": 3101,
      "ذهبت": 3102,
      "اعتبار": 3103,
      "مدح": 3104,
      "عادة": 3105,
      "ضربه": 3106,
      "٤٩": 3107,
      "ولسان": 3108,
      "المصادر": 3109,
      "قلبه": 3110,
      "اعطي": 3111,
      "الطير": 3112,
      "نقص": 3113,
      "الرواية": 3114,
      "وشي": 3115,
      "زني": 3116,
      "ظرفا": 3117,
      "ناعة": 3118,
      "السن": 3119,
      "وتكون": 3120,
      "خيم": 3121,
      "المتقدم": 3122,
      "وابه": 3123,
      "المسلمين": 3124,
      "سالت": 3125,
      "رتبة": 3126,
      "لغات": 3127,
      "فتكون": 3128,
      "سبي": 3129,
      "كريم": 3130,
      "الخلاف": 3131,
      "تعين": 3132,
      "مثيل": 3133,
      "راط": 3134,
      "جيء": 3135,
      "امتن": 3136,
      "اصح": 3137,
      "وابي": 3138,
      "خز": 3139,
      "التقديم": 3140,
      "عس": 3141,
      "نائب": 3142,
      "الوزن": 3143,
      "دعاء": 3144,
      "بالنسبة": 3145,
      "القدر": 3146,
      "الابيات": 3147,
      "زائد": 3148,
      "باللام": 3149,
      "قيا": 3150,
      "بلد": 3151,
      "السكيت": 3152,
      "قبال": 3153,
      "وتد": 3154,
      "لست": 3155,
      "احدها": 3156,
      "يجد": 3157,
      "واخواتها": 3158,
      "قولنا": 3159,
      "كانك": 3160,
      "والاسم": 3161,
      "منطلق": 3162,
      "مكر": 3163,
      "قوا": 3164,
      "اشياء": 3165,
      "ماخوذ": 3166,
      "٥٠": 3167,
      "ظه": 3168,
      "متح": 3169,
      "مشق": 3170,
      "ورفع": 3171,
      "الساد": 3172,
      "بقية": 3173,
      "هج": 3174,
      "اصول": 3175,
      "اخي": 3176,
      "عيني": 3177,
      "نسية": 3178,
      "حاله": 3179,
      "زلت": 3180,
      "صحي": 3181,
      "صرح": 3182,
      "بوا": 3183,
      "ماضي": 3184,
      "كير": 3185,
      "كفي": 3186,
      "دائما": 3187,
      "حش": 3188,
      "الحيوان": 3189,
      "ملي": 3190,
      "غناء": 3191,
      "اليف": 3192,
      "اقرب": 3193,
      "منصوبا": 3194,
      "تة": 3195,
      "ساق": 3196,
      "ودع": 3197,
      "الشديد": 3198,
      "ساء": 3199,
      "راجع": 3200,
      "حجة": 3201,
      "ايات": 3202,
      "يكاد": 3203,
      "الشرح": 3204,
      "سرت": 3205,
      "يين": 3206,
      "موضعه": 3207,
      "قريش": 3208,
      "البصرة": 3209,
      "اقوي": 3210,
      "الخل": 3211,
      "ديوان": 3212,
      "عض": 3213,
      "الادغام": 3214,
      "الوس": 3215,
      "اسبة": 3216,
      "عليهما": 3217,
      "مقدرة": 3218,
      "رئ": 3219,
      "كش": 3220,
      "دعا": 3221,
      "اليا": 3222,
      "صع": 3223,
      "القاف": 3224,
      "عامة": 3225,
      "مقدر": 3226,
      "طرد": 3227,
      "مشتق": 3228,
      "الال": 3229,
      "اوجه": 3230,
      "وتح": 3231,
      "جهول": 3232,
      "وفق": 3233,
      "وزنه": 3234,
      "خار": 3235,
      "طعام": 3236,
      "المستقبل": 3237,
      "اليد": 3238,
      "المجد": 3239,
      "السماع": 3240,
      "سياتي": 3241,
      "وخذ": 3242,
      "ائن": 3243,
      "حذفه": 3244,
      "فكل": 3245,
      "اجم": 3246,
      "مقر": 3247,
      "وقولهم": 3248,
      "جمعا": 3249,
      "فاف": 3250,
      "واضح": 3251,
      "بياء": 3252,
      "وانظر": 3253,
      "فط": 3254,
      "التفضيل": 3255,
      "وجمعه": 3256,
      "الكلم": 3257,
      "الرجز": 3258,
      "تابع": 3259,
      "للفعل": 3260,
      "فتاح": 3261,
      "جموع": 3262,
      "اسر": 3263,
      "يمتنع": 3264,
      "ووس": 3265,
      "بغداد": 3266,
      "احوال": 3267,
      "الصد": 3268,
      "المصد": 3269,
      "نام": 3270,
      "الصفات": 3271,
      "مضمر": 3272,
      "امرو": 3273,
      "بدون": 3274,
      "ولولا": 3275,
      "العلوم": 3276,
      "فير": 3277,
      "سوء": 3278,
      "النظم": 3279,
      "وفيها": 3280,
      "مختص": 3281,
      "تعري": 3282,
      "قعة": 3283,
      "الرسول": 3284,
      "يثبت": 3285,
      "وطي": 3286,
      "مكت": 3287,
      "صاري": 3288,
      "ياخذ": 3289,
      "الابد": 3290,
      "طفي": 3291,
      "غالبا": 3292,
      "ولن": 3293,
      "الضر": 3294,
      "نسي": 3295,
      "الخمر": 3296,
      "المتق": 3297,
      "رغ": 3298,
      "عيسي": 3299,
      "فهل": 3300,
      "القط": 3301,
      "خا": 3302,
      "فم": 3303,
      "قطعة": 3304,
      "الاربعة": 3305,
      "الحجاج": 3306,
      "بالكسرة": 3307,
      "شية": 3308,
      "النص": 3309,
      "الصي": 3310,
      "كانما": 3311,
      "امها": 3312,
      "مته": 3313,
      "ويش": 3314,
      "السم": 3315,
      "حاد": 3316,
      "الهذلي": 3317,
      "الفق": 3318,
      "اسود": 3319,
      "الاصوات": 3320,
      "وست": 3321,
      "افراد": 3322,
      "بسبب": 3323,
      "الزمن": 3324,
      "يرت": 3325,
      "المشهور": 3326,
      "لول": 3327,
      "ناقص": 3328,
      "منت": 3329,
      "صاحة": 3330,
      "لاجل": 3331,
      "اتباع": 3332,
      "والجار": 3333,
      "ضربته": 3334,
      "تناع": 3335,
      "وبلا": 3336,
      "كعب": 3337,
      "اخبار": 3338,
      "شاه": 3339,
      "تستعمل": 3340,
      "فائ": 3341,
      "لانهما": 3342,
      "اضمار": 3343,
      "طبع": 3344,
      "السلطان": 3345,
      "جاب": 3346,
      "الظرفية": 3347,
      "حرب": 3348,
      "بشرط": 3349,
      "لاحظ": 3350,
      "فرغ": 3351,
      "النطق": 3352,
      "تانيث": 3353,
      "الزمخشري": 3354,
      "تخرج": 3355,
      "الاتي": 3356,
      "واول": 3357,
      "رايته": 3358,
      "الجمعة": 3359,
      "وحسن": 3360,
      "غلط": 3361,
      "امور": 3362,
      "ومررت": 3363,
      "حصر": 3364,
      "لاما": 3365,
      "جاه": 3366,
      "بعينه": 3367,
      "تجري": 3368,
      "يديه": 3369,
      "والذ": 3370,
      "شري": 3371,
      "تقوم": 3372,
      "الخلي": 3373,
      "اضاف": 3374,
      "وصح": 3375,
      "شرف": 3376,
      "الثالثة": 3377,
      "نبت": 3378,
      "فعلن": 3379,
      "يطلق": 3380,
      "جارية": 3381,
      "لماذا": 3382,
      "جذ": 3383,
      "انزل": 3384,
      "والعين": 3385,
      "انيا": 3386,
      "ثور": 3387,
      "رسة": 3388,
      "يجر": 3389,
      "يتها": 3390,
      "وذا": 3391,
      "خطاب": 3392,
      "صدي": 3393,
      "اعف": 3394,
      "علمه": 3395,
      "فارقة": 3396,
      "عيد": 3397,
      "ويحتمل": 3398,
      "تعرض": 3399,
      "خرا": 3400,
      "يفت": 3401,
      "الاقت": 3402,
      "مطلق": 3403,
      "المختل": 3404,
      "التعبير": 3405,
      "انق": 3406,
      "المبني": 3407,
      "ووجه": 3408,
      "اتصل": 3409,
      "متعد": 3410,
      "اموس": 3411,
      "المواضع": 3412,
      "لالتقاء": 3413,
      "خب": 3414,
      "نشر": 3415,
      "الصدر": 3416,
      "الشباب": 3417,
      "وضم": 3418,
      "حكاه": 3419,
      "الدم": 3420,
      "حيط": 3421,
      "خالف": 3422,
      "فاب": 3423,
      "والجر": 3424,
      "غرا": 3425,
      "المعتل": 3426,
      "ارق": 3427,
      "الملوك": 3428,
      "شجر": 3429,
      "الانف": 3430,
      "بطل": 3431,
      "تلاف": 3432,
      "يبق": 3433,
      "قيه": 3434,
      "وكلا": 3435,
      "تيم": 3436,
      "الحدث": 3437,
      "وانها": 3438,
      "الهند": 3439,
      "جت": 3440,
      "حيل": 3441,
      "لاص": 3442,
      "تام": 3443,
      "فاض": 3444,
      "فو": 3445,
      "جزاء": 3446,
      "السما": 3447,
      "سيرا": 3448,
      "القصيدة": 3449,
      "هة": 3450,
      "الفن": 3451,
      "واراد": 3452,
      "ميرا": 3453,
      "المنادي": 3454,
      "الذكور": 3455,
      "ملوك": 3456,
      "الوز": 3457,
      "طرق": 3458,
      "يضاف": 3459,
      "النابغة": 3460,
      "الممد": 3461,
      "يبني": 3462,
      "المقدرة": 3463,
      "البيض": 3464,
      "العبد": 3465,
      "ويسمي": 3466,
      "وضعت": 3467,
      "معجم": 3468,
      "ئر": 3469,
      "بواو": 3470,
      "]-": 3471,
      "لاك": 3472,
      "وقة": 3473,
      "مسك": 3474,
      "لحق": 3475,
      "بوع": 3476,
      "مفتوحة": 3477,
      "ئن": 3478,
      "يرها": 3479,
      "وكنت": 3480,
      "يبين": 3481,
      "حكمه": 3482,
      "سية": 3483,
      "لبن": 3484,
      "٤٤": 3485,
      "الرمل": 3486,
      "زما": 3487,
      "ضية": 3488,
      "راهم": 3489,
      "الغي": 3490,
      "احداهما": 3491,
      "سرح": 3492,
      "القلوب": 3493,
      "طين": 3494,
      "وبر": 3495,
      "بالر": 3496,
      "سرا": 3497,
      "القب": 3498,
      "ساعة": 3499,
      "لانا": 3500,
      "اقام": 3501,
      "القاسم": 3502,
      "قبح": 3503,
      "الحركات": 3504,
      "الشخص": 3505,
      "ناية": 3506,
      "التك": 3507,
      "يبلغ": 3508,
      "رابع": 3509,
      "وامراة": 3510,
      "حسنا": 3511,
      "سبع": 3512,
      "داخل": 3513,
      "الكاتب": 3514,
      "المتنبي": 3515,
      "مختلفة": 3516,
      "جلد": 3517,
      "لكونه": 3518,
      "٥٦": 3519,
      "الوليد": 3520,
      "ابتداء": 3521,
      "الجميع": 3522,
      "الجيش": 3523,
      "جديد": 3524,
      "ناة": 3525,
      "معين": 3526,
      "يودي": 3527,
      "نبات": 3528,
      "السوال": 3529,
      "وخرج": 3530,
      "ائدة": 3531,
      "المقام": 3532,
      "اخذت": 3533,
      "صص": 3534,
      "خاف": 3535,
      "يعقوب": 3536,
      "يقبل": 3537,
      "فري": 3538,
      "وطة": 3539,
      "اتهم": 3540,
      "محذوفة": 3541,
      "الرك": 3542,
      "الظن": 3543,
      "السالم": 3544,
      "الصل": 3545,
      "وبها": 3546,
      "الاختص": 3547,
      "المصري": 3548,
      "القصر": 3549,
      "القاموس": 3550,
      "البلد": 3551,
      "الدليل": 3552,
      "وتعرب": 3553,
      "اللغوية": 3554,
      "ناها": 3555,
      "اثار": 3556,
      "امد": 3557,
      "درك": 3558,
      "عان": 3559,
      "يخفي": 3560,
      "بالفاء": 3561,
      "ايدي": 3562,
      "تراه": 3563,
      "السحاب": 3564,
      "تحقق": 3565,
      "تخذ": 3566,
      "عون": 3567,
      "اعلي": 3568,
      "نو": 3569,
      "ائص": 3570,
      "وحر": 3571,
      "غفر": 3572,
      "يطلب": 3573,
      "الكبير": 3574,
      "قعد": 3575,
      "وجها": 3576,
      "القراء": 3577,
      "روبة": 3578,
      "ظفر": 3579,
      "فاس": 3580,
      "والتي": 3581,
      "يزال": 3582,
      "المبالغة": 3583,
      "ونصب": 3584,
      "راز": 3585,
      "يجيز": 3586,
      "العدو": 3587,
      "الاعلام": 3588,
      "شددة": 3589,
      "حنيفة": 3590,
      "سهل": 3591,
      "الاخرة": 3592,
      "اللازم": 3593,
      "عمي": 3594,
      "اظهر": 3595,
      "ماعيل": 3596,
      "بقاء": 3597,
      "الحسين": 3598,
      "لائكة": 3599,
      "وصفا": 3600,
      "وضرب": 3601,
      "سيل": 3602,
      "الدعاء": 3603,
      "طريقة": 3604,
      "بعضا": 3605,
      "ورس": 3606,
      "بله": 3607,
      "الصالح": 3608,
      "برق": 3609,
      "صرت": 3610,
      "برت": 3611,
      "عال": 3612,
      "الخر": 3613,
      "اشهر": 3614,
      "الشجر": 3615,
      "عكس": 3616,
      "ابلغ": 3617,
      "المدح": 3618,
      "شيخنا": 3619,
      "قيام": 3620,
      "خلت": 3621,
      "الكتابة": 3622,
      "الجزم": 3623,
      "القمر": 3624,
      "صدره": 3625,
      "فله": 3626,
      "الشان": 3627,
      "اصد": 3628,
      "داخ": 3629,
      "اولئك": 3630,
      "الطرف": 3631,
      "وادي": 3632,
      "فيجوز": 3633,
      "الشيب": 3634,
      "الفرنسية": 3635,
      "صيغ": 3636,
      "ورج": 3637,
      "الغائبين": 3638,
      "ادية": 3639,
      "تمكن": 3640,
      "رحمه": 3641,
      "الاحوال": 3642,
      "بون": 3643,
      "بيا": 3644,
      "بالتاء": 3645,
      "لث": 3646,
      "طرب": 3647,
      "منفصل": 3648,
      "خله": 3649,
      "ازل": 3650,
      "وحدة": 3651,
      "يصير": 3652,
      "بسط": 3653,
      "حكاية": 3654,
      "حاش": 3655,
      "هاهنا": 3656,
      "دود": 3657,
      "مجزوم": 3658,
      "سفي": 3659,
      "جميل": 3660,
      "اكم": 3661,
      "للع": 3662,
      "٦٠": 3663,
      "راها": 3664,
      "العلامة": 3665,
      "للتعظيم": 3666,
      "كذ": 3667,
      "والارض": 3668,
      "قاع": 3669,
      "وثلاث": 3670,
      "طور": 3671,
      "يكت": 3672,
      "اننا": 3673,
      "والاول": 3674,
      "قياسا": 3675,
      "اكبر": 3676,
      "ائف": 3677,
      "لحم": 3678,
      "كذب": 3679,
      "يدرك": 3680,
      "الجاهلية": 3681,
      "خلة": 3682,
      "تارة": 3683,
      "خض": 3684,
      "الست": 3685,
      "تجمع": 3686,
      "قامت": 3687,
      "امتنع": 3688,
      "يلت": 3689,
      "الوضع": 3690,
      "المركب": 3691,
      "الروح": 3692,
      "تقلب": 3693,
      "القليل": 3694,
      "اولها": 3695,
      "امنوا": 3696,
      "معم": 3697,
      "العهد": 3698,
      "ضبط": 3699,
      "ورية": 3700,
      "يعل": 3701,
      "بالرفع": 3702,
      "التنا": 3703,
      "غا": 3704,
      "جاد": 3705,
      "دري": 3706,
      "شواهد": 3707,
      "القيامة": 3708,
      "ذري": 3709,
      "جف": 3710,
      "المتصل": 3711,
      "ويح": 3712,
      "يروي": 3713,
      "مصدرا": 3714,
      "ذوات": 3715,
      "الدكتور": 3716,
      "اتص": 3717,
      "٥٧": 3718,
      "رش": 3719,
      "متها": 3720,
      "عاة": 3721,
      "الخفيف": 3722,
      "الذهب": 3723,
      "وصار": 3724,
      "السامع": 3725,
      "يختص": 3726,
      "ذار": 3727,
      "اخوك": 3728,
      "البعض": 3729,
      "اغاني": 3730,
      "الغاية": 3731,
      "سيما": 3732,
      "دونه": 3733,
      "الندي": 3734,
      "نهي": 3735,
      "دان": 3736,
      "يتبع": 3737,
      "ناحية": 3738,
      "غلي": 3739,
      "لاه": 3740,
      "طبق": 3741,
      "يصل": 3742,
      "العراق": 3743,
      "سماء": 3744,
      "اخذه": 3745,
      "وزاد": 3746,
      "قتها": 3747,
      "مائر": 3748,
      "اعا": 3749,
      "المه": 3750,
      "الاخيرة": 3751,
      "المقدر": 3752,
      "حار": 3753,
      "عظم": 3754,
      "قبيل": 3755,
      "التفسير": 3756,
      "عها": 3757,
      "جئ": 3758,
      "القاهرة": 3759,
      "صديق": 3760,
      "مرفوعا": 3761,
      "نصف": 3762,
      "انب": 3763,
      "عمران": 3764,
      "يطان": 3765,
      "ثه": 3766,
      "سائ": 3767,
      "منة": 3768,
      "النقل": 3769,
      "٥٨": 3770,
      "الشك": 3771,
      "عجز": 3772,
      "وسا": 3773,
      "تاويل": 3774,
      "بتقدير": 3775,
      "ابيض": 3776,
      "توكيد": 3777,
      "المذهب": 3778,
      "ورك": 3779,
      "وارت": 3780,
      "الجزاء": 3781,
      "يستطيع": 3782,
      "وعدم": 3783,
      "المعارف": 3784,
      "لبعض": 3785,
      "اشعار": 3786,
      "ببعض": 3787,
      "لهذه": 3788,
      "مروان": 3789,
      "ئها": 3790,
      "ولكنها": 3791,
      "ربع": 3792,
      "فاخ": 3793,
      "حرم": 3794,
      "حيا": 3795,
      "حدثني": 3796,
      "فكما": 3797,
      "كلهم": 3798,
      "الينا": 3799,
      "يجتمع": 3800,
      "العلاء": 3801,
      "معان": 3802,
      "ادع": 3803,
      "لوا": 3804,
      "الاندل": 3805,
      "مشت": 3806,
      "فرج": 3807,
      "ظاهرة": 3808,
      "جرا": 3809,
      "رواه": 3810,
      "عري": 3811,
      "ابط": 3812,
      "نظم": 3813,
      "رفعت": 3814,
      "بالنصب": 3815,
      "تصر": 3816,
      "متحرك": 3817,
      "ضربا": 3818,
      "الايج": 3819,
      "بياض": 3820,
      "وبعضهم": 3821,
      "الكريمة": 3822,
      "دال": 3823,
      "سنا": 3824,
      "القار": 3825,
      "نست": 3826,
      "عارض": 3827,
      "الحقيقي": 3828,
      "يتصل": 3829,
      "اهلها": 3830,
      "القطع": 3831,
      "فجاء": 3832,
      "احت": 3833,
      "الفه": 3834,
      "الطلب": 3835,
      "النجم": 3836,
      "ادب": 3837,
      "وحينئذ": 3838,
      "شروط": 3839,
      "اعظم": 3840,
      "الحاجة": 3841,
      "السيرا": 3842,
      "بانها": 3843,
      "لنفسه": 3844,
      "يلا": 3845,
      "سعة": 3846,
      "ادرك": 3847,
      "فاص": 3848,
      "٣١": 3849,
      "التراب": 3850,
      "وسياتي": 3851,
      "والاش": 3852,
      "بعير": 3853,
      "احظ": 3854,
      "رفي": 3855,
      "ثانيا": 3856,
      "نبه": 3857,
      "قته": 3858,
      "عصر": 3859,
      "مخل": 3860,
      "تعرب": 3861,
      "للناس": 3862,
      "ضروب": 3863,
      "خفض": 3864,
      "التخ": 3865,
      "السيرافي": 3866,
      "ريقة": 3867,
      "والحق": 3868,
      "فسره": 3869,
      "ئس": 3870,
      "الامة": 3871,
      "وحدها": 3872,
      "وكتب": 3873,
      "اختل": 3874,
      "الوط": 3875,
      "احق": 3876,
      "وعبد": 3877,
      "مو": 3878,
      "قولا": 3879,
      "واتي": 3880,
      "٥٩": 3881,
      "ابنه": 3882,
      "كد": 3883,
      "انشده": 3884,
      "الخلا": 3885,
      "سوف": 3886,
      "ضاح": 3887,
      "مذه": 3888,
      "ومات": 3889,
      "وافي": 3890,
      "توفي": 3891,
      "كات": 3892,
      "شرون": 3893,
      "الخاء": 3894,
      "الاسناد": 3895,
      "ممد": 3896,
      "عناق": 3897,
      "موصوف": 3898,
      "كاس": 3899,
      "يتكلم": 3900,
      "رحمة": 3901,
      "ضمر": 3902,
      "احكام": 3903,
      "مجلس": 3904,
      "يضاح": 3905,
      "والوجه": 3906,
      "فكر": 3907,
      "موق": 3908,
      "اللبس": 3909,
      "المصدرية": 3910,
      "٣٢": 3911,
      "تخفي": 3912,
      "سبعة": 3913,
      "يقاس": 3914,
      "الحجر": 3915,
      "يران": 3916,
      "فعلية": 3917,
      "الزبير": 3918,
      "يتح": 3919,
      "والتع": 3920,
      "ذرا": 3921,
      "ارتفع": 3922,
      "قلبة": 3923,
      "اقر": 3924,
      "الوجود": 3925,
      "احيانا": 3926,
      "تبين": 3927,
      "وقبل": 3928,
      "اثير": 3929,
      "انفسهم": 3930,
      "خارج": 3931,
      "نور": 3932,
      "السب": 3933,
      "البط": 3934,
      "المسمي": 3935,
      "يتنا": 3936,
      "سين": 3937,
      "الكلب": 3938,
      "طرا": 3939,
      "موج": 3940,
      "يحدث": 3941,
      "وجيه": 3942,
      "وكتاب": 3943,
      "صغير": 3944,
      "تلي": 3945,
      "اعم": 3946,
      "العبارة": 3947,
      "المكس": 3948,
      "السادس": 3949,
      "برج": 3950,
      "الجلالة": 3951,
      "بخبر": 3952,
      "قمت": 3953,
      "القديمة": 3954,
      "الكل": 3955,
      "ترض": 3956,
      "الاعد": 3957,
      "وايا": 3958,
      "الخز": 3959,
      "جوابا": 3960,
      "قدمت": 3961,
      "المصرية": 3962,
      "الحديد": 3963,
      "وقا": 3964,
      "شيب": 3965,
      "المتع": 3966,
      "صاحبها": 3967,
      "لزيد": 3968,
      "جمال": 3969,
      "يومن": 3970,
      "ونحوها": 3971,
      "سخ": 3972,
      "احس": 3973,
      "الصف": 3974,
      "مهما": 3975,
      "التنبيه": 3976,
      "برح": 3977,
      "موخر": 3978,
      "فحينئذ": 3979,
      "يخلو": 3980,
      "خاط": 3981,
      "اورد": 3982,
      "اتخذ": 3983,
      "المحذوفة": 3984,
      "هلا": 3985,
      "المختلفة": 3986,
      "خان": 3987,
      "شديدا": 3988,
      "بدي": 3989,
      "غن": 3990,
      "المفتوح": 3991,
      "اولاد": 3992,
      "كنتم": 3993,
      "الشري": 3994,
      "النفوس": 3995,
      "فالت": 3996,
      "للان": 3997,
      "موك": 3998,
      "ذاء": 3999,
      "للرجل": 4000,
      "مقامه": 4001,
      "جاوز": 4002,
      "قيلة": 4003,
      "الصور": 4004,
      "يعطي": 4005,
      "علا": 4006,
      "تفيد": 4007,
      "صم": 4008,
      "فسد": 4009,
      "اهية": 4010,
      "فالاول": 4011,
      "امكن": 4012,
      "الدابة": 4013,
      "غريب": 4014,
      "خلال": 4015,
      "الفائدة": 4016,
      "والاع": 4017,
      "سبحانه": 4018,
      "فقوله": 4019,
      "الرسالة": 4020,
      "الملا": 4021,
      "الحالة": 4022,
      "وارد": 4023,
      "العجاج": 4024,
      "صول": 4025,
      "لاخ": 4026,
      "مبا": 4027,
      "ويوم": 4028,
      "كلمات": 4029,
      "القوة": 4030,
      "مكسورة": 4031,
      "فون": 4032,
      "رسالة": 4033,
      "للد": 4034,
      "وذو": 4035,
      "حان": 4036,
      "الاسب": 4037,
      "هوي": 4038,
      "وحكم": 4039,
      "حكام": 4040,
      "نقي": 4041,
      "بنيت": 4042,
      "مثاله": 4043,
      "التعليق": 4044,
      "واهل": 4045,
      "يشترط": 4046,
      "الحما": 4047,
      "بنيا": 4048,
      "اطلق": 4049,
      "التنزيل": 4050,
      "العيش": 4051,
      "درهما": 4052,
      "النهي": 4053,
      "حبيب": 4054,
      "يعقل": 4055,
      "الادي": 4056,
      "العظ": 4057,
      "محمود": 4058,
      "واة": 4059,
      "الطاء": 4060,
      "بالباء": 4061,
      "وفاعل": 4062,
      "قتله": 4063,
      "يته": 4064,
      "لص": 4065,
      "بيننا": 4066,
      "وخبر": 4067,
      "٦٧": 4068,
      "كاء": 4069,
      "٦٩": 4070,
      "سيم": 4071,
      "والامر": 4072,
      "مدينة": 4073,
      "برز": 4074,
      "معرف": 4075,
      "الغني": 4076,
      "٦٨": 4077,
      "قرية": 4078,
      "اعرابه": 4079,
      "اتبع": 4080,
      "بكم": 4081,
      "عاش": 4082,
      "الانباري": 4083,
      "درج": 4084,
      "المقصور": 4085,
      "خدم": 4086,
      "ساع": 4087,
      "ليكون": 4088,
      "التاس": 4089,
      "حذفها": 4090,
      "وردت": 4091,
      "هلك": 4092,
      "حقق": 4093,
      "اساس": 4094,
      "يوجب": 4095,
      "الجسم": 4096,
      "شبهه": 4097,
      "اسماعيل": 4098,
      "بذكر": 4099,
      "والصحيح": 4100,
      "فعة": 4101,
      "سواد": 4102,
      "اصلية": 4103,
      "الشين": 4104,
      "مخف": 4105,
      "اشتد": 4106,
      "توهم": 4107,
      "جيد": 4108,
      "وقر": 4109,
      "الوص": 4110,
      "عينا": 4111,
      "يقدم": 4112,
      "لكثرة": 4113,
      "رخ": 4114,
      "الشج": 4115,
      "ابدلت": 4116,
      "وقلت": 4117,
      "الغر": 4118,
      "المسجد": 4119,
      "شاهد": 4120,
      "بتد": 4121,
      "مري": 4122,
      "الوجهين": 4123,
      "جود": 4124,
      "كناية": 4125,
      "تدي": 4126,
      "بزيادة": 4127,
      "موس": 4128,
      "بضمير": 4129,
      "قوما": 4130,
      "وعلم": 4131,
      "يختلف": 4132,
      "نطق": 4133,
      "الاصلي": 4134,
      "الاشتقاق": 4135,
      "امين": 4136,
      "بارك": 4137,
      "املة": 4138,
      "يحصل": 4139,
      "لابد": 4140,
      "المعن": 4141,
      "ارادة": 4142,
      "الاك": 4143,
      "شدد": 4144,
      "الشيطان": 4145,
      "ترز": 4146,
      "ابعد": 4147,
      "جمعت": 4148,
      "ويس": 4149,
      "الشي": 4150,
      "الامم": 4151,
      "وجع": 4152,
      "مفعل": 4153,
      "شمر": 4154,
      "الزائدة": 4155,
      "سيده": 4156,
      "اخبرنا": 4157,
      "يعرض": 4158,
      "قراء": 4159,
      "البار": 4160,
      "مجرد": 4161,
      "قرن": 4162,
      "مور": 4163,
      "مسر": 4164,
      "وعز": 4165,
      "سنان": 4166,
      "خوف": 4167,
      "وقوعه": 4168,
      "المخاط": 4169,
      "ياكل": 4170,
      "فساد": 4171,
      "عوضا": 4172,
      "اعج": 4173,
      "والمست": 4174,
      "لقوله": 4175,
      "لمعني": 4176,
      "ورات": 4177,
      "اقب": 4178,
      "الساكنة": 4179,
      "مقل": 4180,
      "الاجتماع": 4181,
      "تكر": 4182,
      "ائية": 4183,
      "عمه": 4184,
      "تلحق": 4185,
      "الاثير": 4186,
      "باخ": 4187,
      "لامر": 4188,
      "سليم": 4189,
      "ضميرا": 4190,
      "نري": 4191,
      "٥٥": 4192,
      "ترتيب": 4193,
      "الطر": 4194,
      "عمة": 4195,
      "الواقعة": 4196,
      "وتقدم": 4197,
      "القصد": 4198,
      "الساعة": 4199,
      "عبر": 4200,
      "احة": 4201,
      "ولك": 4202,
      "رتها": 4203,
      "هيئة": 4204,
      "وقفت": 4205,
      "يوصف": 4206,
      "اوس": 4207,
      "طير": 4208,
      "والثانية": 4209,
      "وخل": 4210,
      "امتناع": 4211,
      "القيام": 4212,
      "حث": 4213,
      "ثمانية": 4214,
      "السراج": 4215,
      "تشبه": 4216,
      "جسم": 4217,
      "وجل": 4218,
      "بيح": 4219,
      "فرض": 4220,
      "الرباعي": 4221,
      "صبة": 4222,
      "الزائد": 4223,
      "الحل": 4224,
      "لكون": 4225,
      "تصال": 4226,
      "المشار": 4227,
      "افظ": 4228,
      "شذ": 4229,
      "المجرد": 4230,
      "طرفة": 4231,
      "ابواب": 4232,
      "غضب": 4233,
      "التاكيد": 4234,
      "وجمعها": 4235,
      "تحريك": 4236,
      "اديث": 4237,
      "لاحد": 4238,
      "مجد": 4239,
      "يذ": 4240,
      "ضارعة": 4241,
      "مسائل": 4242,
      "واسطة": 4243,
      "الهمز": 4244,
      "شرحه": 4245,
      "مخصوص": 4246,
      "كسير": 4247,
      "صريح": 4248,
      "الحمار": 4249,
      "البتة": 4250,
      "غرب": 4251,
      "كتبت": 4252,
      "افعي": 4253,
      "اتيت": 4254,
      "عيش": 4255,
      "تثنية": 4256,
      "بيرا": 4257,
      "نداء": 4258,
      "سكر": 4259,
      "حملا": 4260,
      "النخل": 4261,
      "الرد": 4262,
      "يريدون": 4263,
      "اسباب": 4264,
      "المقت": 4265,
      "النبات": 4266,
      "للمفعول": 4267,
      "ثنا": 4268,
      "الصاغاني": 4269,
      "اختار": 4270,
      "اللحي": 4271,
      "شن": 4272,
      "كرا": 4273,
      "سته": 4274,
      "جها": 4275,
      "يكثر": 4276,
      "قبيلة": 4277,
      "الجمال": 4278,
      "المشبهة": 4279,
      "حرفين": 4280,
      "النحوية": 4281,
      "الاله": 4282,
      "صحف": 4283,
      "رسل": 4284,
      "المرت": 4285,
      "اخرين": 4286,
      "الحمام": 4287,
      "الاعمال": 4288,
      "اطل": 4289,
      "!!": 4290,
      "منعه": 4291,
      "خروج": 4292,
      "انش": 4293,
      "صلاة": 4294,
      "فالجواب": 4295,
      "شح": 4296,
      "بحال": 4297,
      "اليس": 4298,
      "فهما": 4299,
      "فاخذ": 4300,
      "الصغير": 4301,
      "حري": 4302,
      "ولت": 4303,
      "الغلام": 4304,
      "اصم": 4305,
      "ولست": 4306,
      "قان": 4307,
      "شيد": 4308,
      "الخاصة": 4309,
      "غاث": 4310,
      "انته": 4311,
      "مرض": 4312,
      "ظاهرا": 4313,
      "البديع": 4314,
      "المفردات": 4315,
      "تخل": 4316,
      "واكب": 4317,
      "عائد": 4318,
      "فصيحة": 4319,
      "التش": 4320,
      "البرد": 4321,
      "باطل": 4322,
      "الحلق": 4323,
      "الطبيعة": 4324,
      "اصبحت": 4325,
      "الضرورة": 4326,
      "رارة": 4327,
      "والباء": 4328,
      "اتل": 4329,
      "النك": 4330,
      "وسلم": 4331,
      "النور": 4332,
      "سكون": 4333,
      "يمين": 4334,
      "وجر": 4335,
      "بلغت": 4336,
      "تغال": 4337,
      "ديه": 4338,
      "فرقة": 4339,
      "ادني": 4340,
      "وادث": 4341,
      "فاعيل": 4342,
      "نض": 4343,
      "التعليل": 4344,
      "غط": 4345,
      "فاته": 4346,
      "عبة": 4347,
      "دور": 4348,
      "رحم": 4349,
      "العموم": 4350,
      "مود": 4351,
      "هورة": 4352,
      "ادل": 4353,
      "وكانه": 4354,
      "الذال": 4355,
      "المحدث": 4356,
      "المتعدي": 4357,
      "منصوبة": 4358,
      "النسخ": 4359,
      "يلحق": 4360,
      "مختلف": 4361,
      "الاثنين": 4362,
      "اسية": 4363,
      "ثانية": 4364,
      "اثبت": 4365,
      "المعرب": 4366,
      "مم": 4367,
      "الاعلي": 4368,
      "واقت": 4369,
      "ويق": 4370,
      "تث": 4371,
      "ابدال": 4372,
      "متعل": 4373,
      "اسمية": 4374,
      "ارها": 4375,
      "طلا": 4376,
      "السري": 4377,
      "غف": 4378,
      "الزيدان": 4379,
      "كانهم": 4380,
      "اواخر": 4381,
      "ينفع": 4382,
      "جـ": 4383,
      "الخطا": 4384,
      "لعمر": 4385,
      "للمجهول": 4386,
      "وـ": 4387,
      "يغني": 4388,
      "عنت": 4389,
      "ممنوع": 4390,
      "الذئب": 4391,
      "مقصور": 4392,
      "قوص": 4393,
      "رسم": 4394,
      "يمدح": 4395,
      "كشف": 4396,
      "الصبح": 4397,
      "عائشة": 4398,
      "المازني": 4399,
      "لزوم": 4400,
      "معلوم": 4401,
      "فانهم": 4402,
      "مفت": 4403,
      "واقعة": 4404,
      "منز": 4405,
      "البطن": 4406,
      "والجواب": 4407,
      "٧٠": 4408,
      "ابلة": 4409,
      "الفض": 4410,
      "٤٣": 4411,
      "منادي": 4412,
      "قومي": 4413,
      "الوادي": 4414,
      "شاة": 4415,
      "بالهاء": 4416,
      "فصلا": 4417,
      "العوامل": 4418,
      "الواجب": 4419,
      "ذاته": 4420,
      "المطل": 4421,
      "الايمان": 4422,
      "والهم": 4423,
      "اهلك": 4424,
      "فينا": 4425,
      "وءة": 4426,
      "وفاء": 4427,
      "ونقل": 4428,
      "لذي": 4429,
      "تدع": 4430,
      "الفصيح": 4431,
      "غالب": 4432,
      "الكافية": 4433,
      "النجوم": 4434,
      "واهر": 4435,
      "بهام": 4436,
      "اذكر": 4437,
      "صفات": 4438,
      "حياء": 4439,
      "حف": 4440,
      "فرح": 4441,
      "سنين": 4442,
      "المادة": 4443,
      "٦٦": 4444,
      "اعرابي": 4445,
      "مقتضي": 4446,
      "طلاق": 4447,
      "الحض": 4448,
      "للتانيث": 4449,
      "طم": 4450,
      "جعلها": 4451,
      "مفهوم": 4452,
      "الصبا": 4453,
      "وفلان": 4454,
      "بالابتداء": 4455,
      "تركيب": 4456,
      "ارادوا": 4457,
      "الجبال": 4458,
      "دنا": 4459,
      "الوجوه": 4460,
      "وعه": 4461,
      "مدي": 4462,
      "ويمكن": 4463,
      "مره": 4464,
      "الحاجب": 4465,
      "المسائل": 4466,
      "حلي": 4467,
      "بثبوت": 4468,
      "كتابا": 4469,
      "استن": 4470,
      "مهرة": 4471,
      "مقدمة": 4472,
      "المعد": 4473,
      "القاعدة": 4474,
      "حبذا": 4475,
      "فال": 4476,
      "وصفه": 4477,
      "عث": 4478,
      "الفم": 4479,
      "قطعت": 4480,
      "مكانه": 4481,
      "العروض": 4482,
      "عامله": 4483,
      "لبيد": 4484,
      "فذ": 4485,
      "حدود": 4486,
      "التها": 4487,
      "الثق": 4488,
      "حمي": 4489,
      "فقه": 4490,
      "حام": 4491,
      "الشريف": 4492,
      "ارسل": 4493,
      "المغني": 4494,
      "البحتري": 4495,
      "لئن": 4496,
      "والاد": 4497,
      "اسرع": 4498,
      "توك": 4499,
      "ابني": 4500,
      "عمول": 4501,
      "الثامن": 4502,
      "شير": 4503,
      "عدو": 4504,
      "يسير": 4505,
      "قائق": 4506,
      "للس": 4507,
      "قاض": 4508,
      "امري": 4509,
      "بصفة": 4510,
      "فخرج": 4511,
      "تضرب": 4512,
      "الترتيب": 4513,
      "شط": 4514,
      "التذكير": 4515,
      "تغيير": 4516,
      "الصبي": 4517,
      "السريع": 4518,
      "ينسب": 4519,
      "البصريون": 4520,
      "بابا": 4521,
      "دن": 4522,
      "علمية": 4523,
      "يكسر": 4524,
      "لهن": 4525,
      "عربي": 4526,
      "معنا": 4527,
      "حبا": 4528,
      "طاب": 4529,
      "المطلق": 4530,
      "سها": 4531,
      "القري": 4532,
      "حسنة": 4533,
      "نفوس": 4534,
      "فيمن": 4535,
      "خاطب": 4536,
      "ائط": 4537,
      "مانع": 4538,
      "حبي": 4539,
      "والصفة": 4540,
      "الظهر": 4541,
      "الظروف": 4542,
      "جوه": 4543,
      "الفكر": 4544,
      "اجود": 4545,
      "٨٠": 4546,
      "المحيط": 4547,
      "اخا": 4548,
      "حمار": 4549,
      "فعلل": 4550,
      "تسع": 4551,
      "متين": 4552,
      "الخفي": 4553,
      "صبر": 4554,
      "الصبر": 4555,
      "منظ": 4556,
      "العاقل": 4557,
      "يدان": 4558,
      "رجح": 4559,
      "سقي": 4560,
      "الثياب": 4561,
      "نكر": 4562,
      "ورب": 4563,
      "وهب": 4564,
      "ونون": 4565,
      "ومتي": 4566,
      "يحكم": 4567,
      "ساك": 4568,
      "شاط": 4569,
      "نسخة": 4570,
      "والعرب": 4571,
      "تجر": 4572,
      "الرضي": 4573,
      "دراسة": 4574,
      "ضاد": 4575,
      "الاتية": 4576,
      "المتوفي": 4577,
      "واحسن": 4578,
      "صبه": 4579,
      "ظا": 4580,
      "باض": 4581,
      "مزيد": 4582,
      "واحدها": 4583,
      "والضمير": 4584,
      "مبنية": 4585,
      "صري": 4586,
      "٧٧": 4587,
      "لامة": 4588,
      "الكه": 4589,
      "تخفيف": 4590,
      "مركب": 4591,
      "السابع": 4592,
      "سواه": 4593,
      "اصطلاح": 4594,
      "ئم": 4595,
      "واليه": 4596,
      "منزل": 4597,
      "الغريب": 4598,
      "ليه": 4599,
      "وقالت": 4600,
      "النافية": 4601,
      "لفعل": 4602,
      "قبول": 4603,
      "ذوذ": 4604,
      "تقديرا": 4605,
      "ومست": 4606,
      "الشه": 4607,
      "يسال": 4608,
      "خن": 4609,
      "مرف": 4610,
      "العدل": 4611,
      "تصحيح": 4612,
      "يعة": 4613,
      "قافية": 4614,
      "يفصل": 4615,
      "عندما": 4616,
      "حياته": 4617,
      "شعب": 4618,
      "حذ": 4619,
      "تثبت": 4620,
      "خصوص": 4621,
      "فنا": 4622,
      "كفروا": 4623,
      "مجيء": 4624,
      "الانجلي": 4625,
      "طويلة": 4626,
      "العمر": 4627,
      "معظم": 4628,
      "الموكد": 4629,
      "ديار": 4630,
      "واختلف": 4631,
      "حمله": 4632,
      "الالم": 4633,
      "حاء": 4634,
      "فته": 4635,
      "اشت": 4636,
      "تركت": 4637,
      "ويض": 4638,
      "الحمل": 4639,
      "عات": 4640,
      "عته": 4641,
      "مبنيا": 4642,
      "فصال": 4643,
      "جنب": 4644,
      "الود": 4645,
      "جس": 4646,
      "وحا": 4647,
      "اربة": 4648,
      "فريق": 4649,
      "دلوا": 4650,
      "زو": 4651,
      "دينار": 4652,
      "بوب": 4653,
      "قتيبة": 4654,
      ".....": 4655,
      "طائر": 4656,
      "مقول": 4657,
      "دخولها": 4658,
      "زوجها": 4659,
      "صحيحة": 4660,
      "درجة": 4661,
      "بالمد": 4662,
      "والانثي": 4663,
      "قله": 4664,
      "الابدال": 4665,
      "شكل": 4666,
      "شعري": 4667,
      "متك": 4668,
      "والذين": 4669,
      "مجازا": 4670,
      "والمصدر": 4671,
      "الرياح": 4672,
      "جارة": 4673,
      "فحذفت": 4674,
      "بارات": 4675,
      "تلقي": 4676,
      "نفع": 4677,
      "ليا": 4678,
      "مقط": 4679,
      "يقولوا": 4680,
      "عملها": 4681,
      "ثن": 4682,
      "ثبات": 4683,
      "عنة": 4684,
      "ثلاثي": 4685,
      "الجاحظ": 4686,
      "يعيش": 4687,
      "طائفة": 4688,
      "ائمة": 4689,
      "النوم": 4690,
      "وقرا": 4691,
      "ربنا": 4692,
      "والمونث": 4693,
      "ازم": 4694,
      "البخ": 4695,
      "واصح": 4696,
      "سابق": 4697,
      "شو": 4698,
      "كع": 4699,
      "وشذ": 4700,
      "بذي": 4701,
      "٦٥": 4702,
      "اجعل": 4703,
      "يترك": 4704,
      "رث": 4705,
      "فادة": 4706,
      "ينطق": 4707,
      "سرعة": 4708,
      "ومي": 4709,
      "المسك": 4710,
      "شها": 4711,
      "الكثرة": 4712,
      "كفا": 4713,
      "علام": 4714,
      "فاصل": 4715,
      "سره": 4716,
      "دعي": 4717,
      "النب": 4718,
      "عرفه": 4719,
      "خلقه": 4720,
      "بالي": 4721,
      "يقطع": 4722,
      "التكسير": 4723,
      "سلمي": 4724,
      "لازما": 4725,
      "اعترا": 4726,
      "المشتق": 4727,
      "وذي": 4728,
      "لمس": 4729,
      "اصحابنا": 4730,
      "العط": 4731,
      "اجزاء": 4732,
      "كوك": 4733,
      "رون": 4734,
      "قواعد": 4735,
      "يدعو": 4736,
      "معط": 4737,
      "قدام": 4738,
      "اعطيت": 4739,
      "دمشق": 4740,
      "القل": 4741,
      "خصي": 4742,
      "دني": 4743,
      "تنصب": 4744,
      "الجامع": 4745,
      "الفرع": 4746,
      "الذهن": 4747,
      "النوا": 4748,
      "والمش": 4749,
      "طلحة": 4750,
      "بيته": 4751,
      "فتحت": 4752,
      "استعماله": 4753,
      "يخبر": 4754,
      "٧٩": 4755,
      "ومس": 4756,
      "وذاك": 4757,
      "صغر": 4758,
      "الجلد": 4759,
      "القوي": 4760,
      "بجمع": 4761,
      "عمري": 4762,
      "ذكري": 4763,
      "قلا": 4764,
      "رادة": 4765,
      "يدعي": 4766,
      "بمثل": 4767,
      "تصل": 4768,
      "غيث": 4769,
      "فضلا": 4770,
      "لفظة": 4771,
      "بسم": 4772,
      "جما": 4773,
      "المعاجم": 4774,
      "٤١": 4775,
      "التقي": 4776,
      "وغيرهم": 4777,
      "وطا": 4778,
      "الولد": 4779,
      "جالس": 4780,
      "يحب": 4781,
      "ازي": 4782,
      "يومئذ": 4783,
      "شجرة": 4784,
      "وعرف": 4785,
      "رء": 4786,
      "المتح": 4787,
      "ماة": 4788,
      "وقوعها": 4789,
      "لبني": 4790,
      "هوة": 4791,
      "قيمة": 4792,
      "الكث": 4793,
      "بيروت": 4794,
      "كلب": 4795,
      "الشهر": 4796,
      "الاحكام": 4797,
      "البئر": 4798,
      "وتها": 4799,
      "المفر": 4800,
      "علامات": 4801,
      "ميس": 4802,
      "والتح": 4803,
      "الشرق": 4804,
      "علل": 4805,
      "تعديا": 4806,
      "طلقا": 4807,
      "موصولة": 4808,
      "قق": 4809,
      "حديد": 4810,
      "قليلة": 4811,
      "لاني": 4812,
      "فنقول": 4813,
      "تعت": 4814,
      "ثبوت": 4815,
      "وامت": 4816,
      "دية": 4817,
      "كو": 4818,
      "زيادتها": 4819,
      "مقال": 4820,
      "تهر": 4821,
      "جوف": 4822,
      "يمت": 4823,
      "سهم": 4824,
      "امثال": 4825,
      "عاق": 4826,
      "اجري": 4827,
      "باني": 4828,
      "تبدل": 4829,
      "اخرا": 4830,
      "مصدرية": 4831,
      "بمحذوف": 4832,
      "لقيت": 4833,
      "مجمع": 4834,
      "والنا": 4835,
      "قطاع": 4836,
      "كلاهما": 4837,
      "الشاة": 4838,
      "واهد": 4839,
      "الصحي": 4840,
      "فقل": 4841,
      "الاعلال": 4842,
      "الاختصاص": 4843,
      "التز": 4844,
      "اظن": 4845,
      "جهل": 4846,
      "منهج": 4847,
      "يشعر": 4848,
      "اللحياني": 4849,
      "رايه": 4850,
      "صرفه": 4851,
      "يعرب": 4852,
      "الانس": 4853,
      "الزاي": 4854,
      "المعجم": 4855,
      "جات": 4856,
      "وسر": 4857,
      "كثرت": 4858,
      "نواس": 4859,
      "القراءة": 4860,
      "جامع": 4861,
      "ادا": 4862,
      "يرمي": 4863,
      "لغتان": 4864,
      "٨٩": 4865,
      "نيه": 4866,
      "صنف": 4867,
      "المفصل": 4868,
      "ولذا": 4869,
      "وحة": 4870,
      "الشد": 4871,
      "بالنون": 4872,
      "مالي": 4873,
      "يحل": 4874,
      "التمر": 4875,
      "ومح": 4876,
      "الصديق": 4877,
      "الغائب": 4878,
      "جون": 4879,
      "اءة": 4880,
      "تشبيها": 4881,
      "تذ": 4882,
      "الخب": 4883,
      "بيني": 4884,
      "الاضمار": 4885,
      "وتهذيب": 4886,
      "الكرم": 4887,
      "قبض": 4888,
      "العود": 4889,
      "الضاد": 4890,
      "يفي": 4891,
      "باز": 4892,
      "يعتبر": 4893,
      "عيب": 4894,
      "المكت": 4895,
      "اطلاق": 4896,
      "فتها": 4897,
      "اشتقاق": 4898,
      "لاط": 4899,
      "ماس": 4900,
      "الشروط": 4901,
      "شعراء": 4902,
      "الامثال": 4903,
      "تتبع": 4904,
      "٤٢": 4905,
      "النع": 4906,
      "تقوي": 4907,
      "معك": 4908,
      "كتبه": 4909,
      "فوظ": 4910,
      "ثار": 4911,
      "الهر": 4912,
      "الغنم": 4913,
      "الفقه": 4914,
      "شرع": 4915,
      "والبيت": 4916,
      "بئس": 4917,
      "فيقولون": 4918,
      "كاتب": 4919,
      "المي": 4920,
      "بلة": 4921,
      "يحفظ": 4922,
      "اخو": 4923,
      "استثناء": 4924,
      "الاسلامية": 4925,
      "نيابة": 4926,
      "للتعذر": 4927,
      "السفر": 4928,
      "ضوء": 4929,
      "والقياس": 4930,
      "النقد": 4931,
      "اختيار": 4932,
      "بيتا": 4933,
      "العالمين": 4934,
      "غمت": 4935,
      "وتك": 4936,
      "تهن": 4937,
      "اعرب": 4938,
      "ردد": 4939,
      "شاف": 4940,
      "ملح": 4941,
      "بالذي": 4942,
      "كمال": 4943,
      "غرض": 4944,
      "الصدق": 4945,
      "ركم": 4946,
      "مسد": 4947,
      "وافر": 4948,
      "والرجل": 4949,
      "الدع": 4950,
      "فكانت": 4951,
      "فذكر": 4952,
      "اصحابه": 4953,
      "المضارعة": 4954,
      "فضله": 4955,
      "قاضي": 4956,
      "ابهة": 4957,
      "قريبا": 4958,
      "مضار": 4959,
      "بسه": 4960,
      "سفر": 4961,
      "مجتمع": 4962,
      "يضع": 4963,
      "بكي": 4964,
      "السواد": 4965,
      "زمه": 4966,
      "ملحق": 4967,
      "ويجمع": 4968,
      "صغ": 4969,
      "العذاب": 4970,
      "رها": 4971,
      "اخص": 4972,
      "اصوات": 4973,
      "القصة": 4974,
      "فصارت": 4975,
      "ينزل": 4976,
      "امسة": 4977,
      "الانعام": 4978,
      "كلاما": 4979,
      "تظهر": 4980,
      "عشرين": 4981,
      "الاختلاف": 4982,
      "ففيه": 4983,
      "الاصح": 4984,
      "ولدها": 4985,
      "طت": 4986,
      "الغاء": 4987,
      "المجتمع": 4988,
      "قيب": 4989,
      "الجري": 4990,
      "يقرا": 4991,
      "صت": 4992,
      "العت": 4993,
      "اعتق": 4994,
      "ائق": 4995,
      "العنق": 4996,
      "محله": 4997,
      "البعد": 4998,
      "ويخ": 4999,
      "يشاء": 5000,
      "مية": 5001,
      "عاقل": 5002,
      "الطائر": 5003,
      "مخالف": 5004,
      "السيوطي": 5005,
      "المخصوص": 5006,
      "والرفع": 5007,
      "طبي": 5008,
      "فذلك": 5009,
      "ممت": 5010,
      "سلك": 5011,
      "راينا": 5012,
      "عيون": 5013,
      "علاء": 5014,
      "الهواء": 5015,
      "اقتر": 5016,
      "المنفصل": 5017,
      "البه": 5018,
      "؟!": 5019,
      "المضم": 5020,
      "ويدل": 5021,
      "سماع": 5022,
      "مخط": 5023,
      "ذيب": 5024,
      "عملا": 5025,
      "الادبية": 5026,
      "والكسر": 5027,
      "والدليل": 5028,
      "التحقيق": 5029,
      "والمضاف": 5030,
      "وضعه": 5031,
      "وسمي": 5032,
      "لش": 5033,
      "المشرح": 5034,
      "بتاويل": 5035,
      "تسمع": 5036,
      "ودها": 5037,
      "رفعا": 5038,
      "عقيل": 5039,
      "٧٨": 5040,
      "نعمة": 5041,
      "تاخر": 5042,
      "وغيرهما": 5043,
      "مولي": 5044,
      "ابناء": 5045,
      "الميت": 5046,
      "تبس": 5047,
      "الني": 5048,
      "يزل": 5049,
      "مجرورا": 5050,
      "التاويل": 5051,
      "العكس": 5052,
      "راحة": 5053,
      "عربية": 5054,
      "وحرف": 5055,
      "الطل": 5056,
      "اللون": 5057,
      "البرق": 5058,
      "القتال": 5059,
      "الكون": 5060,
      "ايهم": 5061,
      "مرد": 5062,
      "اخاك": 5063,
      "تحل": 5064,
      "الجل": 5065,
      "المقال": 5066,
      "للدلالة": 5067,
      "اليب": 5068,
      "نقد": 5069,
      "كامل": 5070,
      "ورث": 5071,
      "ماضيا": 5072,
      "الو": 5073,
      "استقر": 5074,
      "البين": 5075,
      "كمن": 5076,
      "النعمان": 5077,
      "الاتباع": 5078,
      "الخارج": 5079,
      "جيب": 5080,
      "حبل": 5081,
      "مفاعل": 5082,
      "وقه": 5083,
      "جعلته": 5084,
      "الجارية": 5085,
      "وتلك": 5086,
      "نصبت": 5087,
      "تفر": 5088,
      "مسعود": 5089,
      "شعرا": 5090,
      "مفعولين": 5091,
      "ذاه": 5092,
      "قصير": 5093,
      "اياها": 5094,
      "والظ": 5095,
      "وابا": 5096,
      "المقر": 5097,
      "تهد": 5098,
      "الكناية": 5099,
      "منسوب": 5100,
      "درا": 5101,
      "المشت": 5102,
      "منقلبة": 5103,
      "انكر": 5104,
      "نتي": 5105,
      "عتها": 5106,
      "الباطل": 5107,
      "بابي": 5108,
      "جرم": 5109,
      "الاستقبال": 5110,
      "كلة": 5111,
      "العائد": 5112,
      "المشي": 5113,
      "ابنية": 5114,
      "يدري": 5115,
      "تصب": 5116,
      "لمه": 5117,
      "المكر": 5118,
      "الاتصال": 5119,
      "ضعي": 5120,
      "وتارة": 5121,
      "لغيره": 5122,
      "الحكاية": 5123,
      "تول": 5124,
      "والاح": 5125,
      "ومل": 5126,
      "الورد": 5127,
      "بنون": 5128,
      "لدن": 5129,
      "افصح": 5130,
      "تضمن": 5131,
      "الملائكة": 5132,
      "ومذهب": 5133,
      "الانبياء": 5134,
      "ظاهره": 5135,
      "ئات": 5136,
      "طلبه": 5137,
      "يعبر": 5138,
      "الشعب": 5139,
      "الفصاحة": 5140,
      "الطب": 5141,
      "والفاء": 5142,
      "طح": 5143,
      "الكذب": 5144,
      "بامر": 5145,
      "الحاضر": 5146,
      "وتخ": 5147,
      "وصلي": 5148,
      "الذات": 5149,
      "ناظر": 5150,
      "ردي": 5151,
      "بخط": 5152,
      "عذاب": 5153,
      "جزمه": 5154,
      "ماسي": 5155,
      "سفيان": 5156,
      "الخليفة": 5157,
      "يشمل": 5158,
      "وجوده": 5159,
      "الند": 5160,
      "كراه": 5161,
      "غيرهم": 5162,
      "بسكون": 5163,
      "رافع": 5164,
      "الفرد": 5165,
      "القواعد": 5166,
      "الاصلية": 5167,
      "متعلقان": 5168,
      "جلة": 5169,
      "حقي": 5170,
      "عاما": 5171,
      "للاخ": 5172,
      "تمت": 5173,
      "جنة": 5174,
      "حوله": 5175,
      "جعلوا": 5176,
      "اليمين": 5177,
      "ريج": 5178,
      "اظهار": 5179,
      "والتانيث": 5180,
      "الليلة": 5181,
      "ترفع": 5182,
      "غيرهما": 5183,
      "اطف": 5184,
      "اسمع": 5185,
      "بيين": 5186,
      "ائها": 5187,
      "كاكي": 5188,
      "مجموعة": 5189,
      "صلاح": 5190,
      "قنا": 5191,
      "عليل": 5192,
      "فوك": 5193,
      "فاط": 5194,
      "فاتي": 5195,
      "كرب": 5196,
      "معجمة": 5197,
      "عملت": 5198,
      "صان": 5199,
      "السهم": 5200,
      "وكث": 5201,
      "الصيغة": 5202,
      "عاب": 5203,
      "بالمعني": 5204,
      "ضربين": 5205,
      "رابط": 5206,
      "الاحمر": 5207,
      "بالاسم": 5208,
      "اشكال": 5209,
      "الاثر": 5210,
      "مجه": 5211,
      "الفرج": 5212,
      "بهن": 5213,
      "مبد": 5214,
      "مجز": 5215,
      "زج": 5216,
      "توجد": 5217,
      "نوي": 5218,
      "ينكر": 5219,
      "نعتا": 5220,
      "فعلاء": 5221,
      "حلة": 5222,
      "العقد": 5223,
      "شانه": 5224,
      "بعت": 5225,
      "بقيت": 5226,
      "ترجع": 5227,
      "المغرب": 5228,
      "المتقارب": 5229,
      "التمثيل": 5230,
      "بيوت": 5231,
      "بارة": 5232,
      "طلي": 5233,
      "عرق": 5234,
      "حسين": 5235,
      "الكوفة": 5236,
      "قصي": 5237,
      "منصور": 5238,
      "السل": 5239,
      "فحسب": 5240,
      "يدفع": 5241,
      "للغ": 5242,
      "فلن": 5243,
      "حرج": 5244,
      "قطعا": 5245,
      "؟.": 5246,
      "شتي": 5247,
      "ليب": 5248,
      "وياء": 5249,
      "يصدق": 5250,
      "عنهما": 5251,
      "ذوفا": 5252,
      "٩٠": 5253,
      "قدره": 5254,
      "العشرة": 5255,
      "شكر": 5256,
      "شده": 5257,
      "صحيحا": 5258,
      "الحبل": 5259,
      "الفحل": 5260,
      "الطائي": 5261,
      "عقل": 5262,
      "تامة": 5263,
      "ظروف": 5264,
      "الحزن": 5265,
      "السود": 5266,
      "الانكلي": 5267,
      "اخف": 5268,
      "القائم": 5269,
      "الانت": 5270,
      "سموع": 5271,
      "وتس": 5272,
      "نظرت": 5273,
      "شاب": 5274,
      "المتحرك": 5275,
      "بينما": 5276,
      "لسانه": 5277,
      "غلظ": 5278,
      "بالتح": 5279,
      "وكانوا": 5280,
      "مسن": 5281,
      "ووا": 5282,
      "الغلي": 5283,
      "اثناء": 5284,
      "حملت": 5285,
      "اطة": 5286,
      "داود": 5287,
      "القاهر": 5288,
      "ارع": 5289,
      "وخمس": 5290,
      "خالص": 5291,
      "لرجل": 5292,
      "الفرا": 5293,
      "اللين": 5294,
      "بالشيء": 5295,
      "قطة": 5296,
      "الصيد": 5297,
      "اخيه": 5298,
      "وضوح": 5299,
      "يلقي": 5300,
      "٥١": 5301,
      "الغرب": 5302,
      "العيون": 5303,
      "حيف": 5304,
      "تسعة": 5305,
      "ظهره": 5306,
      "الليالي": 5307,
      "يفة": 5308,
      "٥٤": 5309,
      "جال": 5310,
      "٥٣": 5311,
      "وبقي": 5312,
      "يشير": 5313,
      "قبلا": 5314,
      "قسيم": 5315,
      "ياد": 5316,
      "فيع": 5317,
      "ربط": 5318,
      "بالز": 5319,
      "تزاد": 5320,
      "الاطلاق": 5321,
      "بور": 5322,
      "اوها": 5323,
      "ونحوهما": 5324,
      "يبدو": 5325,
      "٨٨": 5326,
      "ظهرت": 5327,
      "وكر": 5328,
      "بارا": 5329,
      "ترجمة": 5330,
      "يثني": 5331,
      "وجدنا": 5332,
      "صدور": 5333,
      "٥٢": 5334,
      "صاحبة": 5335,
      "واسع": 5336,
      "احث": 5337,
      "بعدهما": 5338,
      "اهمله": 5339,
      "اسلم": 5340,
      "جوان": 5341,
      "لاس": 5342,
      "الحمي": 5343,
      "يوتي": 5344,
      "نفر": 5345,
      "التصرف": 5346,
      "المعمول": 5347,
      "فاوت": 5348,
      "الموجود": 5349,
      "متعديا": 5350,
      "الشتاء": 5351,
      "مده": 5352,
      "٦٤": 5353,
      "شغ": 5354,
      "وبعده": 5355,
      "متصلا": 5356,
      "كتابة": 5357,
      "تقديمه": 5358,
      "قارب": 5359,
      "والاس": 5360,
      "٧١": 5361,
      "وحذفت": 5362,
      "القارئ": 5363,
      "تقدر": 5364,
      "وصلت": 5365,
      "فارسي": 5366,
      "الشراب": 5367,
      "بالحرف": 5368,
      "احر": 5369,
      "سلمة": 5370,
      "دف": 5371,
      "مومن": 5372,
      "الخض": 5373,
      "نسخ": 5374,
      "اختصاص": 5375,
      "محذوفا": 5376,
      "استعارة": 5377,
      "الصباح": 5378,
      "اخرها": 5379,
      "حرا": 5380,
      "الامرين": 5381,
      "فيل": 5382,
      "وكلاهما": 5383,
      "التاسع": 5384,
      "يظن": 5385,
      "دما": 5386,
      "تصور": 5387,
      "يخالف": 5388,
      "زيدت": 5389,
      "الذم": 5390,
      "بمصر": 5391,
      "صبا": 5392,
      "الباقي": 5393,
      "واهم": 5394,
      "يقم": 5395,
      "الوع": 5396,
      "ذنب": 5397,
      "النحل": 5398,
      "وتست": 5399,
      "وجهان": 5400,
      "سلط": 5401,
      "١٤٠": 5402,
      "وبنو": 5403,
      "فيصير": 5404,
      "كاني": 5405,
      "برك": 5406,
      "سعي": 5407,
      "يمشي": 5408,
      "لقب": 5409,
      "ولام": 5410,
      "شرك": 5411,
      "ابنة": 5412,
      "ائرة": 5413,
      "يبت": 5414,
      "طويلا": 5415,
      "الشمال": 5416,
      "فدل": 5417,
      "افق": 5418,
      "بيده": 5419,
      "وهناك": 5420,
      "يشرب": 5421,
      "المنس": 5422,
      "الكبري": 5423,
      "ومنع": 5424,
      "-.": 5425,
      "تضم": 5426,
      "بوس": 5427,
      "مناه": 5428,
      "رفه": 5429,
      "دير": 5430,
      "يسكن": 5431,
      "نهاية": 5432,
      "افض": 5433,
      "وعين": 5434,
      "التصريف": 5435,
      "تمرين": 5436,
      "داع": 5437,
      "واها": 5438,
      "اوائل": 5439,
      "تختلف": 5440,
      "كمة": 5441,
      "رمض": 5442,
      "يوخذ": 5443,
      "واشار": 5444,
      "اذهب": 5445,
      "وفهم": 5446,
      "تزال": 5447,
      "وانك": 5448,
      "النحويون": 5449,
      "مسب": 5450,
      "تقتضي": 5451,
      "الانسانية": 5452,
      "جديدة": 5453,
      "قابل": 5454,
      "افاد": 5455,
      "والتن": 5456,
      "للخ": 5457,
      "المسي": 5458,
      "حقيقي": 5459,
      "مراعاة": 5460,
      "ذير": 5461,
      "خرة": 5462,
      "الكف": 5463,
      "ظهار": 5464,
      "والكلام": 5465,
      "بيضاء": 5466,
      "شديدة": 5467,
      "ذويب": 5468,
      "قاس": 5469,
      "فكرة": 5470,
      "مسمي": 5471,
      "واين": 5472,
      "جير": 5473,
      "شره": 5474,
      "طرح": 5475,
      "تناول": 5476,
      "الديار": 5477,
      "وسن": 5478,
      "تاكيد": 5479,
      "التصريح": 5480,
      "رئيس": 5481,
      "منط": 5482,
      "واختار": 5483,
      "شمل": 5484,
      "الفجر": 5485,
      "الهدي": 5486,
      "محيط": 5487,
      "بوجه": 5488,
      "الامالة": 5489,
      "محت": 5490,
      "نظام": 5491,
      "البخاري": 5492,
      "مهموز": 5493,
      "لشيء": 5494,
      "البعيد": 5495,
      "ومها": 5496,
      "بالليل": 5497,
      "الاسلوب": 5498,
      "نافع": 5499,
      "ادراك": 5500,
      "الاندلس": 5501,
      "تعني": 5502,
      "نث": 5503,
      "اتاني": 5504,
      "الجديد": 5505,
      "بتي": 5506,
      "ايد": 5507,
      "يتخذ": 5508,
      "معهم": 5509,
      "يعن": 5510,
      "معتل": 5511,
      "صرفا": 5512,
      "عجبت": 5513,
      "وبني": 5514,
      "نادي": 5515,
      "ايته": 5516,
      "وحمل": 5517,
      "باص": 5518,
      "الرحيم": 5519,
      "فيجب": 5520,
      "منطلقا": 5521,
      "التخفيف": 5522,
      "كبيرة": 5523,
      "مرات": 5524,
      "الحديثة": 5525,
      "الجواز": 5526,
      "ضيلة": 5527,
      "فيت": 5528,
      "بول": 5529,
      "اليم": 5530,
      "حديثه": 5531,
      "محلا": 5532,
      "هلال": 5533,
      "والحرف": 5534,
      "العض": 5535,
      "راسها": 5536,
      "قبيح": 5537,
      "شيئين": 5538,
      "نادر": 5539,
      "نوح": 5540,
      "تلق": 5541,
      "وون": 5542,
      "المعل": 5543,
      "وارض": 5544,
      "رووس": 5545,
      "الور": 5546,
      "الاخذ": 5547,
      "عطاء": 5548,
      "قش": 5549,
      "جيل": 5550,
      "يجئ": 5551,
      "............": 5552,
      "وتقد": 5553,
      "الرواة": 5554,
      "وقام": 5555,
      "زالت": 5556,
      "والفتح": 5557,
      "وعشرين": 5558,
      "ميه": 5559,
      "قران": 5560,
      "بيدي": 5561,
      "عير": 5562,
      "تاكل": 5563,
      "والراء": 5564,
      "تاك": 5565,
      "والسلام": 5566,
      "تكاد": 5567,
      "وجاز": 5568,
      "تقدمت": 5569,
      "المصباح": 5570,
      "محمدا": 5571,
      "طاهر": 5572,
      "يفتح": 5573,
      "التين": 5574,
      "فاش": 5575,
      "وتوكيد": 5576,
      "وزان": 5577,
      "والاص": 5578,
      "ترت": 5579,
      "مضمومة": 5580,
      "رفق": 5581,
      "العاص": 5582,
      "حكما": 5583,
      "هذان": 5584,
      "الداخ": 5585,
      "وبئس": 5586,
      "؟؟": 5587,
      "التهذيب": 5588,
      "الثقيلة": 5589,
      "مبين": 5590,
      "وتسمي": 5591,
      "فوجب": 5592,
      "باله": 5593,
      "حيوان": 5594,
      "ابوك": 5595,
      "اطع": 5596,
      "العرض": 5597,
      "فلك": 5598,
      "ماث": 5599,
      "اجز": 5600,
      "عينيه": 5601,
      "وفع": 5602,
      "يتين": 5603,
      "جلا": 5604,
      "ضاع": 5605,
      "احتج": 5606,
      "الاكل": 5607,
      "عروض": 5608,
      "فاة": 5609,
      "قلبها": 5610,
      "تفت": 5611,
      "قسمين": 5612,
      "حلا": 5613,
      "قرات": 5614,
      "الحلم": 5615,
      "قذ": 5616,
      "الاذن": 5617,
      "الكميت": 5618,
      "ظالم": 5619,
      "وحتي": 5620,
      "سوس": 5621,
      "رجاني": 5622,
      "تكسير": 5623,
      "قرط": 5624,
      ":\"": 5625,
      "يفرق": 5626,
      "فنحو": 5627,
      "٦١": 5628,
      "٨٧": 5629,
      "الابواب": 5630,
      "لتها": 5631,
      "اشتري": 5632,
      "صوته": 5633,
      "وفاعله": 5634,
      "البرا": 5635,
      "فرعون": 5636,
      "القلة": 5637,
      "الباحث": 5638,
      "والمد": 5639,
      "بعل": 5640,
      "فذهب": 5641,
      "المائة": 5642,
      "نسا": 5643,
      "انكم": 5644,
      "فلس": 5645,
      "باك": 5646,
      "افل": 5647,
      "يستغني": 5648,
      "عجل": 5649,
      "رجمة": 5650,
      "المكسورة": 5651,
      "المها": 5652,
      "ازيد": 5653,
      "ينتصب": 5654,
      "المفتوحة": 5655,
      "بام": 5656,
      "ربها": 5657,
      "تبط": 5658,
      "تضاف": 5659,
      "ارم": 5660,
      "موجب": 5661,
      "المزيد": 5662,
      "مصادر": 5663,
      "الابهام": 5664,
      "العش": 5665,
      "طراب": 5666,
      "مقدار": 5667,
      "الرشيد": 5668,
      "التسمية": 5669,
      "الضي": 5670,
      "مشر": 5671,
      "يضر": 5672,
      "ضاة": 5673,
      "وكقول": 5674,
      "تخصيص": 5675,
      "والحال": 5676,
      "مسا": 5677,
      "تجيء": 5678,
      "لمع": 5679,
      "وابد": 5680,
      "ومد": 5681,
      "الخفيفة": 5682,
      "راث": 5683,
      "٦٣": 5684,
      "والمس": 5685,
      "فقا": 5686,
      "عية": 5687,
      "اخاه": 5688,
      "السبع": 5689,
      "خرق": 5690,
      "الحية": 5691,
      "المعرف": 5692,
      "البن": 5693,
      "قولي": 5694,
      "حمق": 5695,
      "وبهذا": 5696,
      "الالت": 5697,
      "وعاد": 5698,
      "حمراء": 5699,
      "سلطان": 5700,
      "لمح": 5701,
      "الشافعي": 5702,
      "الناحية": 5703,
      "بمع": 5704,
      "مقبل": 5705,
      "السكاكي": 5706,
      "مونثا": 5707,
      "تبت": 5708,
      "قاص": 5709,
      "شبهها": 5710,
      "يتعين": 5711,
      "ذكرا": 5712,
      "محدث": 5713,
      "٦٢": 5714,
      "الطي": 5715,
      "صالحا": 5716,
      "مضر": 5717,
      "وطن": 5718,
      "رين": 5719,
      "اجله": 5720,
      "وحش": 5721,
      "للص": 5722,
      "يحة": 5723,
      "توا": 5724,
      "الجهل": 5725,
      "سببا": 5726,
      "الراعي": 5727,
      "راكبا": 5728,
      "الايضاح": 5729,
      "الجود": 5730,
      "القاب": 5731,
      "الوزير": 5732,
      "وخي": 5733,
      "الثاء": 5734,
      "التنكير": 5735,
      "تفرق": 5736,
      "فينة": 5737,
      "قائمة": 5738,
      "قضاء": 5739,
      "اخبرني": 5740,
      "والفرق": 5741,
      "قدار": 5742,
      "تقسيم": 5743,
      "سكين": 5744,
      "انثي": 5745,
      "يقتل": 5746,
      "تقبل": 5747,
      "اتصال": 5748,
      "الضمائر": 5749,
      "وانتم": 5750,
      "للج": 5751,
      "مضمرة": 5752,
      "الحكمة": 5753,
      "بطنه": 5754,
      "فقة": 5755,
      "والقول": 5756,
      "يرتفع": 5757,
      "فسيره": 5758,
      "الضعيف": 5759,
      "محي": 5760,
      "لدلالة": 5761,
      "التغيير": 5762,
      "الاختيار": 5763,
      "الاعراف": 5764,
      "رجاء": 5765,
      "تعدد": 5766,
      "الانشاد": 5767,
      "الفارسية": 5768,
      "اعربت": 5769,
      "وضيح": 5770,
      "ملكة": 5771,
      "بالمصدر": 5772,
      "المتب": 5773,
      "التالي": 5774,
      "مذكور": 5775,
      "لائل": 5776,
      "الرابعة": 5777,
      "دهر": 5778,
      "اسلوب": 5779,
      "اقامة": 5780,
      "منقول": 5781,
      "للح": 5782,
      "غدادي": 5783,
      "فاعت": 5784,
      "فخر": 5785,
      "احترا": 5786,
      "نسوة": 5787,
      "تاوي": 5788,
      "يصرف": 5789,
      "ودون": 5790,
      "تثني": 5791,
      "الصيف": 5792,
      "اقوال": 5793,
      "المنط": 5794,
      "ظي": 5795,
      "الايات": 5796,
      "راعي": 5797,
      "خروف": 5798,
      "اليون": 5799,
      "بصري": 5800,
      "ولفظ": 5801,
      "حده": 5802,
      "القرينة": 5803,
      "القلم": 5804,
      "يعطف": 5805,
      "ابنا": 5806,
      "كاة": 5807,
      "موص": 5808,
      "فتين": 5809,
      "اشبهه": 5810,
      "اليهود": 5811,
      "البدر": 5812,
      "لاقه": 5813,
      "المنفي": 5814,
      "فسي": 5815,
      "ستان": 5816,
      "تذهب": 5817,
      "اعين": 5818,
      "والهمزة": 5819,
      "صحت": 5820,
      "الخروج": 5821,
      "النهر": 5822,
      "واحده": 5823,
      "مخالفة": 5824,
      "اسفل": 5825,
      "فمعناه": 5826,
      "كسرت": 5827,
      "حمر": 5828,
      "المفسر": 5829,
      "الفلس": 5830,
      "الهيئة": 5831,
      "يدها": 5832,
      "وانين": 5833,
      "محمول": 5834,
      "تيه": 5835,
      "باش": 5836,
      "فاضل": 5837,
      "مضارعه": 5838,
      "فاظ": 5839,
      "لوجود": 5840,
      "تمن": 5841,
      "فارق": 5842,
      "تفي": 5843,
      "المجلس": 5844,
      "ابله": 5845,
      "ميص": 5846,
      "ودخل": 5847,
      "امرت": 5848,
      "الاخلاق": 5849,
      "حاضر": 5850,
      "بعدما": 5851,
      "صبحت": 5852,
      "اثنان": 5853,
      "اعدا": 5854,
      "بعن": 5855,
      "ثاء": 5856,
      "وصاحب": 5857,
      "حلب": 5858,
      "ظهورها": 5859,
      "استه": 5860,
      "الشرطية": 5861,
      "ينقل": 5862,
      "عاملا": 5863,
      "مدا": 5864,
      "الطريقة": 5865,
      "قدمه": 5866,
      "تعود": 5867,
      "رجي": 5868,
      "يوكد": 5869,
      "البغدادي": 5870,
      "النز": 5871,
      "واته": 5872,
      "تردد": 5873,
      "دلال": 5874,
      "المعتز": 5875,
      "خاء": 5876,
      "غلبة": 5877,
      "العص": 5878,
      "رمضان": 5879,
      "اصط": 5880,
      ":-": 5881,
      "محركة": 5882,
      "ترخيم": 5883,
      "مريم": 5884,
      "والعن": 5885,
      "اشرف": 5886,
      "جور": 5887,
      "سحر": 5888,
      "وليت": 5889,
      "يرون": 5890,
      "تراب": 5891,
      "المامون": 5892,
      "فقلبت": 5893,
      "قاعدة": 5894,
      "وعمل": 5895,
      "واخبر": 5896,
      "عظيمة": 5897,
      "العظم": 5898,
      "الحاصل": 5899,
      "الحكيم": 5900,
      "العز": 5901,
      "تعال": 5902,
      "ريبة": 5903,
      "وسيلة": 5904,
      "صرا": 5905,
      "القبائل": 5906,
      "امسي": 5907,
      "للضرورة": 5908,
      "والعامل": 5909,
      "فكير": 5910,
      "اسند": 5911,
      "الاثبات": 5912,
      "مبهم": 5913,
      "٧٣": 5914,
      "احل": 5915,
      "وثم": 5916,
      "الادباء": 5917,
      "حات": 5918,
      "مدت": 5919,
      "الخلافة": 5920,
      "كالم": 5921,
      "تخفيفا": 5922,
      "عرا": 5923,
      "وخبره": 5924,
      "بتك": 5925,
      "واحتج": 5926,
      "٩٩": 5927,
      "قيقا": 5928,
      "مجي": 5929,
      "ويجب": 5930,
      "ولكني": 5931,
      "رباع": 5932,
      "الوجهان": 5933,
      "الزوج": 5934,
      "قبلهما": 5935,
      "الكرام": 5936,
      "غاب": 5937,
      "بيث": 5938,
      "المختار": 5939,
      "وتشديد": 5940,
      "يقر": 5941,
      "للاستاذ": 5942,
      "اوضح": 5943,
      "المائدة": 5944,
      "وكلام": 5945,
      "الغين": 5946,
      "علاقة": 5947,
      "وبل": 5948,
      "استط": 5949,
      "دونها": 5950,
      "انتص": 5951,
      "اشي": 5952,
      "بالماء": 5953,
      "تكرار": 5954,
      "كبيرا": 5955,
      "هني": 5956,
      "مفعوله": 5957,
      "كح": 5958,
      "النها": 5959,
      "مقدما": 5960,
      "وكون": 5961,
      "تغلب": 5962,
      "اييس": 5963,
      "البيتين": 5964,
      "الدول": 5965,
      "هان": 5966,
      "ارية": 5967,
      "فضة": 5968,
      "السيوف": 5969,
      "الاربع": 5970,
      "٧٢": 5971,
      "انصرف": 5972,
      "اصة": 5973,
      "تفصيل": 5974,
      "سوال": 5975,
      "مشددة": 5976,
      "نخ": 5977,
      "وسم": 5978,
      "الاور": 5979,
      "يتصور": 5980,
      "معروفة": 5981,
      "نظرا": 5982,
      "والسين": 5983,
      "ياط": 5984,
      "وخص": 5985,
      "٧٥": 5986,
      "تكلف": 5987,
      "القتل": 5988,
      "وفيما": 5989,
      ".)": 5990,
      "بابن": 5991,
      "يغير": 5992,
      "الفاضل": 5993,
      "وصي": 5994,
      "لجاز": 5995,
      "حينا": 5996,
      "يقضي": 5997,
      "يليها": 5998,
      "السبيل": 5999,
      "الجذر": 6000,
      "الغز": 6001,
      "هنالك": 6002,
      "يقف": 6003,
      "سلا": 6004,
      "ضيض": 6005,
      "حتاج": 6006,
      "حمة": 6007,
      "المخف": 6008,
      "فاسد": 6009,
      "نزلت": 6010,
      "ئية": 6011,
      "جهد": 6012,
      "وللم": 6013,
      "عليم": 6014,
      "خطب": 6015,
      "قدما": 6016,
      "وضا": 6017,
      "همة": 6018,
      "ساكنا": 6019,
      "رباعي": 6020,
      "السمع": 6021,
      "الاعداء": 6022,
      "ينون": 6023,
      "قلوبهم": 6024,
      "سبا": 6025,
      "والرتبة": 6026,
      "بهاء": 6027,
      "اجمعين": 6028,
      "شهاد": 6029,
      "افه": 6030,
      "امعة": 6031,
      "عموم": 6032,
      "اتفق": 6033,
      "ربهم": 6034,
      "متاع": 6035,
      "وشك": 6036,
      "تبعا": 6037,
      "معانيها": 6038,
      "البلي": 6039,
      "وقات": 6040,
      "الاساس": 6041,
      "الحوض": 6042,
      "ثياب": 6043,
      "الاتيان": 6044,
      "مطرد": 6045,
      "توكيدا": 6046,
      "المعنوي": 6047,
      "افتعل": 6048,
      "موضعها": 6049,
      "الابيض": 6050,
      "قدرت": 6051,
      "القوس": 6052,
      "فيست": 6053,
      "٨١": 6054,
      "صغيرة": 6055,
      "وفيين": 6056,
      "مسي": 6057,
      "دته": 6058,
      "اشعر": 6059,
      "جمعها": 6060,
      "ارات": 6061,
      "ربيع": 6062,
      "والمح": 6063,
      "القضاء": 6064,
      "مهملة": 6065,
      "توسط": 6066,
      "فعلوا": 6067,
      "والناس": 6068,
      "الذنب": 6069,
      "اليهما": 6070,
      "اخوه": 6071,
      "حمزة": 6072,
      "فامر": 6073,
      "ابان": 6074,
      "ونعم": 6075,
      "غيرك": 6076,
      "يموت": 6077,
      "محر": 6078,
      "بحركة": 6079,
      "سئل": 6080,
      "هجر": 6081,
      "الاداة": 6082,
      "معينة": 6083,
      "للن": 6084,
      "وحل": 6085,
      "تيق": 6086,
      "وجي": 6087,
      "دلت": 6088,
      "وكسرها": 6089,
      "قلي": 6090,
      "التس": 6091,
      "دليلا": 6092,
      "نعة": 6093,
      "متنا": 6094,
      "الظل": 6095,
      "تعجب": 6096,
      "وحق": 6097,
      "وبات": 6098,
      "عدت": 6099,
      "فور": 6100,
      "البصر": 6101,
      "طالع": 6102,
      "التوبة": 6103,
      "سيان": 6104,
      "تعريفه": 6105,
      "ثت": 6106,
      "فكتب": 6107,
      "صغار": 6108,
      "السيل": 6109,
      "لاسم": 6110,
      "امله": 6111,
      "مبالغة": 6112,
      "حبلي": 6113,
      "البيع": 6114,
      "بالتحريك": 6115,
      "حاصل": 6116,
      "المجموع": 6117,
      "ادعي": 6118,
      "قومك": 6119,
      "خصص": 6120,
      "اتن": 6121,
      "المرض": 6122,
      "ديا": 6123,
      "غبة": 6124,
      "باقي": 6125,
      "الوحش": 6126,
      "الستة": 6127,
      "وارج": 6128,
      "تلت": 6129,
      "وناقة": 6130,
      "باين": 6131,
      "تبقي": 6132,
      "اللفظي": 6133,
      "مرار": 6134,
      "الجميل": 6135,
      "جهنم": 6136,
      "صلب": 6137,
      "وسمع": 6138,
      "القافية": 6139,
      "اثره": 6140,
      "وثق": 6141,
      "يضم": 6142,
      "بالحق": 6143,
      "غه": 6144,
      "المرك": 6145,
      "خصائص": 6146,
      "العرف": 6147,
      "عوف": 6148,
      "يصنع": 6149,
      "النقص": 6150,
      "الاديب": 6151,
      "والاج": 6152,
      "النثر": 6153,
      "الهلال": 6154,
      "ئون": 6155,
      "المبهم": 6156,
      "ادوات": 6157,
      "اللذين": 6158,
      "والمخ": 6159,
      "مضارعا": 6160,
      "والشر": 6161,
      "عليا": 6162,
      "٧٤": 6163,
      "السلاح": 6164,
      "وبلغ": 6165,
      "المنطق": 6166,
      "٨٢": 6167,
      "للذي": 6168,
      "يليه": 6169,
      "وتص": 6170,
      "اعمل": 6171,
      "النصر": 6172,
      "البشر": 6173,
      "ولده": 6174,
      "الحرام": 6175,
      "الاحرف": 6176,
      "والحر": 6177,
      "اختي": 6178,
      "الفواد": 6179,
      "\")": 6180,
      "الخش": 6181,
      "وزي": 6182,
      "ذكرته": 6183,
      "رط": 6184,
      "صفته": 6185,
      "انفا": 6186,
      "ويظهر": 6187,
      "القصص": 6188,
      "القصير": 6189,
      "شابه": 6190,
      "الردي": 6191,
      "للش": 6192,
      "يحتج": 6193,
      "استغني": 6194,
      "وخبرها": 6195,
      "وانهم": 6196,
      "مثلك": 6197,
      "عدوا": 6198,
      "اسناد": 6199,
      "مجرورة": 6200,
      "درس": 6201,
      "ينبت": 6202,
      "الكلاب": 6203,
      "يتك": 6204,
      "كائن": 6205,
      "ضميره": 6206,
      "لاي": 6207,
      "المجر": 6208,
      "ثلاثين": 6209,
      "الانكليزية": 6210,
      "القرب": 6211,
      "وشرط": 6212,
      "اهلي": 6213,
      "الظلم": 6214,
      "الاناء": 6215,
      "فضلة": 6216,
      "العصا": 6217,
      "السياق": 6218,
      "دراك": 6219,
      "الانصاري": 6220,
      "حاول": 6221,
      "برفع": 6222,
      "الشجرة": 6223,
      "تجوز": 6224,
      "واقام": 6225,
      "الطفل": 6226,
      "الظلام": 6227,
      "عجب": 6228,
      "وسه": 6229,
      "يتصرف": 6230,
      "داره": 6231,
      "حصول": 6232,
      "بلاغة": 6233,
      "تكسر": 6234,
      "فغ": 6235,
      "مضافة": 6236,
      "ارته": 6237,
      "وحم": 6238,
      "المختص": 6239,
      "عك": 6240,
      "وشبهه": 6241,
      "فلت": 6242,
      "التفصيل": 6243,
      "الصناعة": 6244,
      "يخص": 6245,
      "وتا": 6246,
      "الدالة": 6247,
      "المنعوت": 6248,
      "لاش": 6249,
      "محال": 6250,
      "دخ": 6251,
      "الاصطلاح": 6252,
      "ترق": 6253,
      "انج": 6254,
      "لعبد": 6255,
      "الطول": 6256,
      "الاداب": 6257,
      "يسلم": 6258,
      "مباشرة": 6259,
      "اسمي": 6260,
      "تقطع": 6261,
      "الساق": 6262,
      "اذي": 6263,
      "سرع": 6264,
      "تصح": 6265,
      "بواسطة": 6266,
      "قطر": 6267,
      "ئيس": 6268,
      "فرقا": 6269,
      "الرائ": 6270,
      "فرت": 6271,
      "لقلت": 6272,
      "والظاهر": 6273,
      "يتغير": 6274,
      "غيرا": 6275,
      "قرر": 6276,
      "البل": 6277,
      "المقدمة": 6278,
      "تحتاج": 6279,
      "تاخذ": 6280,
      "ائفة": 6281,
      "واسمه": 6282,
      "يوضع": 6283,
      "يسبق": 6284,
      "اللوم": 6285,
      "لفظي": 6286,
      "مصح": 6287,
      "والعلم": 6288,
      "البري": 6289,
      "ثالثة": 6290,
      "ولدت": 6291,
      "فاعلم": 6292,
      "غرة": 6293,
      "تكتب": 6294,
      "المضاعف": 6295,
      "النظام": 6296,
      "ساس": 6297,
      "ربكم": 6298,
      "ميمي": 6299,
      "ستر": 6300,
      "موجودة": 6301,
      "اعلام": 6302,
      "لكي": 6303,
      "باضمار": 6304,
      "قاتل": 6305,
      "سمت": 6306,
      "فرط": 6307,
      "بابها": 6308,
      "يله": 6309,
      "تحته": 6310,
      "وكقوله": 6311,
      "تامل": 6312,
      "ادغام": 6313,
      "وضعها": 6314,
      "ورت": 6315,
      "تجاوز": 6316,
      "فانظر": 6317,
      "واية": 6318,
      "الفقر": 6319,
      "سموا": 6320,
      "الرومي": 6321,
      "والار": 6322,
      "حميد": 6323,
      "نعلم": 6324,
      "جيش": 6325,
      "حلق": 6326,
      "بالتشديد": 6327,
      "زح": 6328,
      "البقاء": 6329,
      "احا": 6330,
      "التام": 6331,
      "خدام": 6332,
      "رجلين": 6333,
      "يرضي": 6334,
      "السائل": 6335,
      "محضة": 6336,
      "فنون": 6337,
      "ئمة": 6338,
      "وقوم": 6339,
      "الخطيب": 6340,
      "المطابقة": 6341,
      "يمر": 6342,
      "كذاك": 6343,
      "نائي": 6344,
      "الحماسة": 6345,
      "واخرج": 6346,
      "والشعر": 6347,
      "بعيدا": 6348,
      "بحكم": 6349,
      "وراي": 6350,
      "نصبا": 6351,
      "نحوه": 6352,
      "للفظ": 6353,
      "بالمفعول": 6354,
      "بمعناه": 6355,
      "٧٦": 6356,
      "بعا": 6357,
      "وحب": 6358,
      "الكثيرة": 6359,
      "القرية": 6360,
      "للالحاق": 6361,
      "عاصم": 6362,
      "باحث": 6363,
      "انون": 6364,
      "اضطر": 6365,
      "يعتد": 6366,
      "نصيب": 6367,
      "مرفوضة": 6368,
      "حلت": 6369,
      "نفسا": 6370,
      "حركات": 6371,
      "بالان": 6372,
      "كرهوا": 6373,
      "قلته": 6374,
      "الاسباب": 6375,
      "مصدره": 6376,
      "يكفي": 6377,
      "الفهم": 6378,
      "ويجعل": 6379,
      "وجهها": 6380,
      "والنهي": 6381,
      "مركبة": 6382,
      "وجوز": 6383,
      "المدرسة": 6384,
      "وازن": 6385,
      "واشباه": 6386,
      "ابين": 6387,
      "بو": 6388,
      "الدخول": 6389,
      "شيوخ": 6390,
      "بصر": 6391,
      "العليا": 6392,
      "الخبرية": 6393,
      "يلق": 6394,
      "محض": 6395,
      "اخرون": 6396,
      "والجميع": 6397,
      "مبت": 6398,
      "تفتح": 6399,
      "الضارب": 6400,
      "الحجة": 6401,
      "اهي": 6402,
      "وسيب": 6403,
      "راسات": 6404,
      "المشددة": 6405,
      "وثاني": 6406,
      "داث": 6407,
      "زان": 6408,
      "فصح": 6409,
      "لقيته": 6410,
      "فران": 6411,
      "ضحك": 6412,
      "تحر": 6413,
      "العلمي": 6414,
      "عالما": 6415,
      "نهر": 6416,
      "والشيء": 6417,
      "مشهور": 6418,
      "٨٥": 6419,
      "رده": 6420,
      "مسند": 6421,
      "مكسور": 6422,
      "المستتر": 6423,
      "ورسوله": 6424,
      "وقط": 6425,
      "بنصب": 6426,
      "فاعلن": 6427,
      "والاعراب": 6428,
      "قيقته": 6429,
      "الامل": 6430,
      "بقدر": 6431,
      "حرة": 6432,
      "٨٤": 6433,
      "عروة": 6434,
      "ويري": 6435,
      "سياق": 6436,
      "التد": 6437,
      "وثالث": 6438,
      "مرفوعة": 6439,
      "تحس": 6440,
      "حاض": 6441,
      "زار": 6442,
      "قبة": 6443,
      "اثني": 6444,
      "وبذلك": 6445,
      "لفظها": 6446,
      "الاعتراض": 6447,
      "ناهم": 6448,
      "وحدث": 6449,
      "بسي": 6450,
      "دعوي": 6451,
      "الجرمي": 6452,
      "كارم": 6453,
      "نبا": 6454,
      "جين": 6455,
      "روية": 6456,
      "راكب": 6457,
      "اليقين": 6458,
      "اذل": 6459,
      "يخاف": 6460,
      "اللفظية": 6461,
      "سقوط": 6462,
      "ووزن": 6463,
      "للفاعل": 6464,
      "الرافعي": 6465,
      "واسمها": 6466,
      "وجعله": 6467,
      "الغيث": 6468,
      "اكلت": 6469,
      "ولهم": 6470,
      "تصف": 6471,
      "تستطيع": 6472,
      "واصلها": 6473,
      "للجمع": 6474,
      "ويج": 6475,
      "السحر": 6476,
      "العظيمة": 6477,
      "نوب": 6478,
      "ريش": 6479,
      "استطاع": 6480,
      "الحجارة": 6481,
      "خلط": 6482,
      "قتال": 6483,
      "المخبر": 6484,
      "فاي": 6485,
      "والام": 6486,
      "يلبس": 6487,
      "شرت": 6488,
      "يحت": 6489,
      "تركه": 6490,
      "الاجتماعية": 6491,
      "الشدة": 6492,
      "الخفض": 6493,
      "ذكروا": 6494,
      "٨٣": 6495,
      "النوي": 6496,
      "حالها": 6497,
      "كية": 6498,
      "وعر": 6499,
      "ائك": 6500,
      "المناسبة": 6501,
      "حذفوا": 6502,
      "دالة": 6503,
      "الممدوح": 6504,
      "العجم": 6505,
      "استغ": 6506,
      "تقرير": 6507,
      "تقت": 6508,
      "الخوف": 6509,
      "لذ": 6510,
      "اتك": 6511,
      "سبحان": 6512,
      "الامت": 6513,
      "اقي": 6514,
      "العسل": 6515,
      "وارس": 6516,
      "-[": 6517,
      "سوق": 6518,
      "حكمها": 6519,
      "ومخ": 6520,
      "النعمة": 6521,
      "والرابع": 6522,
      "ومق": 6523,
      "الضحي": 6524,
      "وعمرا": 6525,
      "يكونا": 6526,
      "اضافته": 6527,
      "المتاخرين": 6528,
      "الدرهم": 6529,
      "يفسر": 6530,
      "واشي": 6531,
      "طلعت": 6532,
      "امنا": 6533,
      "زت": 6534,
      "كمل": 6535,
      "تصير": 6536,
      "اناس": 6537,
      "رداء": 6538,
      "ساوي": 6539,
      "قرار": 6540,
      "المرة": 6541,
      "طعم": 6542,
      "صفا": 6543,
      "المضي": 6544,
      "والنهار": 6545,
      "يوثر": 6546,
      "الغير": 6547,
      "عبدا": 6548,
      "متصرف": 6549,
      "تحول": 6550,
      "وعها": 6551,
      "غيب": 6552,
      "هاشم": 6553,
      "وقلب": 6554,
      "كمثل": 6555,
      "اجتمعت": 6556,
      "قدرة": 6557,
      "حها": 6558,
      "والدال": 6559,
      "الطرق": 6560,
      "عروف": 6561,
      "الناصب": 6562,
      "هيهات": 6563,
      "سببه": 6564,
      "طرفا": 6565,
      "باحد": 6566,
      "عقله": 6567,
      "التابع": 6568,
      "دينا": 6569,
      "يكره": 6570,
      "مثبت": 6571,
      "وماء": 6572,
      "بالهمزة": 6573,
      "حرفان": 6574,
      "امراته": 6575,
      "يفسره": 6576,
      "يصيب": 6577,
      "عظيما": 6578,
      "يبعد": 6579,
      "القريب": 6580,
      "اقصي": 6581,
      "وائم": 6582,
      "ضج": 6583,
      "فاعلة": 6584,
      "زب": 6585,
      "كاذ": 6586,
      "ورده": 6587,
      "كيسان": 6588,
      "وسيبويه": 6589,
      "تدري": 6590,
      "اجة": 6591,
      "فوقه": 6592,
      "خات": 6593,
      "فلة": 6594,
      "للي": 6595,
      "كافة": 6596,
      "لبيان": 6597,
      "اليكم": 6598,
      "مونثة": 6599,
      "تاما": 6600,
      "كرام": 6601,
      "ينشد": 6602,
      "ولكنهم": 6603,
      "الادبي": 6604,
      "قبر": 6605,
      "جاو": 6606,
      "حزن": 6607,
      "الفقهاء": 6608,
      "الكر": 6609,
      "الاما": 6610,
      "يشهد": 6611,
      "الظالم": 6612,
      "زهر": 6613,
      "التخصيص": 6614,
      "البياض": 6615,
      "شجاع": 6616,
      "ونهم": 6617,
      "وحسب": 6618,
      "وحيث": 6619,
      "الطوي": 6620,
      "السماوات": 6621,
      "الطالب": 6622,
      "تنزل": 6623,
      "البس": 6624,
      "الانشاء": 6625,
      "٠٠": 6626,
      "دالا": 6627,
      "عرب": 6628,
      "صاب": 6629,
      "الوث": 6630,
      "انفه": 6631,
      "والتص": 6632,
      "وسائر": 6633,
      "مفاعيل": 6634,
      "اعجب": 6635,
      "يسقط": 6636,
      "التصحيح": 6637,
      "اصابه": 6638,
      "المنقول": 6639,
      "تعدية": 6640,
      "اتنا": 6641,
      "والما": 6642,
      "الباس": 6643,
      "خطي": 6644,
      "والفراء": 6645,
      "ايم": 6646,
      "لتع": 6647,
      "مفس": 6648,
      "وتش": 6649,
      "اجن": 6650,
      "ركين": 6651,
      "الضخم": 6652,
      "مجلة": 6653,
      "مستقبل": 6654,
      "ماميني": 6655,
      "وقوف": 6656,
      "المنذر": 6657,
      "اراك": 6658,
      "ادخلت": 6659,
      "اذه": 6660,
      "تزل": 6661,
      "غمة": 6662,
      "اسقط": 6663,
      "حركتها": 6664,
      "وفرس": 6665,
      "الدمع": 6666,
      "علب": 6667,
      "بيلة": 6668,
      "رعي": 6669,
      "الايجاز": 6670,
      "زها": 6671,
      "قدح": 6672,
      "يستوي": 6673,
      "كبري": 6674,
      "الحاد": 6675,
      "الخمس": 6676,
      "صية": 6677,
      "الجرجاني": 6678,
      "البقر": 6679,
      "وتنا": 6680,
      "وسة": 6681,
      "يعتقد": 6682,
      "الحوادث": 6683,
      "المفضل": 6684,
      "خمة": 6685,
      "ممتنع": 6686,
      "امرين": 6687,
      "جده": 6688,
      "اجاب": 6689,
      "معربة": 6690,
      "صفحة": 6691,
      "والاضافة": 6692,
      "قتلت": 6693,
      "اطر": 6694,
      "ذام": 6695,
      "اغني": 6696,
      "دوي": 6697,
      "يذكره": 6698,
      "افت": 6699,
      "ثمر": 6700,
      "اقتض": 6701,
      "يدر": 6702,
      "الحصر": 6703,
      "اسمين": 6704,
      "القطعة": 6705,
      "يهم": 6706,
      "اقبة": 6707,
      "وجدته": 6708,
      "والافعال": 6709,
      "جلست": 6710,
      "الخد": 6711,
      "اكله": 6712,
      "السوء": 6713,
      "مدلول": 6714,
      "الحكومة": 6715,
      "سيدنا": 6716,
      "اهن": 6717,
      "الثقل": 6718,
      "افادة": 6719,
      "العجز": 6720,
      "الاقسام": 6721,
      "بغيره": 6722,
      "جابر": 6723,
      "٩٦": 6724,
      "وياتي": 6725,
      "المنزل": 6726,
      "مراده": 6727,
      "اكان": 6728,
      "لته": 6729,
      "يتوهم": 6730,
      "للاع": 6731,
      "سلامة": 6732,
      "رجم": 6733,
      "ممدود": 6734,
      "يستدرك": 6735,
      "استعمالها": 6736,
      "تبني": 6737,
      "ولكل": 6738,
      "الحافظ": 6739,
      "اطراف": 6740,
      "المور": 6741,
      "والكس": 6742,
      "راده": 6743,
      "اعتقد": 6744,
      "صاحبي": 6745,
      "تنفي": 6746,
      "اير": 6747,
      "ناك": 6748,
      "كوم": 6749,
      "لعلي": 6750,
      "الثقافة": 6751,
      "قود": 6752,
      "مرتين": 6753,
      "الكالا": 6754,
      "المقري": 6755,
      "رحي": 6756,
      "شيا": 6757,
      "يعط": 6758,
      "فاول": 6759,
      "تاليف": 6760,
      "سريع": 6761,
      "عصا": 6762,
      "الغضب": 6763,
      "هارون": 6764,
      "طلحات": 6765,
      "يحكي": 6766,
      "الثناء": 6767,
      "جنون": 6768,
      "وحيد": 6769,
      "الاكبر": 6770,
      "وعمر": 6771,
      "المشهورة": 6772,
      "الاحت": 6773,
      "بخير": 6774,
      "الانواع": 6775,
      "تمنع": 6776,
      "٨٦": 6777,
      "الوري": 6778,
      "عندها": 6779,
      "صادق": 6780,
      "مذكرا": 6781,
      "قطعه": 6782,
      "الارت": 6783,
      "الشرف": 6784,
      "عطفت": 6785,
      "المحقق": 6786,
      "حلو": 6787,
      "نزع": 6788,
      "ونك": 6789,
      "الشواهد": 6790,
      "الاخطل": 6791,
      "تدغم": 6792,
      "هاتين": 6793,
      "افلا": 6794,
      "وفد": 6795,
      "مخففة": 6796,
      "التضعيف": 6797,
      "ركن": 6798,
      "صعب": 6799,
      "رابعة": 6800,
      "قوية": 6801,
      "نقلت": 6802,
      "والبر": 6803,
      "طيئة": 6804,
      "عور": 6805,
      "يعتمد": 6806,
      "مذهبه": 6807,
      "رابة": 6808,
      "تعب": 6809,
      "تصلح": 6810,
      "دابة": 6811,
      "ضرة": 6812,
      "لمان": 6813,
      "يكونوا": 6814,
      "مفردة": 6815,
      "يون": 6816,
      "واكت": 6817,
      "تنظر": 6818,
      "التاليف": 6819,
      "للاضافة": 6820,
      "................................": 6821,
      "بحق": 6822,
      "القطر": 6823,
      "جميعها": 6824,
      "ومفعول": 6825,
      "ثابتة": 6826,
      "بكلام": 6827,
      "للاسم": 6828,
      "راسي": 6829,
      "احدهم": 6830,
      "جزءا": 6831,
      "بكذا": 6832,
      "نيف": 6833,
      "رحلة": 6834,
      "والشاهد": 6835,
      "داخلة": 6836,
      "احك": 6837,
      "حروفه": 6838,
      "فعيلة": 6839,
      "صون": 6840,
      "لحن": 6841,
      "كلاب": 6842,
      "للجنس": 6843,
      "المنصور": 6844,
      "الاسدي": 6845,
      "مشترك": 6846,
      "طاعة": 6847,
      "واعل": 6848,
      "ديل": 6849,
      "وفيق": 6850,
      "القدم": 6851,
      "طبيعة": 6852,
      "معاملة": 6853,
      "موز": 6854,
      "ينوب": 6855,
      "ويز": 6856,
      "تمس": 6857,
      "الثابت": 6858,
      "الثبوت": 6859,
      "الاسلامي": 6860,
      "حته": 6861,
      "ناصب": 6862,
      "كماء": 6863,
      "وصلا": 6864,
      "والعامة": 6865,
      "يوافق": 6866,
      "اراه": 6867,
      "وعرض": 6868,
      "هريرة": 6869,
      "بلغة": 6870,
      "ولات": 6871,
      "بينة": 6872,
      "لونه": 6873,
      "الاستفهامية": 6874,
      "محد": 6875,
      "نقلا": 6876,
      "يبدل": 6877,
      "عملة": 6878,
      "يطرد": 6879,
      "دائرة": 6880,
      "مئ": 6881,
      "ديك": 6882,
      "يزعم": 6883,
      "خليفة": 6884,
      "ثمة": 6885,
      "عيا": 6886,
      "لاحظة": 6887,
      "رائيل": 6888,
      "ووضع": 6889,
      "عشرون": 6890,
      "فام": 6891,
      "فتن": 6892,
      "ذور": 6893,
      "وزيدا": 6894,
      "تصار": 6895,
      "اللفظة": 6896,
      "ظري": 6897,
      "غت": 6898,
      "والفر": 6899,
      "طيبة": 6900,
      "بيانه": 6901,
      "فجر": 6902,
      "الحساب": 6903,
      "للاول": 6904,
      "الانثي": 6905,
      "يعلمون": 6906,
      "الزوائد": 6907,
      "الصوتية": 6908,
      "والحركة": 6909,
      "انكار": 6910,
      "الخيال": 6911,
      "دو": 6912,
      "اتت": 6913,
      "القيد": 6914,
      "والحذف": 6915,
      "الاولين": 6916,
      "سقطت": 6917,
      "موخ": 6918,
      "درة": 6919,
      "اللئ": 6920,
      "اورده": 6921,
      "اخراج": 6922,
      "وسطه": 6923,
      "والسي": 6924,
      "اباه": 6925,
      "وجز": 6926,
      "اكد": 6927,
      "خلفه": 6928,
      "مجراه": 6929,
      "الجح": 6930,
      "ووقع": 6931,
      "زمة": 6932,
      "تسمية": 6933,
      "شبهت": 6934,
      "استر": 6935,
      "قرير": 6936,
      "المخرج": 6937,
      "بيعية": 6938,
      "اقتصر": 6939,
      "بعيدة": 6940,
      "بالخبر": 6941,
      "صناعة": 6942,
      "الاجن": 6943,
      "الجو": 6944,
      "زائدا": 6945,
      "صيد": 6946,
      "رضا": 6947,
      "الجوع": 6948,
      "بتشديد": 6949,
      "اعتمد": 6950,
      "يناه": 6951,
      "مظ": 6952,
      "ميا": 6953,
      "الحن": 6954,
      "فني": 6955,
      "الكعبة": 6956,
      "٩٥": 6957,
      "الثريا": 6958,
      "المطلوب": 6959,
      "بكونه": 6960,
      "المنية": 6961,
      "سكت": 6962,
      "تحتها": 6963,
      "يحد": 6964,
      "المتقد": 6965,
      "المشر": 6966,
      "نارا": 6967,
      "قائلا": 6968,
      "تزوج": 6969,
      "يختار": 6970,
      "غدوة": 6971,
      "ولعله": 6972,
      "قائله": 6973,
      "وبن": 6974,
      "المخل": 6975,
      "الجانب": 6976,
      "الروي": 6977,
      "الحرفين": 6978,
      "والكسرة": 6979,
      "الجموع": 6980,
      "متحركة": 6981,
      "فترك": 6982,
      "جامعة": 6983,
      "مصطفي": 6984,
      "دول": 6985,
      "السياسة": 6986,
      "مجردا": 6987,
      "واصبح": 6988,
      "المطلب": 6989,
      "النيل": 6990,
      "نعرف": 6991,
      "توس": 6992,
      "الاستغناء": 6993,
      "تبلغ": 6994,
      "وصاح": 6995,
      "حكيم": 6996,
      "والها": 6997,
      "جمعوا": 6998,
      "تاثير": 6999,
      "صلته": 7000,
      "جند": 7001,
      "خفت": 7002,
      "طيف": 7003,
      "بقر": 7004,
      "تهاء": 7005,
      "عقب": 7006,
      "للام": 7007,
      "المفهوم": 7008,
      "يتعرض": 7009,
      "لديه": 7010,
      "حلقة": 7011,
      "حسنه": 7012,
      "وجميع": 7013,
      "الزرع": 7014,
      "زائر": 7015,
      "نواحي": 7016,
      "سبه": 7017,
      "شاع": 7018,
      "راته": 7019,
      "عقلي": 7020,
      "؟)": 7021,
      "عجبا": 7022,
      "الانفصال": 7023,
      "بابة": 7024,
      "الترخيم": 7025,
      "تزيد": 7026,
      "تفسيره": 7027,
      "ومحمد": 7028,
      "يخاطب": 7029,
      "التقسيم": 7030,
      "والاعت": 7031,
      "عنقه": 7032,
      "وليها": 7033,
      "وصد": 7034,
      "اقسم": 7035,
      "الرمح": 7036,
      "وكن": 7037,
      "المنون": 7038,
      "واضحة": 7039,
      "الكهف": 7040,
      "وابع": 7041,
      "حذر": 7042,
      "رجعت": 7043,
      "الين": 7044,
      "وحرك": 7045,
      "اوه": 7046,
      "وفية": 7047,
      "توجيه": 7048,
      "ذبح": 7049,
      "يركب": 7050,
      "فاز": 7051,
      "جماع": 7052,
      "السفينة": 7053,
      "دقيق": 7054,
      "يبس": 7055,
      "وصفة": 7056,
      "(:": 7057,
      "دمي": 7058,
      "منهن": 7059,
      "مائل": 7060,
      "غداة": 7061,
      "اشتق": 7062,
      "٩٢": 7063,
      "الدوا": 7064,
      "باغ": 7065,
      "الاسكن": 7066,
      "الطرفين": 7067,
      "مقدرا": 7068,
      "ثقة": 7069,
      "وذن": 7070,
      "مفي": 7071,
      "ايتها": 7072,
      "واخري": 7073,
      "جمهور": 7074,
      "المانع": 7075,
      "يجاب": 7076,
      "اراء": 7077,
      "-،": 7078,
      "وافعل": 7079,
      "غيري": 7080,
      "العادة": 7081,
      "يقتضيه": 7082,
      "مرج": 7083,
      "ليث": 7084,
      "باطن": 7085,
      "مشبهة": 7086,
      "وابت": 7087,
      "رجلان": 7088,
      "ضبة": 7089,
      "كالح": 7090,
      "ائز": 7091,
      "عيان": 7092,
      "صنعت": 7093,
      "تماما": 7094,
      "بانا": 7095,
      "الجديدة": 7096,
      "معموله": 7097,
      "ارايت": 7098,
      "بالضمير": 7099,
      "وجعلت": 7100,
      "٩٧": 7101,
      "الفلك": 7102,
      "بوزن": 7103,
      "ذرة": 7104,
      "الوان": 7105,
      "فيكم": 7106,
      "باو": 7107,
      "ريت": 7108,
      "مضمرا": 7109,
      "الخصائص": 7110,
      "فالا": 7111,
      "منح": 7112,
      "الكبر": 7113,
      "فيلزم": 7114,
      "للف": 7115,
      "فالذي": 7116,
      "بتاء": 7117,
      "جوابه": 7118,
      "مقطوع": 7119,
      "حديثا": 7120,
      "الايجاب": 7121,
      "غلامه": 7122,
      "تمثل": 7123,
      "بطريق": 7124,
      "رتب": 7125,
      "العقلي": 7126,
      "متعلقة": 7127,
      "والتق": 7128,
      "اعاد": 7129,
      "فانهما": 7130,
      "رائب": 7131,
      "المهدي": 7132,
      "بالسيف": 7133,
      "نوعان": 7134,
      "العظام": 7135,
      "رحل": 7136,
      "صفر": 7137,
      "والليل": 7138,
      "باضافة": 7139,
      "الرجلين": 7140,
      "جدد": 7141,
      "بلام": 7142,
      "جدي": 7143,
      "الحين": 7144,
      "محالة": 7145,
      "وصاف": 7146,
      "فقام": 7147,
      "التالية": 7148,
      "فاخر": 7149,
      "ايمان": 7150,
      "تاخير": 7151,
      "فردا": 7152,
      "اجي": 7153,
      "ومثاله": 7154,
      "بالسكون": 7155,
      "٩١": 7156,
      "لعله": 7157,
      "عزة": 7158,
      "كرير": 7159,
      "يصب": 7160,
      "بئر": 7161,
      "٩٤": 7162,
      "٩٨": 7163,
      "وزيادة": 7164,
      "غاء": 7165,
      "عبده": 7166,
      "حوي": 7167,
      "واربع": 7168,
      "وظاهر": 7169,
      "وكثرة": 7170,
      "خالدا": 7171,
      "يخشي": 7172,
      "سيدي": 7173,
      "وبع": 7174,
      "عده": 7175,
      "معطوفا": 7176,
      "بدت": 7177,
      "سماه": 7178,
      "المهل": 7179,
      "فتنة": 7180,
      "طعن": 7181,
      "ظار": 7182,
      "يملك": 7183,
      "رائن": 7184,
      "نتين": 7185,
      "الرف": 7186,
      "التبع": 7187,
      "فيهن": 7188,
      "دحرج": 7189,
      "يجعله": 7190,
      "ايديهم": 7191,
      "كالذي": 7192,
      "وقص": 7193,
      "سكنت": 7194,
      "٩٣": 7195,
      "وائب": 7196,
      "الشجاع": 7197,
      "ورود": 7198,
      "عاملة": 7199,
      "راوا": 7200,
      "المنكر": 7201,
      "عبادة": 7202,
      "اسقاط": 7203,
      "امرهم": 7204,
      "فلهذا": 7205,
      "وامع": 7206,
      "نوعا": 7207,
      "شفاء": 7208,
      "الائمة": 7209,
      "يعين": 7210,
      "نجم": 7211,
      "قالها": 7212,
      "فينبغي": 7213,
      "خه": 7214,
      "ائنا": 7215,
      "حمير": 7216,
      "فالمعني": 7217,
      "اشتمل": 7218,
      "الاجل": 7219,
      "والحديث": 7220,
      "المفعولين": 7221,
      "كالع": 7222,
      "وبينه": 7223,
      "النهاية": 7224,
      "قوط": 7225,
      "فصلت": 7226,
      "السلامة": 7227,
      "اضمر": 7228,
      "ذيل": 7229,
      "المنسوب": 7230,
      "وشد": 7231,
      "اعز": 7232,
      "اهة": 7233,
      "الثري": 7234,
      "تصنع": 7235,
      "وعطف": 7236,
      "موني": 7237,
      "الكب": 7238,
      "قياسه": 7239,
      "لكونها": 7240,
      "قوس": 7241,
      "يميل": 7242,
      "اجمل": 7243,
      "المقدم": 7244,
      "الانكار": 7245,
      "الضعف": 7246,
      "يعرفه": 7247,
      "مبلغ": 7248,
      "وافت": 7249,
      "احتاج": 7250,
      "ائح": 7251,
      "يعج": 7252,
      "ضوا": 7253,
      "والمكان": 7254,
      "النسخة": 7255,
      "١٠٠": 7256,
      "الكواكب": 7257,
      "وجا": 7258,
      "انتصب": 7259,
      "فليست": 7260,
      "رفت": 7261,
      "شرطا": 7262,
      "التاخير": 7263,
      "الرياض": 7264,
      "ولف": 7265,
      "يرك": 7266,
      "بادئ": 7267,
      "معدي": 7268,
      "اخطا": 7269,
      "وفتحها": 7270,
      "العاطفة": 7271,
      "بكرا": 7272,
      "صاء": 7273,
      "سنن": 7274,
      "تقرر": 7275,
      "سمة": 7276,
      "تسقط": 7277,
      "السموات": 7278,
      "مناف": 7279,
      "تتعلق": 7280,
      "كنية": 7281,
      "يستحق": 7282,
      "والتج": 7283,
      "البكاء": 7284,
      "الجزيرة": 7285,
      "ثقيل": 7286,
      "الغليظ": 7287,
      "عرضت": 7288,
      "ثالثا": 7289,
      "عنترة": 7290,
      "ومش": 7291,
      "ذع": 7292,
      "قصيد": 7293,
      "نقيض": 7294,
      "اعناق": 7295,
      "ترب": 7296,
      "الذا": 7297,
      "اعن": 7298,
      "والتس": 7299,
      "قيما": 7300,
      "يقرب": 7301,
      "جعلنا": 7302,
      "للعلم": 7303,
      "جوازه": 7304,
      "فتع": 7305,
      "المبدل": 7306,
      "ورواه": 7307,
      "نوين": 7308,
      "وكثر": 7309,
      "المدة": 7310,
      "السج": 7311,
      "وبمعني": 7312,
      "المحكم": 7313,
      "فدع": 7314,
      "واحترز": 7315,
      "واعط": 7316,
      "جاجة": 7317,
      "لاجتماع": 7318,
      "حفص": 7319,
      "تاس": 7320,
      "دينه": 7321,
      "استشهد": 7322,
      "الوقاية": 7323,
      "الشاذ": 7324,
      "الخار": 7325,
      "الرماح": 7326,
      "مخاط": 7327,
      "ضن": 7328,
      "لكنها": 7329,
      "المك": 7330,
      "زاب": 7331,
      "حدر": 7332,
      "استدل": 7333,
      "غول": 7334,
      "سكري": 7335,
      "الابت": 7336,
      "العباد": 7337,
      "الشيباني": 7338,
      "الشرب": 7339,
      "فاعرفه": 7340,
      "وتقدير": 7341,
      "الشكر": 7342,
      "الطبع": 7343,
      "رزق": 7344,
      "يشد": 7345,
      "منتهي": 7346,
      "الحظ": 7347,
      "مستفعلن": 7348,
      "الاشتغال": 7349,
      "جوار": 7350,
      "بالجملة": 7351,
      "ارن": 7352,
      "احتمل": 7353,
      "محب": 7354,
      "بتلك": 7355,
      "شعار": 7356,
      "ويذكر": 7357,
      "تراط": 7358,
      "ينها": 7359,
      "ضخم": 7360,
      "القوافي": 7361,
      "الاناث": 7362,
      "بف": 7363,
      "قرئ": 7364,
      "سائل": 7365,
      "لاهل": 7366,
      "ابوا": 7367,
      "كنه": 7368,
      "مقصود": 7369,
      "الشطر": 7370,
      "انشدني": 7371,
      "شون": 7372,
      "الاسنان": 7373,
      "اثرا": 7374,
      "اضعف": 7375,
      "واجيب": 7376,
      "بالشعر": 7377,
      "معة": 7378,
      "الجاهلي": 7379,
      "الانجليزية": 7380,
      "معشر": 7381,
      "يتبين": 7382,
      "حدة": 7383,
      "اولة": 7384,
      "واسعة": 7385,
      "المخاطبين": 7386,
      "الموصولة": 7387,
      "شغل": 7388,
      "وبيان": 7389,
      "السلم": 7390,
      "ثورة": 7391,
      "ونظير": 7392,
      "فاصبح": 7393,
      "لحي": 7394,
      "يوهم": 7395,
      "المشرق": 7396,
      "التزم": 7397,
      "الاشتراك": 7398,
      "بخل": 7399,
      "مجال": 7400,
      "مدل": 7401,
      "اهدي": 7402,
      "الغراب": 7403,
      "بسة": 7404,
      "ملكا": 7405,
      "البدن": 7406,
      "الداخلة": 7407,
      "سور": 7408,
      "اعتد": 7409,
      "داك": 7410,
      "فدخل": 7411,
      "جاع": 7412,
      "مبر": 7413,
      "فمثال": 7414,
      "زعموا": 7415,
      "اللغويين": 7416,
      "امتد": 7417,
      "اصلي": 7418,
      "الشديدة": 7419,
      "المتقدمة": 7420,
      "\"؟": 7421,
      "شات": 7422,
      "اعادة": 7423,
      "للز": 7424,
      "الحميد": 7425,
      "البش": 7426,
      "فصول": 7427,
      "للمبالغة": 7428,
      "اعتراض": 7429,
      "المشركين": 7430,
      "ارضة": 7431,
      "لاجله": 7432,
      "الملح": 7433,
      "والتنوين": 7434,
      "متهم": 7435,
      "احدث": 7436,
      "جج": 7437,
      "شفي": 7438,
      "مناسبة": 7439,
      "سلب": 7440,
      "نتان": 7441,
      "الموسي": 7442,
      "السامية": 7443,
      "دلالته": 7444,
      "عمره": 7445,
      "الافت": 7446,
      "الثور": 7447,
      "دولة": 7448,
      "معربا": 7449,
      "اصي": 7450,
      "القبر": 7451,
      "وبان": 7452,
      "مرتبة": 7453,
      "موكدة": 7454,
      "فاطمة": 7455,
      "المني": 7456,
      "معج": 7457,
      "اعجبني": 7458,
      "بالنظر": 7459,
      "العمي": 7460,
      "وينبغي": 7461,
      "وجري": 7462,
      "الصحابة": 7463,
      "سني": 7464,
      "الكمال": 7465,
      "قصده": 7466,
      "الوسط": 7467,
      "العرق": 7468,
      "بالاست": 7469,
      "منون": 7470,
      "والضم": 7471,
      "لائم": 7472,
      "واجر": 7473,
      "همه": 7474,
      "بكلمة": 7475,
      "مقابلة": 7476,
      "شل": 7477,
      "الوهم": 7478,
      "الاعتبار": 7479,
      "بالعين": 7480,
      "لعب": 7481,
      "ركبت": 7482,
      "الابنية": 7483,
      "قالي": 7484,
      "جاري": 7485,
      "تولي": 7486,
      "والاستفهام": 7487,
      "ذق": 7488,
      "الياس": 7489,
      "اسرائيل": 7490,
      "حدا": 7491,
      "يتحدث": 7492,
      "الكفر": 7493,
      "فواد": 7494,
      "وكب": 7495,
      "ودية": 7496,
      "الاحسان": 7497,
      "دبر": 7498,
      "واقي": 7499,
      "ابعة": 7500,
      "عرفنا": 7501,
      "التج": 7502,
      "معلقة": 7503,
      "يقلب": 7504,
      "اليق": 7505,
      "عيين": 7506,
      "التمني": 7507,
      "البلدان": 7508,
      "الحاكم": 7509,
      "متم": 7510,
      "المنقوص": 7511,
      "والقر": 7512,
      "بطة": 7513,
      "يخلق": 7514,
      "اخط": 7515,
      "لقوم": 7516,
      "ميلا": 7517,
      "الانصار": 7518,
      "ردة": 7519,
      "فوه": 7520,
      "وسمعت": 7521,
      "ضربن": 7522,
      "خاصا": 7523,
      "ريات": 7524,
      "لاقي": 7525,
      "اعرض": 7526,
      "ابيك": 7527,
      "هلم": 7528,
      "الدماميني": 7529,
      "اضيفت": 7530,
      "وفض": 7531,
      "استعملت": 7532,
      "والتاخير": 7533,
      "ساكنان": 7534,
      "ابدل": 7535,
      "المحدثين": 7536,
      "الغيبة": 7537,
      "اوان": 7538,
      "والادب": 7539,
      "تركي": 7540,
      "وابل": 7541,
      "كز": 7542,
      "استخ": 7543,
      "والقمر": 7544,
      "تبر": 7545,
      "اصلاح": 7546,
      "والتر": 7547,
      "امرها": 7548,
      "خطبة": 7549,
      "بمصدر": 7550,
      "تكرر": 7551,
      "استحق": 7552,
      "خرف": 7553,
      "يتضمن": 7554,
      "بالامر": 7555,
      "شوك": 7556,
      "سيس": 7557,
      "طلبا": 7558,
      "مفتوحا": 7559,
      "ابته": 7560,
      "كتة": 7561,
      "بكاء": 7562,
      "فزع": 7563,
      "ائهم": 7564,
      "لوي": 7565,
      "ينتهي": 7566,
      "ادها": 7567,
      "قبائل": 7568,
      "يلتبس": 7569,
      "ضربة": 7570,
      "يغلب": 7571,
      "هادة": 7572,
      "اوع": 7573,
      "الكلي": 7574,
      "تختص": 7575,
      "ايهما": 7576,
      "تنة": 7577,
      "الابط": 7578,
      "السبعة": 7579,
      "علقمة": 7580,
      "عوامل": 7581,
      "المفردة": 7582,
      "بهمزة": 7583,
      "بجملة": 7584,
      "اخلاق": 7585,
      "للحال": 7586,
      "بشار": 7587,
      "الشوق": 7588,
      "اهلا": 7589,
      "وصفت": 7590,
      "عشية": 7591,
      "تاخ": 7592,
      "وتج": 7593,
      "وعشرون": 7594,
      "فوقها": 7595,
      "اكون": 7596,
      "طوال": 7597,
      "اولهما": 7598,
      "حصن": 7599,
      "واجه": 7600,
      "الموفق": 7601,
      "السوق": 7602,
      "تعيين": 7603,
      "قفا": 7604,
      "هذيل": 7605,
      "لتن": 7606,
      "يدك": 7607,
      "انث": 7608,
      "وقدم": 7609,
      "استوي": 7610,
      "نصه": 7611,
      "الاثار": 7612,
      "ابس": 7613,
      "نظرة": 7614,
      "يقوي": 7615,
      "جارا": 7616,
      "دنيا": 7617,
      "النخلة": 7618,
      "معنوي": 7619,
      "تكل": 7620,
      "طلقت": 7621,
      "القنا": 7622,
      "والدين": 7623,
      "فمنهم": 7624,
      "وجواب": 7625,
      "اعه": 7626,
      "تضع": 7627,
      "خليل": 7628,
      "لعمري": 7629,
      "المخففة": 7630,
      "موم": 7631,
      "دعوة": 7632,
      "ثعلبة": 7633,
      "الكم": 7634,
      "فاقا": 7635,
      "بدء": 7636,
      "بلدة": 7637,
      "اللذان": 7638,
      "الرحل": 7639,
      "الاقل": 7640,
      "كساء": 7641,
      "بالجر": 7642,
      "لتق": 7643,
      "الفها": 7644,
      "انيه": 7645,
      "الدراسة": 7646,
      "واسماء": 7647,
      "الهيثم": 7648,
      "يمثل": 7649,
      "نزول": 7650,
      "ئهم": 7651,
      "فرنسا": 7652,
      "وانكر": 7653,
      "حافظ": 7654,
      "التزام": 7655,
      "النبت": 7656,
      "السمن": 7657,
      "التاج": 7658,
      "الرئيس": 7659,
      "عناصر": 7660,
      "الفتاة": 7661,
      "وذات": 7662,
      "الجسد": 7663,
      "بقولهم": 7664,
      "الكي": 7665,
      "اقرا": 7666,
      "وكونه": 7667,
      "ثقي": 7668,
      "معاذ": 7669,
      "اكرمت": 7670,
      "فهلا": 7671,
      "واستدل": 7672,
      "فقولك": 7673,
      "لتين": 7674,
      "وخط": 7675,
      "الفصحي": 7676,
      "ايوب": 7677,
      "باشا": 7678,
      "دك": 7679,
      "حاشا": 7680,
      "وحك": 7681,
      "بنفسها": 7682,
      "فقت": 7683,
      "لوك": 7684,
      "والزم": 7685,
      "ترع": 7686,
      "اقدم": 7687,
      "اشتهر": 7688,
      "سبقت": 7689,
      "وتاء": 7690,
      "الجاهل": 7691,
      "اغل": 7692,
      "زجر": 7693,
      "اهدة": 7694,
      "حرام": 7695,
      "وبيت": 7696,
      "استي": 7697,
      "اهـ": 7698,
      "ران": 7699,
      "ينقسم": 7700,
      "بالاش": 7701,
      "التعليم": 7702,
      "ولق": 7703,
      "العصور": 7704,
      "وساء": 7705,
      "اكرمك": 7706,
      "ياقوت": 7707,
      "والعائد": 7708,
      "كليب": 7709,
      "يهدي": 7710,
      "معرض": 7711,
      "صني": 7712,
      "وباب": 7713,
      "قاعد": 7714,
      "نته": 7715,
      "لعمرك": 7716,
      "وتقديره": 7717,
      "ضمين": 7718,
      "فصاعدا": 7719,
      "ثال": 7720,
      "قديما": 7721,
      "اسمان": 7722,
      "فلعل": 7723,
      "الشعرية": 7724,
      "اعطاه": 7725,
      "واحي": 7726,
      "المتمكن": 7727,
      "فكار": 7728,
      "نال": 7729,
      "الاغاني": 7730,
      "ئلة": 7731,
      "رمح": 7732,
      "موقف": 7733,
      "والمضارع": 7734,
      "والاولي": 7735,
      "الاسمين": 7736,
      "وقتل": 7737,
      "النحاس": 7738,
      "سوداء": 7739,
      "رياض": 7740,
      "ودل": 7741,
      "بمكة": 7742,
      "مكانها": 7743,
      "بكثرة": 7744,
      "تكت": 7745,
      "صخر": 7746,
      "يار": 7747,
      "الكلا": 7748,
      "حجارة": 7749,
      "مضموم": 7750,
      "ارفع": 7751,
      "طابق": 7752,
      "الدواب": 7753,
      "التكرار": 7754,
      "حلف": 7755,
      "الشجري": 7756,
      "ثمانين": 7757,
      "وظيفة": 7758,
      "الخبز": 7759,
      "اعتبر": 7760,
      "يبدا": 7761,
      "تنت": 7762,
      "فتحها": 7763,
      "رائر": 7764,
      "لاول": 7765,
      "ومت": 7766,
      "المعري": 7767,
      "لفي": 7768,
      "باعد": 7769,
      "ويعت": 7770,
      "ريان": 7771,
      "الخامسة": 7772,
      "بديع": 7773,
      "اجه": 7774,
      "والاكثر": 7775,
      "السرور": 7776,
      "بلغني": 7777,
      "عناه": 7778,
      "نشا": 7779,
      "لقاء": 7780,
      "علو": 7781,
      "قدمنا": 7782,
      "فلولا": 7783,
      "وقها": 7784,
      "ختلاف": 7785,
      "المبد": 7786,
      "صدقت": 7787,
      "يستلزم": 7788,
      "انقطع": 7789,
      "زون": 7790,
      "ومعناها": 7791,
      "زنة": 7792,
      "كلت": 7793,
      "درية": 7794,
      "الدرس": 7795,
      "وضوء": 7796,
      "المدي": 7797,
      "اوجب": 7798,
      "خطوط": 7799,
      "يلية": 7800,
      "يربوع": 7801,
      "احتي": 7802,
      "الالوان": 7803,
      "الرجوع": 7804,
      "كلمتين": 7805,
      "ناح": 7806,
      "مجزوء": 7807,
      "لغوي": 7808,
      "عطفا": 7809,
      "الحلي": 7810,
      "الفكرة": 7811,
      "السح": 7812,
      "للانسان": 7813,
      "والده": 7814,
      "ورقة": 7815,
      "الشكل": 7816,
      "الجه": 7817,
      "للمعني": 7818,
      "مدخل": 7819,
      "بهة": 7820,
      "باتفاق": 7821,
      "بصورة": 7822,
      "شريك": 7823,
      "الفساد": 7824,
      "اتاه": 7825,
      "ونصبه": 7826,
      "ويدخل": 7827,
      "قسمان": 7828,
      "تغل": 7829,
      "يها": 7830,
      "يود": 7831,
      "واقول": 7832,
      "والكتاب": 7833,
      "والمراة": 7834,
      "تحركت": 7835,
      "الطبيب": 7836,
      "الصغيرة": 7837,
      "فتاة": 7838,
      "يراه": 7839,
      "نظيره": 7840,
      "شين": 7841,
      "ووي": 7842,
      "اسكن": 7843,
      "وغل": 7844,
      "العشر": 7845,
      "يصلي": 7846,
      "كراع": 7847,
      "الابصار": 7848,
      "ونظيره": 7849,
      "تغني": 7850,
      "كبد": 7851,
      "ميلة": 7852,
      "كبار": 7853,
      "الوش": 7854,
      "واللغة": 7855,
      "اغر": 7856,
      "دمه": 7857,
      "المحم": 7858,
      "الدراهم": 7859,
      "جبت": 7860,
      "لوجب": 7861,
      "اطيب": 7862,
      "رائحة": 7863,
      "وكثيرا": 7864,
      "عصره": 7865,
      "وضربت": 7866,
      "المشترك": 7867,
      "اختلفوا": 7868,
      "الطويلة": 7869,
      "ذالك": 7870,
      "ولئن": 7871,
      "وفه": 7872,
      "الطين": 7873,
      "الوحدة": 7874,
      "والعمل": 7875,
      "امك": 7876,
      "اشية": 7877,
      "سبقه": 7878,
      "ظهرا": 7879,
      "بسيط": 7880,
      "سبت": 7881,
      "اسدا": 7882,
      "الغيب": 7883,
      "نسبه": 7884,
      "وخير": 7885,
      "تملا": 7886,
      "لوها": 7887,
      "تعلمون": 7888,
      "تالي": 7889,
      "باللغة": 7890,
      "الوجد": 7891,
      "تودي": 7892,
      "جموعة": 7893,
      "بالحاء": 7894,
      "المخاطبة": 7895,
      "سببية": 7896,
      "والبيان": 7897,
      "الدقيق": 7898,
      "والاخفش": 7899,
      "غية": 7900,
      "ولانه": 7901,
      "ناز": 7902,
      "جلب": 7903,
      "الزه": 7904,
      "رجس": 7905,
      "واقعا": 7906,
      "يقتصر": 7907,
      "تطلب": 7908,
      "يبعث": 7909,
      "الجملتين": 7910,
      "ئناف": 7911,
      "السعادة": 7912,
      "افري": 7913,
      "وينصب": 7914,
      "فيعل": 7915,
      "خفف": 7916,
      "الالي": 7917,
      "بذل": 7918,
      "الاجناس": 7919,
      "الرحمة": 7920,
      "بالمضاف": 7921,
      "نيل": 7922,
      "يشتمل": 7923,
      "عذب": 7924,
      "اجراء": 7925,
      "تنبت": 7926,
      "لوة": 7927,
      "نسبت": 7928,
      "مركبا": 7929,
      "العقول": 7930,
      "الاحاديث": 7931,
      "ادلة": 7932,
      "الرزق": 7933,
      "حاشية": 7934,
      "بست": 7935,
      "طلوع": 7936,
      "انح": 7937,
      "بياني": 7938,
      "جواد": 7939,
      "للشيء": 7940,
      "القدماء": 7941,
      "عنق": 7942,
      "وبية": 7943,
      "وعظ": 7944,
      "كبوت": 7945,
      "قون": 7946,
      "يهد": 7947,
      "الاذ": 7948,
      "عنكم": 7949,
      "اياي": 7950,
      "غراب": 7951,
      "تابعة": 7952,
      "سابقا": 7953,
      "بالمن": 7954,
      "لحاق": 7955,
      "ووصف": 7956,
      "المتكلمين": 7957,
      "مسح": 7958,
      "حدوث": 7959,
      "وليلة": 7960,
      "ضاب": 7961,
      "ولله": 7962,
      "ثلاثا": 7963,
      "حولها": 7964,
      "!.": 7965,
      "بماء": 7966,
      "جزي": 7967,
      "ومص": 7968,
      "غلاما": 7969,
      "النصف": 7970,
      "صبرا": 7971,
      "اضع": 7972,
      "ئته": 7973,
      "تال": 7974,
      "وعاء": 7975,
      "انطلق": 7976,
      "العطاء": 7977,
      "الجي": 7978,
      "سلاح": 7979,
      "بالحروف": 7980,
      "ابك": 7981,
      "وحديث": 7982,
      "خام": 7983,
      "يسعي": 7984,
      "المعنيين": 7985,
      "العباب": 7986,
      "فتامل": 7987,
      "مسندا": 7988,
      "والشع": 7989,
      "وقسم": 7990,
      "الروض": 7991,
      "يزان": 7992,
      "وضر": 7993,
      "وزير": 7994,
      "ظبي": 7995,
      "غائب": 7996,
      "واقبل": 7997,
      "انتقل": 7998,
      "ثبتت": 7999,
      "بطه": 8000,
      "التجار": 8001,
      "ائج": 8002,
      "تسال": 8003,
      "الناظر": 8004,
      "يستقيم": 8005,
      "الصحف": 8006,
      "غما": 8007,
      "الجماع": 8008,
      "تتصل": 8009,
      "خمر": 8010,
      "متصلة": 8011,
      "الهد": 8012,
      "جديدا": 8013,
      "كسري": 8014,
      "والشمس": 8015,
      "وقلة": 8016,
      "ريه": 8017,
      "الصريح": 8018,
      "اخبرت": 8019,
      "القدرة": 8020,
      "ضيع": 8021,
      "لذة": 8022,
      "ائله": 8023,
      "لواحد": 8024,
      "لهب": 8025,
      "منصرف": 8026,
      "تحديد": 8027,
      "حسبك": 8028,
      "صدع": 8029,
      "اللاتين": 8030,
      "رقة": 8031,
      "ادت": 8032,
      "وبابه": 8033,
      "الشرع": 8034,
      "طبقات": 8035,
      "عمار": 8036,
      "مدرسة": 8037,
      "حتما": 8038,
      "الزيدون": 8039,
      "ئتين": 8040,
      "اوهم": 8041,
      "اخضر": 8042,
      "العلا": 8043,
      "واساس": 8044,
      "موافق": 8045,
      "طناب": 8046,
      "طاف": 8047,
      "تخي": 8048,
      "حلم": 8049,
      "التقدم": 8050,
      "وكي": 8051,
      "مثلي": 8052,
      "تقري": 8053,
      "المنايا": 8054,
      "علمي": 8055,
      "ارضا": 8056,
      "نايا": 8057,
      "ربوا": 8058,
      "فعلم": 8059,
      "بالرجل": 8060,
      "ياس": 8061,
      "جوم": 8062,
      "تلزم": 8063,
      "باختلاف": 8064,
      "شيم": 8065,
      "ماك": 8066,
      "الجنوب": 8067,
      "بشرا": 8068,
      "العقلية": 8069,
      "النكاح": 8070,
      "الصحيحة": 8071,
      "هاج": 8072,
      "ونفس": 8073,
      "يحس": 8074,
      "ابصر": 8075,
      "يرات": 8076,
      "بالزيادة": 8077,
      "نانير": 8078,
      "الموحدة": 8079,
      "وجوابه": 8080,
      "انشاء": 8081,
      "احم": 8082,
      "قفي": 8083,
      "تحاد": 8084,
      "فاوه": 8085,
      "والحمد": 8086,
      "ثلث": 8087,
      "عذر": 8088,
      "المرس": 8089,
      "الاسراء": 8090,
      "العقاب": 8091,
      "مثالا": 8092,
      "خطر": 8093,
      "اسرار": 8094,
      "النصوص": 8095,
      "بعلم": 8096,
      "انتق": 8097,
      "المريض": 8098,
      "رامة": 8099,
      "تلط": 8100,
      "وامل": 8101,
      "والماء": 8102,
      "اباك": 8103,
      "احدكم": 8104,
      "تعليل": 8105,
      "الخلفاء": 8106,
      "قسما": 8107,
      "مهر": 8108,
      "اخواتها": 8109,
      "المومنون": 8110,
      "برب": 8111,
      "النمل": 8112,
      "الاسي": 8113,
      "لقولهم": 8114,
      "السمك": 8115,
      "الفعلين": 8116,
      "الدلو": 8117,
      "العناية": 8118,
      "موه": 8119,
      "بارض": 8120,
      "العلاقة": 8121,
      "مواقع": 8122,
      "اقتضي": 8123,
      "وذكره": 8124,
      "تساع": 8125,
      "اختصارا": 8126,
      "اتاك": 8127,
      "الربع": 8128,
      "الجيد": 8129,
      "النظير": 8130,
      "الركب": 8131,
      "المعلوم": 8132,
      "السكر": 8133,
      "مخافة": 8134,
      "بلاء": 8135,
      "نتيجة": 8136,
      "قصور": 8137,
      "الفقير": 8138,
      "خدمة": 8139,
      "الالغاء": 8140,
      "السهل": 8141,
      "لوم": 8142,
      "ومرة": 8143,
      "اوسع": 8144,
      "اذر": 8145,
      "ارتفاع": 8146,
      "مناز": 8147,
      "الحقائق": 8148,
      "نعيم": 8149,
      "توصل": 8150,
      "الدور": 8151,
      "مفا": 8152,
      "اللزوم": 8153,
      "خواص": 8154,
      "فجمع": 8155,
      "حبس": 8156,
      "انسانا": 8157,
      "رائد": 8158,
      "بطون": 8159,
      "الشق": 8160,
      "ودر": 8161,
      "التبري": 8162,
      "لعمرو": 8163,
      "تتم": 8164,
      "ملء": 8165,
      "طبعة": 8166,
      "فنحن": 8167,
      "تترك": 8168,
      "غيبة": 8169,
      "فاراد": 8170,
      "الكلبي": 8171,
      "تفضيل": 8172,
      "علمنا": 8173,
      "اجرا": 8174,
      "وجهة": 8175,
      "كقولنا": 8176,
      "خوفا": 8177,
      "كسب": 8178,
      "احياء": 8179,
      "وسواء": 8180,
      "اقات": 8181,
      "طفل": 8182,
      "لباس": 8183,
      "اللهجات": 8184,
      "مرجع": 8185,
      "يحاول": 8186,
      "مكانا": 8187,
      "ويبقي": 8188,
      "وكلت": 8189,
      "فغير": 8190,
      "فيض": 8191,
      "مرتفع": 8192,
      "يقوله": 8193,
      "المظهر": 8194,
      "الذل": 8195,
      "زيدون": 8196,
      "اضرة": 8197,
      "حبه": 8198,
      "الطبي": 8199,
      "عدوه": 8200,
      "للمبتدا": 8201,
      "ينتظر": 8202,
      "الحبيب": 8203,
      "كالج": 8204,
      "مير": 8205,
      "بالاس": 8206,
      "جية": 8207,
      "الاراء": 8208,
      "يتهم": 8209,
      "التكلم": 8210,
      "المتقدمين": 8211,
      "وجة": 8212,
      "بانة": 8213,
      "قائه": 8214,
      "والضرب": 8215,
      "ظرفية": 8216,
      "مشار": 8217,
      "المتصلة": 8218,
      "الروايات": 8219,
      "رجوع": 8220,
      "رغبة": 8221,
      "اليدين": 8222,
      "تيبة": 8223,
      "لاد": 8224,
      "لائق": 8225,
      "العشرين": 8226,
      "الرغم": 8227,
      "النائب": 8228,
      "تقدمه": 8229,
      "يتناول": 8230,
      "والمعت": 8231,
      "احتمال": 8232,
      "عرضا": 8233,
      "باشر": 8234,
      "كتابي": 8235,
      "دس": 8236,
      "مذاهب": 8237,
      "الفك": 8238,
      "الخالص": 8239,
      "بحسن": 8240,
      "كفه": 8241,
      "العجب": 8242,
      "الحادي": 8243,
      "فرسه": 8244,
      "الطبعة": 8245,
      "واخره": 8246,
      "الغل": 8247,
      "اتين": 8248,
      "السباع": 8249,
      "الواردة": 8250,
      "تطلق": 8251,
      "عزيز": 8252,
      "ينافي": 8253,
      "لطيف": 8254,
      "لذا": 8255,
      "يدغم": 8256,
      "اصالة": 8257,
      "يحسب": 8258,
      "ظريف": 8259,
      "المضمرة": 8260,
      "مشتقا": 8261,
      "امرك": 8262,
      "والمص": 8263,
      "دعوت": 8264,
      "التميمي": 8265,
      "اطرا": 8266,
      "جامد": 8267,
      "بقولي": 8268,
      "يمن": 8269,
      "اديب": 8270,
      "دارا": 8271,
      "الفرنسي": 8272,
      "لوبين": 8273,
      "ولاه": 8274,
      "حقير": 8275,
      "شوقي": 8276,
      "الديوان": 8277,
      "فاعلاتن": 8278,
      "١٣٠": 8279,
      "البيوت": 8280,
      "ايه": 8281,
      "النه": 8282,
      "للغة": 8283,
      "ركه": 8284,
      "فهمه": 8285,
      "وصحبه": 8286,
      "شاذا": 8287,
      "الشجاعة": 8288,
      "اختلفت": 8289,
      "عداه": 8290,
      "الاعجاز": 8291,
      "رقي": 8292,
      "الافق": 8293,
      "نونا": 8294,
      "صيل": 8295,
      "ومضي": 8296,
      "الموضعين": 8297,
      "وموضع": 8298,
      "جناح": 8299,
      "يلزمه": 8300,
      "والكسائي": 8301,
      "الدل": 8302,
      "اتيك": 8303,
      "مقابل": 8304,
      "وسبب": 8305,
      "خشب": 8306,
      "قاموا": 8307,
      "فكانك": 8308,
      "الاموي": 8309,
      "ابقي": 8310,
      "لوقوعها": 8311,
      "الالحاق": 8312,
      "قلال": 8313,
      "ومنا": 8314,
      "خوا": 8315,
      "متن": 8316,
      "بذا": 8317,
      "وضي": 8318,
      "فضرب": 8319,
      "مبارك": 8320,
      "لنفي": 8321,
      "بالعكس": 8322,
      "المسلمون": 8323,
      "القراءات": 8324,
      "رمت": 8325,
      "ابهم": 8326,
      "فعولن": 8327,
      "الاختصار": 8328,
      "الحكماء": 8329,
      "عيه": 8330,
      "تابعا": 8331,
      "بصيغة": 8332,
      "دقيقة": 8333,
      "اوقع": 8334,
      "بعدم": 8335,
      "حقها": 8336,
      "يغفر": 8337,
      "الاقوال": 8338,
      "ذرت": 8339,
      "القبيلة": 8340,
      "ضربي": 8341,
      "الوقوف": 8342,
      "السببية": 8343,
      "عمن": 8344,
      "فقر": 8345,
      "السه": 8346,
      "تعط": 8347,
      "الدجي": 8348,
      "فالم": 8349,
      "الجرح": 8350,
      "جنسه": 8351,
      "اشرت": 8352,
      "غش": 8353,
      "مكتبة": 8354,
      "ركيب": 8355,
      "يكونان": 8356,
      "طيفة": 8357,
      "وافقه": 8358,
      "رياح": 8359,
      "الفلسفة": 8360,
      "ارتك": 8361,
      "فاقبل": 8362,
      "صلتها": 8363,
      "محتاج": 8364,
      "تقف": 8365,
      "ارباب": 8366,
      "الحز": 8367,
      "السند": 8368,
      "١١٠": 8369,
      "الانتقال": 8370,
      "بالكلام": 8371,
      "بمثله": 8372,
      "منفي": 8373,
      "الموا": 8374,
      "اوزان": 8375,
      "حيز": 8376,
      "ذنوب": 8377,
      "صال": 8378,
      "ثماني": 8379,
      "عددا": 8380,
      "تحد": 8381,
      "الصحة": 8382,
      "فلست": 8383,
      "غور": 8384,
      "ومعه": 8385,
      "التقل": 8386,
      "يصدر": 8387,
      "والمق": 8388,
      "سبيلا": 8389,
      "شاعرا": 8390,
      "وتري": 8391,
      "افرا": 8392,
      "بغض": 8393,
      "طرفه": 8394,
      "حفر": 8395,
      "خوص": 8396,
      "الذباب": 8397,
      "شميل": 8398,
      "وظن": 8399,
      "مناق": 8400,
      "ونع": 8401,
      "لمبتدا": 8402,
      "ذنبه": 8403,
      "يضمر": 8404,
      "وصفها": 8405,
      "صحراء": 8406,
      "الغلط": 8407,
      "افواه": 8408,
      "يلتفت": 8409,
      "ئان": 8410,
      "ذال": 8411,
      "مغل": 8412,
      "نصي": 8413,
      "والخط": 8414,
      "بنائه": 8415,
      "للتوكيد": 8416,
      "خاتم": 8417,
      "يبكي": 8418,
      "وشعر": 8419,
      "الاعداد": 8420,
      "مسجد": 8421,
      "تنطق": 8422,
      "فوجد": 8423,
      "الذه": 8424,
      "وفت": 8425,
      "اعلال": 8426,
      "سرب": 8427,
      "فاخبر": 8428,
      "شائ": 8429,
      "قضية": 8430,
      "ظنه": 8431,
      "لاختلاف": 8432,
      "الممدود": 8433,
      "عفا": 8434,
      "قاسم": 8435,
      "اضط": 8436,
      "عقبة": 8437,
      "وعندي": 8438,
      "المعروفة": 8439,
      "خلقت": 8440,
      "العلل": 8441,
      "وجهي": 8442,
      "واقل": 8443,
      "المبحث": 8444,
      "زمانه": 8445,
      "ظلمة": 8446,
      "ادخال": 8447,
      "متعلقا": 8448,
      "بباب": 8449,
      "فاعة": 8450,
      "جلال": 8451,
      "الصلب": 8452,
      "ريل": 8453,
      "ينقص": 8454,
      "الذوق": 8455,
      "باحة": 8456,
      "ظمة": 8457,
      "محاسن": 8458,
      "والمجاز": 8459,
      "اشا": 8460,
      "مستوي": 8461,
      "المستعمل": 8462,
      "عمد": 8463,
      "غاني": 8464,
      "وكثير": 8465,
      "فخذ": 8466,
      "رابه": 8467,
      "والصلاة": 8468,
      "والقي": 8469,
      "وسل": 8470,
      "شرطية": 8471,
      "موضوعة": 8472,
      "الهجاء": 8473,
      "موث": 8474,
      "هية": 8475,
      "الرعد": 8476,
      "الشريفة": 8477,
      "يدور": 8478,
      "الاحتمال": 8479,
      "يليق": 8480,
      ")؟": 8481,
      "فمعني": 8482,
      "خلع": 8483,
      "حكمة": 8484,
      "الورق": 8485,
      "لانت": 8486,
      "الداء": 8487,
      "تاث": 8488,
      "الحصي": 8489,
      "عاج": 8490,
      "الصحراء": 8491,
      "المفت": 8492,
      "وضعا": 8493,
      "بالمكان": 8494,
      "بالسين": 8495,
      "المجمع": 8496,
      "رغم": 8497,
      "غلامي": 8498,
      "الجهة": 8499,
      "نقض": 8500,
      "وبعدها": 8501,
      "بالهمز": 8502,
      "اربه": 8503,
      "اعجمي": 8504,
      "مستعمل": 8505,
      "خليلي": 8506,
      "زرع": 8507,
      "لتحرك": 8508,
      "ويص": 8509,
      "يدخله": 8510,
      "الشذوذ": 8511,
      "قلبوا": 8512,
      "خور": 8513,
      "التفكير": 8514,
      "البخل": 8515,
      "القانون": 8516,
      "كلتا": 8517,
      "شاك": 8518,
      "يطل": 8519,
      "فاخرج": 8520,
      "وجهك": 8521,
      "حرير": 8522,
      "خين": 8523,
      "واتق": 8524,
      "وبد": 8525,
      "يعم": 8526,
      "بلم": 8527,
      "منكر": 8528,
      "صورته": 8529,
      "الصفحة": 8530,
      "المحب": 8531,
      "جته": 8532,
      "يرثي": 8533,
      "سلس": 8534,
      "التبريزي": 8535,
      "دراهم": 8536,
      "يقصر": 8537,
      "وافقة": 8538,
      "زد": 8539,
      "رسولا": 8540,
      "والاخري": 8541,
      "بتدئ": 8542,
      "تلم": 8543,
      "اتحاد": 8544,
      "قريبة": 8545,
      "الازهر": 8546,
      "تتخذ": 8547,
      "جبال": 8548,
      "فجاز": 8549,
      "المولي": 8550,
      "الرطب": 8551,
      "بكرة": 8552,
      "اعبد": 8553,
      "وقصد": 8554,
      "الروية": 8555,
      "يخط": 8556,
      "العالي": 8557,
      "علمين": 8558,
      "مطلع": 8559,
      "قلما": 8560,
      "حركته": 8561,
      "عزي": 8562,
      "اعتقاد": 8563,
      "ظرة": 8564,
      "فكم": 8565,
      "الموجب": 8566,
      "والمبرد": 8567,
      "تبة": 8568,
      "١١٧": 8569,
      "تخبر": 8570,
      "ظلة": 8571,
      "المحر": 8572,
      "ذهبا": 8573,
      "بدمشق": 8574,
      "تهاد": 8575,
      "استثني": 8576,
      "حالية": 8577,
      "فالاصل": 8578,
      "ويلزم": 8579,
      "المكارم": 8580,
      "تصاص": 8581,
      "جران": 8582,
      "رسوله": 8583,
      "حمرة": 8584,
      "الفنون": 8585,
      "الاحياء": 8586,
      "ظره": 8587,
      "بالمدينة": 8588,
      "غليظ": 8589,
      "ثقال": 8590,
      "المحق": 8591,
      "وقبله": 8592,
      "الظباء": 8593,
      "رص": 8594,
      "فالاسم": 8595,
      "طلبت": 8596,
      "العينين": 8597,
      "مبدلة": 8598,
      "اربعين": 8599,
      "الرحم": 8600,
      "بالاسماء": 8601,
      "حماد": 8602,
      "وكس": 8603,
      "وسب": 8604,
      "للمراة": 8605,
      "فاكثر": 8606,
      "فلانة": 8607,
      "الضوء": 8608,
      "رقيق": 8609,
      "منازل": 8610,
      "الخميس": 8611,
      "الاشعار": 8612,
      "بمد": 8613,
      "مسم": 8614,
      "تحي": 8615,
      "عهده": 8616,
      "غائ": 8617,
      "ووق": 8618,
      "تسكن": 8619,
      "الاقتصار": 8620,
      "تقار": 8621,
      "مقصورة": 8622,
      "الداعي": 8623,
      "الضبع": 8624,
      "والقاف": 8625,
      "ينال": 8626,
      "البة": 8627,
      "مكرم": 8628,
      "المفتاح": 8629,
      "لكة": 8630,
      "صحته": 8631,
      "صبي": 8632,
      "اقا": 8633,
      "الاشكال": 8634,
      "لاوة": 8635,
      "اسهل": 8636,
      "بلوغ": 8637,
      "والجيم": 8638,
      "حقيقته": 8639,
      "التوفيق": 8640,
      "اغراض": 8641,
      "جانبه": 8642,
      "زينب": 8643,
      "سالما": 8644,
      "العوض": 8645,
      "مائم": 8646,
      "بدار": 8647,
      "اكي": 8648,
      "باذن": 8649,
      "وضمها": 8650,
      "اشع": 8651,
      "رابطة": 8652,
      "انتفاء": 8653,
      "رجا": 8654,
      "اتصلت": 8655,
      "طرة": 8656,
      "رفض": 8657,
      "بنحو": 8658,
      "واحدتها": 8659,
      "وشدة": 8660,
      "للمتكلم": 8661,
      "تراها": 8662,
      "تخلو": 8663,
      "قيها": 8664,
      "الصيغ": 8665,
      "تجعله": 8666,
      "جبر": 8667,
      "الاذي": 8668,
      "الرجاء": 8669,
      "الاندلسي": 8670,
      "الخزانة": 8671,
      "والصاد": 8672,
      "زول": 8673,
      "يومنون": 8674,
      "نذكر": 8675,
      "تقم": 8676,
      "١٢٠": 8677,
      "كوكب": 8678,
      "ذهاب": 8679,
      "فحمل": 8680,
      "دوب": 8681,
      "الاجر": 8682,
      "واقف": 8683,
      "موصوفة": 8684,
      "ثاب": 8685,
      "صلت": 8686,
      "الفاعلية": 8687,
      "هيا": 8688,
      "١١٩": 8689,
      "حسبت": 8690,
      "كلمته": 8691,
      "اقد": 8692,
      "حائ": 8693,
      "ضمنه": 8694,
      "اتينا": 8695,
      "السخ": 8696,
      "اخاف": 8697,
      "وزارة": 8698,
      "هرت": 8699,
      "شذو": 8700,
      "كنة": 8701,
      "اللئيم": 8702,
      "شريف": 8703,
      "لفظية": 8704,
      "النعام": 8705,
      "الاستدلال": 8706,
      "اوربا": 8707,
      "الوفاء": 8708,
      "وثب": 8709,
      "زكري": 8710,
      "شباب": 8711,
      "والاض": 8712,
      "اطي": 8713,
      "بالجيم": 8714,
      "قلم": 8715,
      "الاموال": 8716,
      "وسبق": 8717,
      "ئول": 8718,
      "واذن": 8719,
      "شربت": 8720,
      "افرد": 8721,
      "يبر": 8722,
      "ايراد": 8723,
      "عمارة": 8724,
      "شهاب": 8725,
      "ومج": 8726,
      "والطاء": 8727,
      "الندبة": 8728,
      "الجوار": 8729,
      "بدات": 8730,
      "يتفق": 8731,
      "مستثني": 8732,
      "للامر": 8733,
      "هذي": 8734,
      "بيهات": 8735,
      "سنه": 8736,
      "طبقة": 8737,
      "تيا": 8738,
      "انفسكم": 8739,
      "فاين": 8740,
      "البادية": 8741,
      "بالقول": 8742,
      "وخلا": 8743,
      "سعاد": 8744,
      "رته": 8745,
      "بيس": 8746,
      "الناقص": 8747,
      "للمذكر": 8748,
      "يهجو": 8749,
      "عجوز": 8750,
      "العرا": 8751,
      "اخرة": 8752,
      "وكنا": 8753,
      "النسوة": 8754,
      "بتقديم": 8755,
      "الحروب": 8756,
      "قصدت": 8757,
      "بالث": 8758,
      "ربان": 8759,
      "مصي": 8760,
      "الاوزان": 8761,
      "صمت": 8762,
      "وبقيت": 8763,
      "الخماسي": 8764,
      "وزع": 8765,
      "كتف": 8766,
      "للاش": 8767,
      "السجن": 8768,
      "يمد": 8769,
      "الوصول": 8770,
      "دواء": 8771,
      "فاها": 8772,
      "قصيدته": 8773,
      "لاقت": 8774,
      "التقوي": 8775,
      "اوصاف": 8776,
      "فرزدق": 8777,
      "الطعن": 8778,
      "نسلم": 8779,
      "الصغار": 8780,
      "اجا": 8781,
      "وراق": 8782,
      "الالفية": 8783,
      "دتان": 8784,
      "الاهم": 8785,
      "الجند": 8786,
      "اقبلت": 8787,
      "الرسل": 8788,
      "للمخاطب": 8789,
      "بالحركات": 8790,
      "الاضداد": 8791,
      "سبيله": 8792,
      "باذ": 8793,
      "مساء": 8794,
      "اثقل": 8795,
      "اكلة": 8796,
      "غرق": 8797,
      "وزة": 8798,
      "ثوم": 8799,
      "قامة": 8800,
      "مميز": 8801,
      "الزع": 8802,
      "يبيع": 8803,
      "اشتغال": 8804,
      "الرقيق": 8805,
      "لحظ": 8806,
      "واياك": 8807,
      "الدعوة": 8808,
      "فيق": 8809,
      "الغناء": 8810,
      "انقلبت": 8811,
      "الصاحب": 8812,
      "وصارت": 8813,
      "عبس": 8814,
      "والحكم": 8815,
      "الجعدي": 8816,
      "فروع": 8817,
      "برهان": 8818,
      "ذها": 8819,
      "مقب": 8820,
      "اقه": 8821,
      "وجعلوا": 8822,
      "اطلب": 8823,
      "كيفية": 8824,
      "الاحزاب": 8825,
      "وفاته": 8826,
      "الوقوع": 8827,
      "لافعلن": 8828,
      "شيط": 8829,
      "يعدل": 8830,
      "وظل": 8831,
      "وملك": 8832,
      "قلبك": 8833,
      "اخوان": 8834,
      "اعطيته": 8835,
      "خاض": 8836,
      "المنهج": 8837,
      "والمت": 8838,
      "والتذكير": 8839,
      "ليها": 8840,
      "الفريق": 8841,
      "علموا": 8842,
      "تلاها": 8843,
      "يعا": 8844,
      "تصحيف": 8845,
      "المنسرح": 8846,
      "مضت": 8847,
      "المثالين": 8848,
      "درست": 8849,
      "نظائر": 8850,
      "امسك": 8851,
      "باليمن": 8852,
      "نما": 8853,
      "يتوقف": 8854,
      "القولين": 8855,
      "عصي": 8856,
      "وعنه": 8857,
      "التفت": 8858,
      "تجاه": 8859,
      "واسط": 8860,
      "حبة": 8861,
      "الجراد": 8862,
      "وفرق": 8863,
      "الوغي": 8864,
      "موخرا": 8865,
      "المتوسط": 8866,
      "افعله": 8867,
      "ذكور": 8868,
      "كلية": 8869,
      "المعية": 8870,
      "وشع": 8871,
      "نظرية": 8872,
      "ظلموا": 8873,
      "ضلال": 8874,
      "الشريعة": 8875,
      "ليتني": 8876,
      "مفيد": 8877,
      "واكرم": 8878,
      "ايما": 8879,
      "يقظ": 8880,
      "فطر": 8881,
      "اوفي": 8882,
      "غص": 8883,
      "لتح": 8884,
      "الحطيئة": 8885,
      "تقضي": 8886,
      "ممكن": 8887,
      "وعجز": 8888,
      "ذكرة": 8889,
      "رمز": 8890,
      "سات": 8891,
      "شطر": 8892,
      "مستقر": 8893,
      "مستقيم": 8894,
      "رائه": 8895,
      "١١٤": 8896,
      "النضر": 8897,
      "الجواد": 8898,
      "متاخر": 8899,
      "فقول": 8900,
      "وتبعه": 8901,
      "معهما": 8902,
      "الطلاق": 8903,
      "ضعيفة": 8904,
      "ختم": 8905,
      "والمر": 8906,
      "رميت": 8907,
      "ينادي": 8908,
      "لمجرد": 8909,
      "اقوم": 8910,
      "خلافه": 8911,
      "اسنا": 8912,
      "ضرا": 8913,
      "وجزم": 8914,
      "توم": 8915,
      "ضحي": 8916,
      "المغيرة": 8917,
      "والجد": 8918,
      "تعطف": 8919,
      "قائد": 8920,
      "باريس": 8921,
      "الاحيان": 8922,
      "الاجزاء": 8923,
      "قتين": 8924,
      "متعددة": 8925,
      "النكرات": 8926,
      "!)": 8927,
      "ظما": 8928,
      "١١٢": 8929,
      "واليوم": 8930,
      "ويصح": 8931,
      "نشاط": 8932,
      "جوهر": 8933,
      "اثم": 8934,
      "ظني": 8935,
      "الناصبة": 8936,
      "والفرس": 8937,
      "الشيئين": 8938,
      "ووزنه": 8939,
      "تعج": 8940,
      "بعدهم": 8941,
      "غسل": 8942,
      "ابيت": 8943,
      "اساء": 8944,
      "ثانيه": 8945,
      "يسوغ": 8946,
      "الادوات": 8947,
      "يدرس": 8948,
      "رويا": 8949,
      "خفيفة": 8950,
      "وعلة": 8951,
      "الخلف": 8952,
      "تنكر": 8953,
      "والظرف": 8954,
      "بالشام": 8955,
      "ورفعه": 8956,
      "ذاق": 8957,
      "ليله": 8958,
      "اسامة": 8959,
      "وخز": 8960,
      "))،": 8961,
      "الاوصاف": 8962,
      "موقعه": 8963,
      "الاستشهاد": 8964,
      "صيلي": 8965,
      "غراق": 8966,
      "فرفع": 8967,
      "ويخرج": 8968,
      "اعترض": 8969,
      "وعدا": 8970,
      "اسف": 8971,
      "الحالية": 8972,
      "رجالا": 8973,
      "متفق": 8974,
      "زيدان": 8975,
      "كفرح": 8976,
      "تعليق": 8977,
      "المقصورة": 8978,
      "براء": 8979,
      "الممت": 8980,
      "شيش": 8981,
      "وغر": 8982,
      "اتباعا": 8983,
      "توالي": 8984,
      "وكلما": 8985,
      "بالعطف": 8986,
      "حملها": 8987,
      "صدقة": 8988,
      "ظام": 8989,
      "فاجاز": 8990,
      "تسل": 8991,
      "كسرها": 8992,
      "الوسطي": 8993,
      "شيع": 8994,
      "نفذ": 8995,
      "الاحمق": 8996,
      "قاة": 8997,
      "التنازع": 8998,
      "بالظرف": 8999,
      "اشهد": 9000,
      "الداهية": 9001,
      "معانيه": 9002,
      "باست": 9003,
      "هيلي": 9004,
      "المثلين": 9005,
      "تدعو": 9006,
      "الكشاف": 9007,
      "الحائط": 9008,
      "الكاس": 9009,
      "وانشدني": 9010,
      "الغبار": 9011,
      "تجاج": 9012,
      "مختار": 9013,
      "درع": 9014,
      "المرز": 9015,
      "ورع": 9016,
      "بالقياس": 9017,
      "قصود": 9018,
      "انصب": 9019,
      "واكر": 9020,
      "ابلا": 9021,
      "تنك": 9022,
      "وواو": 9023,
      "ويك": 9024,
      "لفلان": 9025,
      "مفعلة": 9026,
      "بالمع": 9027,
      "راوي": 9028,
      "المرادي": 9029,
      "فانني": 9030,
      "ازد": 9031,
      "تكبر": 9032,
      "مطابقة": 9033,
      "نائم": 9034,
      "منظور": 9035,
      "الممكن": 9036,
      "مرتب": 9037,
      "ولكنك": 9038,
      "وصلة": 9039,
      "يفر": 9040,
      "الضار": 9041,
      "ابقا": 9042,
      "الواسع": 9043,
      "فمه": 9044,
      "ويب": 9045,
      "النسق": 9046,
      "موافقة": 9047,
      "الازد": 9048,
      "وهولاء": 9049,
      "حينما": 9050,
      "وفاة": 9051,
      "بمح": 9052,
      "يتحقق": 9053,
      "والسر": 9054,
      "اعداء": 9055,
      "اللقب": 9056,
      "هره": 9057,
      "حون": 9058,
      "١١٣": 9059,
      "والدي": 9060,
      "اكثرهم": 9061,
      "جائزة": 9062,
      "يروا": 9063,
      "ائره": 9064,
      "تدور": 9065,
      "١٩٠": 9066,
      "الشعور": 9067,
      "زكي": 9068,
      "الاعم": 9069,
      "صوتا": 9070,
      "الوصفية": 9071,
      "الاحد": 9072,
      "ريس": 9073,
      "ملكه": 9074,
      "وثلاثة": 9075,
      "همي": 9076,
      "الجهد": 9077,
      "الهن": 9078,
      "ليالي": 9079,
      "العالية": 9080,
      "الغد": 9081,
      "لتاكيد": 9082,
      "ريحا": 9083,
      "وحروف": 9084,
      "بجر": 9085,
      "الجاري": 9086,
      "بالاص": 9087,
      "اردنا": 9088,
      "هيج": 9089,
      "١١٦": 9090,
      "الجامد": 9091,
      "ضرع": 9092,
      "شاهدا": 9093,
      "خراسان": 9094,
      "فزاد": 9095,
      "المجموعة": 9096,
      "اتسع": 9097,
      "السنين": 9098,
      "دتين": 9099,
      "استعمالا": 9100,
      "غلا": 9101,
      "تقتل": 9102,
      "نعل": 9103,
      "بدرهم": 9104,
      "المجهول": 9105,
      "الجليل": 9106,
      "تمه": 9107,
      "همام": 9108,
      "الحضارة": 9109,
      "بمس": 9110,
      "اند": 9111,
      "اتفاق": 9112,
      "وتوفي": 9113,
      "ثلاثون": 9114,
      "وانفتاح": 9115,
      "وثلاثين": 9116,
      "فشبه": 9117,
      "احاديث": 9118,
      "البكري": 9119,
      "طيئ": 9120,
      "اللغتين": 9121,
      "بالنكرة": 9122,
      "فعن": 9123,
      "فهر": 9124,
      "الضيف": 9125,
      "وممن": 9126,
      "مئن": 9127,
      "واورد": 9128,
      "المري": 9129,
      "شيبان": 9130,
      "عناية": 9131,
      "ومصدر": 9132,
      "متقدم": 9133,
      "انفة": 9134,
      "فاصبحت": 9135,
      "والاسماء": 9136,
      "وبيخ": 9137,
      "المكسور": 9138,
      "١١٨": 9139,
      "اعماله": 9140,
      "اقط": 9141,
      "اقبح": 9142,
      "الصدور": 9143,
      "سيره": 9144,
      "سمه": 9145,
      "تمشي": 9146,
      "هبت": 9147,
      "وكلمة": 9148,
      "الادلة": 9149,
      "قمر": 9150,
      "وتاتي": 9151,
      "القرون": 9152,
      "عضد": 9153,
      "ضعفه": 9154,
      "الاصابع": 9155,
      "وظهر": 9156,
      "جاءوا": 9157,
      "دهن": 9158,
      "لجمع": 9159,
      "وولي": 9160,
      "العاشر": 9161,
      "يميز": 9162,
      "بالتنوين": 9163,
      "وقصر": 9164,
      "دلول": 9165,
      "ابتدا": 9166,
      "عمدة": 9167,
      "العرش": 9168,
      "القالي": 9169,
      "رهط": 9170,
      "كسار": 9171,
      "ارضه": 9172,
      "بيضة": 9173,
      "ظمه": 9174,
      "ايمن": 9175,
      "اضحي": 9176,
      "المتاع": 9177,
      "جيبة": 9178,
      "عجيب": 9179,
      "محفوظ": 9180,
      "عباده": 9181,
      "المستعار": 9182,
      "واليك": 9183,
      "اسا": 9184,
      "النصاري": 9185,
      "وقعد": 9186,
      "اثنا": 9187,
      "قيقية": 9188,
      "وتل": 9189,
      "غال": 9190,
      "يصر": 9191,
      "صحيفة": 9192,
      "شراب": 9193,
      "ظلام": 9194,
      "الحياء": 9195,
      "بالبناء": 9196,
      "يمل": 9197,
      "يرض": 9198,
      "للمع": 9199,
      "وجاءت": 9200,
      "كها": 9201,
      "هيل": 9202,
      "اودي": 9203,
      "الزكاة": 9204,
      "الصر": 9205,
      "قبلك": 9206,
      "مختلفين": 9207,
      "التق": 9208,
      "تمث": 9209,
      "ضمائر": 9210,
      "يبحث": 9211,
      "مالها": 9212,
      "ثناوه": 9213,
      "حاجته": 9214,
      "تلمي": 9215,
      "رمل": 9216,
      "زله": 9217,
      "غنم": 9218,
      "١١٥": 9219,
      "القضية": 9220,
      "يمه": 9221,
      "اطلاقه": 9222,
      "الزهر": 9223,
      "الاعضاء": 9224,
      "الطبقة": 9225,
      "اصلح": 9226,
      "بفتحتين": 9227,
      "يبن": 9228,
      "تحقير": 9229,
      "الموس": 9230,
      "الحبش": 9231,
      "فتان": 9232,
      "سلف": 9233,
      "وجماعة": 9234,
      "بعلي": 9235,
      "الدراسات": 9236,
      "يلبث": 9237,
      "يشك": 9238,
      "المحض": 9239,
      "تفا": 9240,
      "صدا": 9241,
      "واشد": 9242,
      "طرفي": 9243,
      "مستقل": 9244,
      "للفرق": 9245,
      "والنكرة": 9246,
      "الحرم": 9247,
      "ثوبه": 9248,
      "طيل": 9249,
      "جاور": 9250,
      "والدهر": 9251,
      "مقصورا": 9252,
      "اجازه": 9253,
      "راعة": 9254,
      "والعل": 9255,
      "لاعت": 9256,
      "ادغمت": 9257,
      "ليعلم": 9258,
      "يتاتي": 9259,
      "تسلم": 9260,
      "عرضه": 9261,
      "كالا": 9262,
      "وقطع": 9263,
      "مغر": 9264,
      "تحب": 9265,
      "وابط": 9266,
      "لغوية": 9267,
      "نائه": 9268,
      "طفال": 9269,
      "للعرب": 9270,
      "للواحد": 9271,
      "الزبيدي": 9272,
      "خضر": 9273,
      "يحرك": 9274,
      "رسائل": 9275,
      "رماح": 9276,
      "لقال": 9277,
      "مارة": 9278,
      "ترمي": 9279,
      "تبكي": 9280,
      "مرارا": 9281,
      "طريف": 9282,
      "وبعضها": 9283,
      "حوث": 9284,
      "مقلوبه": 9285,
      "سمح": 9286,
      "الوها": 9287,
      "رجز": 9288,
      "جلده": 9289,
      "قالا": 9290,
      "انط": 9291,
      "والخل": 9292,
      "صفح": 9293,
      "تكم": 9294,
      "الترا": 9295,
      "وبما": 9296,
      "ايل": 9297,
      "بهت": 9298,
      "مقيد": 9299,
      "يام": 9300,
      "ارنة": 9301,
      "للضمير": 9302,
      "استخرج": 9303,
      "نائية": 9304,
      "وقوة": 9305,
      "دماء": 9306,
      "ضمت": 9307,
      "حيلة": 9308,
      "ظلت": 9309,
      "وينا": 9310,
      "التباس": 9311,
      "فاك": 9312,
      "اطول": 9313,
      "تماعي": 9314,
      "حاك": 9315,
      "ضربان": 9316,
      "الدينية": 9317,
      "كريما": 9318,
      "دامت": 9319,
      "رنا": 9320,
      "وجن": 9321,
      "الطبيعية": 9322,
      "اشق": 9323,
      "املاء": 9324,
      "عارا": 9325,
      "نستطيع": 9326,
      "كالق": 9327,
      "١٠٢": 9328,
      "الامران": 9329,
      "كزيد": 9330,
      "وضمير": 9331,
      "سباب": 9332,
      "اشترط": 9333,
      "كاملة": 9334,
      "حبها": 9335,
      "والقلب": 9336,
      "اعجاز": 9337,
      "لشدة": 9338,
      "يصبح": 9339,
      "الجامعة": 9340,
      "تاتني": 9341,
      "فوادي": 9342,
      "ميتا": 9343,
      "هرم": 9344,
      "اضاء": 9345,
      "موكد": 9346,
      "الموول": 9347,
      "المانيا": 9348,
      "امض": 9349,
      "بساط": 9350,
      "مطبعة": 9351,
      "الكبيرة": 9352,
      "والزاي": 9353,
      "الجازم": 9354,
      "الصبيان": 9355,
      "والحاصل": 9356,
      "مبدا": 9357,
      "وهد": 9358,
      "كليهما": 9359,
      "فالاولي": 9360,
      "ابح": 9361,
      "خري": 9362,
      "الكفار": 9363,
      "وعده": 9364,
      "بتين": 9365,
      "يزول": 9366,
      "ماني": 9367,
      "بارد": 9368,
      "تمامه": 9369,
      "العيد": 9370,
      "شرطه": 9371,
      "حمام": 9372,
      "انيس": 9373,
      "الشرقية": 9374,
      "يكني": 9375,
      "شعبة": 9376,
      "تكرير": 9377,
      "جسمه": 9378,
      "واصحابه": 9379,
      "بالة": 9380,
      "كانتا": 9381,
      "ذكاء": 9382,
      "قتيل": 9383,
      "افات": 9384,
      "بقلة": 9385,
      "محق": 9386,
      "داعي": 9387,
      "الوعد": 9388,
      "معتلا": 9389,
      "وثبت": 9390,
      "بعدي": 9391,
      "بالتخفيف": 9392,
      "تقييد": 9393,
      "فحل": 9394,
      "بالحكم": 9395,
      "مامه": 9396,
      "١٠٣": 9397,
      "الموج": 9398,
      "احسان": 9399,
      "السراب": 9400,
      "الفرات": 9401,
      "رجو": 9402,
      "القبيل": 9403,
      "وفصل": 9404,
      "واستعمل": 9405,
      "لاخر": 9406,
      "كرها": 9407,
      "بخيل": 9408,
      "بالحذف": 9409,
      "سريعا": 9410,
      "نهم": 9411,
      "يتان": 9412,
      "اصبت": 9413,
      "ترتب": 9414,
      "قرع": 9415,
      "يطول": 9416,
      "الحدود": 9417,
      "توصف": 9418,
      "خفاء": 9419,
      "المقط": 9420,
      "التقرير": 9421,
      "وتجمع": 9422,
      "الانام": 9423,
      "ضعيفا": 9424,
      "ثدي": 9425,
      "نير": 9426,
      "الالة": 9427,
      "اتق": 9428,
      "وقته": 9429,
      "المتعلق": 9430,
      "يعرفون": 9431,
      "مزية": 9432,
      "الحسني": 9433,
      "الميل": 9434,
      "اعتل": 9435,
      "مكسورا": 9436,
      "لقول": 9437,
      "الكماة": 9438,
      "حوص": 9439,
      "صريحا": 9440,
      "الجوز": 9441,
      "اعضاء": 9442,
      "خلقا": 9443,
      "دقة": 9444,
      "فزيد": 9445,
      "حنين": 9446,
      "يدعون": 9447,
      "تمثيل": 9448,
      "ذوو": 9449,
      "تاكيدا": 9450,
      "النخ": 9451,
      "النية": 9452,
      "مستقلة": 9453,
      "ثب": 9454,
      "تجز": 9455,
      "تمييزا": 9456,
      "التمام": 9457,
      "الحضر": 9458,
      "الافكار": 9459,
      "ويعرف": 9460,
      "ومهما": 9461,
      "لامتناع": 9462,
      "فتر": 9463,
      "الحريري": 9464,
      "عاص": 9465,
      "ولين": 9466,
      "ذاري": 9467,
      "عنوان": 9468,
      "ففتح": 9469,
      "نقطة": 9470,
      "اخيرا": 9471,
      "الخافض": 9472,
      "فعه": 9473,
      "لجواز": 9474,
      "والعشرون": 9475,
      "فليت": 9476,
      "واجد": 9477,
      "الملحق": 9478,
      "التامة": 9479,
      "بالذكر": 9480,
      "محص": 9481,
      "شيطان": 9482,
      "عطية": 9483,
      "معروفا": 9484,
      "فعلها": 9485,
      "خبرية": 9486,
      "يقيم": 9487,
      "احكم": 9488,
      "الثع": 9489,
      "ردها": 9490,
      "الاعتماد": 9491,
      "وور": 9492,
      "لمت": 9493,
      "تنقل": 9494,
      "وسطها": 9495,
      "بضع": 9496,
      "متر": 9497,
      "اقم": 9498,
      "مقترن": 9499,
      "وارق": 9500,
      "رافة": 9501,
      "امته": 9502,
      "الجهاد": 9503,
      "وثة": 9504,
      "مختصة": 9505,
      "التخي": 9506,
      "الحسنة": 9507,
      "ردا": 9508,
      "عوي": 9509,
      "لكانت": 9510,
      "وراءه": 9511,
      "ثوبا": 9512,
      "اناء": 9513,
      "والعي": 9514,
      "تكثر": 9515,
      "عليهن": 9516,
      "فلقد": 9517,
      "والذال": 9518,
      "شهادة": 9519,
      "اموالهم": 9520,
      "الدرع": 9521,
      "يتي": 9522,
      "البلغ": 9523,
      "الغزل": 9524,
      "زيه": 9525,
      "تبد": 9526,
      "المجز": 9527,
      "الفراق": 9528,
      "الطلاب": 9529,
      "المتبوع": 9530,
      "بصد": 9531,
      "اليل": 9532,
      "وليه": 9533,
      "وجودها": 9534,
      "توضع": 9535,
      "اباء": 9536,
      "فرسا": 9537,
      "والموت": 9538,
      "لائي": 9539,
      "بعثت": 9540,
      "الموسيقي": 9541,
      "الدماء": 9542,
      "عدن": 9543,
      "وازنة": 9544,
      "اصلهما": 9545,
      "جئتك": 9546,
      "الوطن": 9547,
      "فجعلت": 9548,
      "انين": 9549,
      "المتصرف": 9550,
      "المذاهب": 9551,
      "موجودا": 9552,
      "الاقط": 9553,
      "وسوف": 9554,
      "مصدري": 9555,
      "تحكم": 9556,
      "صفي": 9557,
      "وجمل": 9558,
      "وباء": 9559,
      "اللهو": 9560,
      "موضعا": 9561,
      "صيلة": 9562,
      "جبة": 9563,
      "لتكون": 9564,
      "للمست": 9565,
      "للمونث": 9566,
      "ادخلوا": 9567,
      "متحركا": 9568,
      "يعلق": 9569,
      "الهلاك": 9570,
      "السياسية": 9571,
      "اللحن": 9572,
      "العيني": 9573,
      "جائزا": 9574,
      "خفا": 9575,
      "ينفق": 9576,
      "الترجمة": 9577,
      "الاباء": 9578,
      "تهذيب": 9579,
      "الدواء": 9580,
      "ضافي": 9581,
      "ترتي": 9582,
      "العنب": 9583,
      "يهمز": 9584,
      "منقطع": 9585,
      "حسبي": 9586,
      "ذوق": 9587,
      "ووجد": 9588,
      "رباء": 9589,
      "ارجح": 9590,
      "خالط": 9591,
      "زيت": 9592,
      "فنصب": 9593,
      "والحروف": 9594,
      "متوسط": 9595,
      "بتع": 9596,
      "نبينا": 9597,
      "الظاء": 9598,
      "تبه": 9599,
      "هاره": 9600,
      "وجده": 9601,
      "الغربي": 9602,
      "ساغ": 9603,
      "كيت": 9604,
      "هدا": 9605,
      "والتب": 9606,
      "ونسب": 9607,
      "كرت": 9608,
      "تهب": 9609,
      "لبث": 9610,
      "صق": 9611,
      "يحضر": 9612,
      "اخذته": 9613,
      "والمعرفة": 9614,
      "صوم": 9615,
      "راوة": 9616,
      "ونظر": 9617,
      "بالعلم": 9618,
      "رائق": 9619,
      "للتعليل": 9620,
      "خففت": 9621,
      "الاسكندرية": 9622,
      "القادر": 9623,
      "للثقل": 9624,
      "تطلع": 9625,
      "مصحف": 9626,
      "اليت": 9627,
      "ناصر": 9628,
      "عتين": 9629,
      "خيص": 9630,
      "زور": 9631,
      "النق": 9632,
      "مظاهر": 9633,
      "وسائل": 9634,
      "بفتحها": 9635,
      "مائه": 9636,
      "اخذا": 9637,
      "الاتفاق": 9638,
      "واذكر": 9639,
      "حرفي": 9640,
      "دعه": 9641,
      "خلل": 9642,
      "الظبي": 9643,
      "شبهة": 9644,
      "المسموع": 9645,
      "السجع": 9646,
      "وسما": 9647,
      "سرق": 9648,
      "زمانا": 9649,
      "دفعه": 9650,
      "البها": 9651,
      "التعيين": 9652,
      "الجم": 9653,
      "قلبا": 9654,
      "فسكون": 9655,
      "المعنوية": 9656,
      "ويغ": 9657,
      "محلها": 9658,
      "اصفر": 9659,
      "اذب": 9660,
      "صحب": 9661,
      "والشين": 9662,
      "متبوع": 9663,
      "اركه": 9664,
      "موكدا": 9665,
      "كك": 9666,
      "انات": 9667,
      "السكت": 9668,
      "الباط": 9669,
      "الهجري": 9670,
      "ميما": 9671,
      "نفا": 9672,
      "نريد": 9673,
      "ظلوم": 9674,
      "والمعطوف": 9675,
      "بادر": 9676,
      "ميمة": 9677,
      "قصرت": 9678,
      "واوه": 9679,
      "ايق": 9680,
      "راكيب": 9681,
      "ساله": 9682,
      "الحيات": 9683,
      "وكلها": 9684,
      "نجوم": 9685,
      "لهو": 9686,
      "يبطل": 9687,
      "المدارس": 9688,
      "جاهل": 9689,
      "ادهم": 9690,
      "زاز": 9691,
      "يحي": 9692,
      "تمد": 9693,
      "يطلع": 9694,
      "اكتب": 9695,
      "قويا": 9696,
      "بالارض": 9697,
      "وتنصب": 9698,
      "اشتراط": 9699,
      "فلسفة": 9700,
      "الازمنة": 9701,
      "وغي": 9702,
      "اسل": 9703,
      "تسير": 9704,
      "بدال": 9705,
      "مولف": 9706,
      "للذين": 9707,
      "ومنذ": 9708,
      "علقت": 9709,
      "والزمان": 9710,
      "الشلوبين": 9711,
      "مرق": 9712,
      "نهض": 9713,
      "بالخاء": 9714,
      "دعو": 9715,
      "بقلب": 9716,
      "صبغ": 9717,
      "تنه": 9718,
      "فهن": 9719,
      "للكوفيين": 9720,
      "معرفته": 9721,
      "\"]": 9722,
      "بسر": 9723,
      "تعطي": 9724,
      "متمكن": 9725,
      "يجزم": 9726,
      "ثلاثيا": 9727,
      "واسر": 9728,
      "انبت": 9729,
      "مردود": 9730,
      "مخالفا": 9731,
      "وامه": 9732,
      "اثرت": 9733,
      "ضاق": 9734,
      "يحمد": 9735,
      "المثبت": 9736,
      "حادث": 9737,
      "منزله": 9738,
      "روضة": 9739,
      "اضفت": 9740,
      "كراهة": 9741,
      "بالاخر": 9742,
      "الفوائد": 9743,
      "اللقاء": 9744,
      "١٠١": 9745,
      "يدلك": 9746,
      "الحمرة": 9747,
      "الشماخ": 9748,
      "غلبت": 9749,
      "للتعريف": 9750,
      "وامثال": 9751,
      "اجيب": 9752,
      "واخذت": 9753,
      "فمتي": 9754,
      "المحت": 9755,
      "ثيابه": 9756,
      "ياك": 9757,
      "استاذ": 9758,
      "تابط": 9759,
      "عزم": 9760,
      "تحية": 9761,
      "اجبت": 9762,
      "مطابق": 9763,
      "اصغر": 9764,
      "بانت": 9765,
      "لدخول": 9766,
      "مجهول": 9767,
      "فصاح": 9768,
      "امكان": 9769,
      "البرب": 9770,
      "تداخل": 9771,
      "المتنا": 9772,
      "فاجتمع": 9773,
      "الجوف": 9774,
      "الشعوب": 9775,
      "بفضل": 9776,
      "ساح": 9777,
      "خزانة": 9778,
      "فعا": 9779,
      "سيء": 9780,
      "جميلة": 9781,
      "جازمة": 9782,
      "طباع": 9783,
      "ركوب": 9784,
      "كهة": 9785,
      "عليق": 9786,
      "النوعين": 9787,
      "الامن": 9788,
      "باث": 9789,
      "والمج": 9790,
      "الوحي": 9791,
      "حور": 9792,
      "منعت": 9793,
      "ينفي": 9794,
      "وكانما": 9795,
      "ونفي": 9796,
      "نتهم": 9797,
      "عقاب": 9798,
      "واجبا": 9799,
      "الدرر": 9800,
      "سمعه": 9801,
      "داخلا": 9802,
      "منقوص": 9803,
      "المميز": 9804,
      "المنازل": 9805,
      "امرنا": 9806,
      "خارجا": 9807,
      "الطبيعي": 9808,
      "سدت": 9809,
      "كالف": 9810,
      "قدرا": 9811,
      "النط": 9812,
      "افظة": 9813,
      "وزه": 9814,
      "كتفي": 9815,
      "اثنتين": 9816,
      "الهموم": 9817,
      "وسميت": 9818,
      "لحقت": 9819,
      "بصير": 9820,
      "اعمالها": 9821,
      "ببغداد": 9822,
      "اليمامة": 9823,
      "ويقع": 9824,
      "الغمام": 9825,
      "فادخل": 9826,
      "البقل": 9827,
      "مبينا": 9828,
      "انعم": 9829,
      "ولوج": 9830,
      "احاط": 9831,
      "حيثما": 9832,
      "افهم": 9833,
      "تيك": 9834,
      "تيل": 9835,
      "صالحة": 9836,
      "خس": 9837,
      "ليات": 9838,
      "اياهم": 9839,
      "طاط": 9840,
      "العير": 9841,
      "يلعب": 9842,
      "تنبيها": 9843,
      "واخت": 9844,
      "المعدود": 9845,
      "قوام": 9846,
      "ابليس": 9847,
      "السكوت": 9848,
      "ولوا": 9849,
      "والكثير": 9850,
      "التكثير": 9851,
      "الشرك": 9852,
      "ويرد": 9853,
      "خشية": 9854,
      "حاز": 9855,
      "طية": 9856,
      "فيبقي": 9857,
      "الاثم": 9858,
      "السعة": 9859,
      "عينها": 9860,
      "انشدنا": 9861,
      "طريقه": 9862,
      "فبقي": 9863,
      "المبين": 9864,
      "بالفارسية": 9865,
      "واجازه": 9866,
      "ج١": 9867,
      "حالات": 9868,
      "الاوجه": 9869,
      "مرادا": 9870,
      "الحرية": 9871,
      "بلس": 9872,
      "وامن": 9873,
      "الاغلب": 9874,
      "قطرب": 9875,
      "تخط": 9876,
      "امثالهم": 9877,
      "نتج": 9878,
[...]
