{
  "version": "1.0",
  "truncation": null,
  "padding": null,
  "added_tokens": [
    {
      "id": 0,
      "content": "[UNK]",
      "single_word": false,
      "lstrip": false,
      "rstrip": false,
      "normalized": false,
      "special": true
    },
    {
      "id": 1,
      "content": "[BOS]",
      "single_word": false,
      "lstrip": false,
      "rstrip": false,
      "normalized": false,
      "special": true
    },
    {
      "id": 2,
      "content": "[EOS]",
      "single_word": false,
      "lstrip": false,
      "rstrip": false,
      "normalized": false,
      "special": true
    },
    {
      "id": 3,
      "content": "[PAD]",
      "single_word": false,
      "lstrip": false,
      "rstrip": false,
      "normalized": false,
      "special": true
    },
    {
      "id": 4,
      "content": "[SEP]",
      "single_word": false,
      "lstrip": false,
      "rstrip": false,
      "normalized": false,
      "special": true
    },
    {
      "id": 5,
      "content": "[MASK]",
      "single_word": false,
      "lstrip": false,
      "rstrip": false,
      "normalized": false,
      "special": true
    }
  ],
  "normalizer": null,
  "pre_tokenizer": {
    "type": "Metaspace",
    "replacement": "▁",
    "prepend_scheme": "always",
    "split": true
  },
  "post_processor": null,
  "decoder": {
    "type": "Metaspace",
    "replacement": "▁",
    "prepend_scheme": "always",
    "split": true
  },
  "model": {
    "type": "BPE",
    "dropout": null,
    "unk_token": "[UNK]",
    "continuing_subword_prefix": null,
    "end_of_word_suffix": null,
    "fuse_unk": false,
    "byte_fallback": false,
    "ignore_merges": false,
    "vocab": {
      "[UNK]": 0,
      "[BOS]": 1,
      "[EOS]": 2,
      "[PAD]": 3,
      "[SEP]": 4,
      "[MASK]": 5,
      "\n": 6,
      "!": 7,
      "\"": 8,
      "(": 9,
      ")": 10,
      "-": 11,
      ".": 12,
      ":": 13,
      ";": 14,
      "[": 15,
      "]": 16,
      "،": 17,
      "؛": 18,
      "؟": 19,
      "ء": 20,
      "آ": 21,
      "أ": 22,
      "إ": 23,
      "ئ": 24,
      "ا": 25,
      "ب": 26,
      "ة": 27,
      "ت": 28,
      "ث": 29,
      "ج": 30,
      "ح": 31,
      "خ": 32,
      "د": 33,
      "ذ": 34,
      "ر": 35,
      "ز": 36,
      "س": 37,
      "ش": 38,
      "ص": 39,
      "ض": 40,
      "ط": 41,
      "ظ": 42,
      "ع": 43,
      "غ": 44,
      "ـ": 45,
      "ف": 46,
      "ق": 47,
      "ك": 48,
      "ل": 49,
      "م": 50,
      "ن": 51,
      "ه": 52,
      "و": 53,
      "ى": 54,
      "ي": 55,
      "٠": 56,
      "١": 57,
      "٢": 58,
      "٣": 59,
      "٤": 60,
      "٥": 61,
      "٦": 62,
      "٧": 63,
      "٨": 64,
      "٩": 65,
      "ٹ": 66,
      "پ": 67,
      "چ": 68,
      "ڑ": 69,
      "ژ": 70,
      "ک": 71,
      "گ": 72,
      "ں": 73,
      "ھ": 74,
      "ہ": 75,
      "ے": 76,
      "▁": 77,
      "▁ا": 78,
      "▁ال": 79,
      "▁و": 80,
      "▁م": 81,
      "ال": 82,
      "▁ف": 83,
      "▁ب": 84,
      "▁ع": 85,
      "ان": 86,
      "▁ل": 87,
      "▁ي": 88,
      "▁في": 89,
      "لي": 90,
      "▁ق": 91,
      "▁من": 92,
      "ما": 93,
      "ها": 94,
      "▁ت": 95,
      "▁ك": 96,
      "▁ان": 97,
      "▁الم": 98,
      "لا": 99,
      "▁الا": 100,
      "ين": 101,
      ".\n": 102,
      "▁وال": 103,
      "له": 104,
      "را": 105,
      "وا": 106,
      "▁علي": 107,
      "▁ح": 108,
      "نا": 109,
      "▁(": 110,
      "▁بن": 111,
      "▁ه": 112,
      "ري": 113,
      "▁اب": 114,
      "▁وا": 115,
      "ذا": 116,
      "ول": 117,
      "▁س": 118,
      "ير": 119,
      "ون": 120,
      "هم": 121,
      "..": 122,
      "▁عن": 123,
      "▁ن": 124,
      "▁ج": 125,
      "▁الي": 126,
      "ار": 127,
      "▁ر": 128,
      "▁قال": 129,
      "اب": 130,
      "لك": 131,
      "▁وق": 132,
      "ية": 133,
      "عل": 134,
      "▁ما": 135,
      "دي": 136,
      "▁الح": 137,
      "اء": 138,
      "▁الله": 139,
      "ني": 140,
      "▁لا": 141,
      "▁\n": 142,
      "▁بال": 143,
      "بي": 144,
      "▁ش": 145,
      "ام": 146,
      "▁الع": 147,
      "ست": 148,
      "▁ذ": 149,
      "▁\"": 150,
      "▁الت": 151,
      "من": 152,
      "▁خ": 153,
      "ة،": 154,
      "لم": 155,
      "▁ص": 156,
      "ه،": 157,
      "▁اي": 158,
      "في": 159,
      "▁وه": 160,
      "▁الق": 161,
      "ات": 162,
      "مع": 163,
      "مر": 164,
      "▁كان": 165,
      "▁ث": 166,
      "كر": 167,
      "دا": 168,
      "رب": 169,
      "▁الن": 170,
      "▁او": 171,
      "▁مع": 172,
      "ور": 173,
      "▁الس": 174,
      "▁..": 175,
      "وي": 176,
      "▁الف": 177,
      "حم": 178,
      "ته": 179,
      "▁الش": 180,
      "عد": 181,
      "رف": 182,
      "با": 183,
      "يد": 184,
      "▁غ": 185,
      "▁د": 186,
      "▁...": 187,
      "▁-": 188,
      "▁الج": 189,
      "رج": 190,
      "وم": 191,
      "قال": 192,
      "يل": 193,
      "▁وك": 194,
      "▁ابن": 195,
      "▁الك": 196,
      "وله": 197,
      "بد": 198,
      "▁اخ": 199,
      "بر": 200,
      "ائ": 201,
      ":\n": 202,
      "تي": 203,
      "قد": 204,
      "▁وان": 205,
      "▁وي": 206,
      "▁هذا": 207,
      "كم": 208,
      "اد": 209,
      "▁.": 210,
      "▁الذ": 211,
      "▁ز": 212,
      "سم": 213,
      "حد": 214,
      "▁الخ": 215,
      "▁فا": 216,
      "▁١": 217,
      "▁ذلك": 218,
      "▁الب": 219,
      "▁ولا": 220,
      "اف": 221,
      "▁الص": 222,
      "لت": 223,
      "▁به": 224,
      "كون": 225,
      "قي": 226,
      "رة": 227,
      "لام": 228,
      "حمد": 229,
      "▁وت": 230,
      "▁له": 231,
      "▁وهو": 232,
      "ود": 233,
      "▁ط": 234,
      "▁وع": 235,
      "▁[": 236,
      "▁اذا": 237,
      "▁ابي": 238,
      "قول": 239,
      "▁قال:": 240,
      "▁الد": 241,
      "لة": 242,
      "▁لم": 243,
      "يم": 244,
      "▁ابو": 245,
      "ذه": 246,
      "▁ثم": 247,
      "▁لان": 248,
      "▁هو": 249,
      "▁تع": 250,
      "فر": 251,
      "▁وج": 252,
      "عة": 253,
      "اني": 254,
      "▁عبد": 255,
      "اه": 256,
      "▁وقال": 257,
      "رك": 258,
      "الي": 259,
      "سي": 260,
      "صل": 261,
      "وف": 262,
      "فع": 263,
      "بل": 264,
      "▁الر": 265,
      "▁لل": 266,
      "▁ام": 267,
      "▁قد": 268,
      "حي": 269,
      "عم": 270,
      "▁انه": 271,
      "▁اس": 272,
      "به": 273,
      "بة": 274,
      "▁وم": 275,
      "▁فان": 276,
      "▁فيه": 277,
      "▁ول": 278,
      "▁لي": 279,
      "▁الذي": 280,
      "مي": 281,
      "ــ": 282,
      "▁بع": 283,
      "▁وفي": 284,
      "▁غير": 285,
      "▁وقد": 286,
      "▁ض": 287,
      "▁بعد": 288,
      "▁٢": 289,
      "سن": 290,
      "وج": 291,
      "ديث": 292,
      "ذلك": 293,
      "عت": 294,
      "▁بين": 295,
      "بت": 296,
      "كن": 297,
      "فت": 298,
      "حو": 299,
      "▁ومن": 300,
      "▁قوله": 301,
      "▁عليه": 302,
      "▁فقال": 303,
      "شر": 304,
      "ها،": 305,
      "فا": 306,
      "▁كل": 307,
      "فس": 308,
      "صر": 309,
      "وب": 310,
      "▁الث": 311,
      "▁وب": 312,
      "رض": 313,
      "▁النا": 314,
      "▁كما": 315,
      "هما": 316,
      "حا": 317,
      "▁مو": 318,
      "▁يع": 319,
      "قت": 320,
      "نة": 321,
      "▁محمد": 322,
      "وع": 323,
      "▁وكان": 324,
      "دة": 325,
      "لب": 326,
      "ضي": 327,
      "▁را": 328,
      "سول": 329,
      "▁الط": 330,
      "هر": 331,
      "ضا": 332,
      "مة": 333,
      "▁تعالي": 334,
      "▁عمر": 335,
      "يا": 336,
      "قة": 337,
      "خل": 338,
      "علم": 339,
      "جر": 340,
      "حت": 341,
      "▁عند": 342,
      "▁با": 343,
      "▁يت": 344,
      "عي": 345,
      "▁والم": 346,
      "جا": 347,
      "هل": 348,
      "▁وس": 349,
      "فة": 350,
      "▁هذه": 351,
      "▁حتي": 352,
      "▁يكون": 353,
      "بع": 354,
      "غير": 355,
      "▁شي": 356,
      "▁است": 357,
      "▁مث": 358,
      "▁٣": 359,
      "مل": 360,
      "▁يج": 361,
      "قا": 362,
      "▁وما": 363,
      "▁التي": 364,
      "▁ون": 365,
      "ماء": 366,
      ")\n": 367,
      "در": 368,
      "▁فل": 369,
      "▁رسول": 370,
      "ضع": 371,
      "▁المع": 372,
      ").\n": 373,
      "يب": 374,
      "راء": 375,
      "▁الو": 376,
      "سر": 377,
      "▁حد": 378,
      "مان": 379,
      "▁ذكر": 380,
      "تاب": 381,
      "يت": 382,
      "▁والا": 383,
      "▁يا": 384,
      "▁مت": 385,
      "▁الز": 386,
      "وه": 387,
      "▁اص": 388,
      "قل": 389,
      "▁ين": 390,
      "▁مح": 391,
      "▁الان": 392,
      "▁بعض": 393,
      "وت": 394,
      "▁الل": 395,
      "جل": 396,
      "رت": 397,
      "▁،": 398,
      "▁الغ": 399,
      "ين،": 400,
      "وس": 401,
      "رد": 402,
      "وز": 403,
      "وق": 404,
      "▁اح": 405,
      "▁اع": 406,
      "شي": 407,
      "مس": 408,
      "▁فت": 409,
      "اح": 410,
      "▁بل": 411,
      "▁مس": 412,
      "عا": 413,
      "كان": 414,
      "▁وح": 415,
      "▁حدث": 416,
      "راد": 417,
      "▁فه": 418,
      "▁نا": 419,
      "▁اش": 420,
      "▁الاس": 421,
      "ثر": 422,
      "لق": 423,
      "▁نحو": 424,
      "▁:": 425,
      "▁منه": 426,
      "▁اليه": 427,
      "لاث": 428,
      "ذكر": 429,
      "عر": 430,
      "خر": 431,
      "▁اي:": 432,
      "ده": 433,
      "▁ظ": 434,
      "صب": 435,
      "▁٤": 436,
      "فظ": 437,
      "▁يقول": 438,
      "دل": 439,
      "▁(١": 440,
      "▁بها": 441,
      "▁.\n": 442,
      "ليل": 443,
      "▁الناس": 444,
      ")،": 445,
      "سب": 446,
      "ه:": 447,
      "خت": 448,
      "▁فيها": 449,
      "▁الوا": 450,
      "مت": 451,
      "▁ولم": 452,
      "سان": 453,
      "هم،": 454,
      "▁واب": 455,
      "كل": 456,
      "▁احد": 457,
      "ضم": 458,
      "اري": 459,
      "ية،": 460,
      "▁وص": 461,
      "ــــ": 462,
      "نت": 463,
      "▁قول": 464,
      "▁يق": 465,
      "زل": 466,
      "م،": 467,
      "▁وهي": 468,
      "▁اسم": 469,
      "حة": 470,
      "▁(ال": 471,
      "▁المو": 472,
      "فعل": 473,
      "▁يوم": 474,
      "▁النبي": 475,
      "د،": 476,
      "ا،": 477,
      "▁ات": 478,
      "ان،": 479,
      "▁سنة": 480,
      "▁ور": 481,
      "▁لما": 482,
      "▁مثل": 483,
      "▁والت": 484,
      "▁ايضا": 485,
      "▁زيد": 486,
      "وة": 487,
      "ولي": 488,
      "زي": 489,
      "الة": 490,
      "▁قبل": 491,
      "▁المت": 492,
      "طي": 493,
      "▁فعل": 494,
      "▁يقال": 495,
      "▁اهل": 496,
      "▁المس": 497,
      "▁اج": 498,
      "ب،": 499,
      "▁عنه": 500,
      "ورة": 501,
      "هد": 502,
      "زم": 503,
      "▁اذ": 504,
      "الك": 505,
      "▁اد": 506,
      "قط": 507,
      "غة": 508,
      "▁امر": 509,
      "▁الشي": 510,
      "▁فال": 511,
      "معني": 512,
      "خرج": 513,
      "▁احمد": 514,
      "▁اله": 515,
      "مام": 516,
      "اج": 517,
      "▁الحديث": 518,
      "ظر": 519,
      "▁فلا": 520,
      "رق": 521,
      "يل:": 522,
      "▁واحد": 523,
      "ثير": 524,
      "▁لانه": 525,
      "راه": 526,
      "رجل": 527,
      "▁حديث": 528,
      "▁باب": 529,
      "تب": 530,
      "▁حدثنا": 531,
      "▁هي": 532,
      "وال": 533,
      "▁اخر": 534,
      "▁ليس": 535,
      "▁المن": 536,
      "لف": 537,
      "رس": 538,
      "اص": 539,
      "▁٥": 540,
      "بار": 541,
      "▁قوله:": 542,
      "قدم": 543,
      "▁كانت": 544,
      "▁المص": 545,
      "وان": 546,
      "دين": 547,
      "كي": 548,
      "▁بم": 549,
      "ضاف": 550,
      "▁اق": 551,
      "▁قلت": 552,
      "▁يح": 553,
      "▁واما": 554,
      "طا": 555,
      "▁اك": 556,
      "▁ولي": 557,
      "خذ": 558,
      "▁العرب": 559,
      "▁بان": 560,
      "\"،": 561,
      "ه.\n": 562,
      "حاب": 563,
      "طل": 564,
      "ملة": 565,
      "ضل": 566,
      "▁فقال:": 567,
      "ر،": 568,
      "▁جاء": 569,
      "سا": 570,
      "وك": 571,
      "واب": 572,
      "صي": 573,
      "قوله": 574,
      "▁البي": 575,
      "▁وهذا": 576,
      "▁الام": 577,
      "▁رج": 578,
      "ئة": 579,
      "ذف": 580,
      "▁لو": 581,
      "▁حي": 582,
      "فق": 583,
      "▁[ال": 584,
      "ذي": 585,
      "فتح": 586,
      "▁ولك": 587,
      "وفي": 588,
      "رم": 589,
      "▁مج": 590,
      "▁تح": 591,
      "▁تعالي:": 592,
      "▁يد": 593,
      "▁شيء": 594,
      "باس": 595,
      "▁يست": 596,
      "▁والن": 597,
      "راب": 598,
      "▁الاع": 599,
      "▁فهو": 600,
      "▁اما": 601,
      "▁لها": 602,
      "▁وخ": 603,
      "▁جمع": 604,
      "▁(٢": 605,
      "تم": 606,
      "الف": 607,
      "▁تن": 608,
      "▁تق": 609,
      "ارة": 610,
      "اء،": 611,
      "▁منها": 612,
      "ضر": 613,
      "▁كال": 614,
      "▁يش": 615,
      "▁فق": 616,
      "▁بي": 617,
      "▁يس": 618,
      "جد": 619,
      "▁نفس": 620,
      "تها": 621,
      "▁\"ال": 622,
      "▁الظ": 623,
      "▁يص": 624,
      "▁بح": 625,
      "ريد": 626,
      "▁الدين": 627,
      "زة": 628,
      "▁ثلاث": 629,
      "بير": 630,
      "ماع": 631,
      "▁الاول": 632,
      "▁الاخ": 633,
      "ق،": 634,
      "▁فع": 635,
      "▁القر": 636,
      "▁وغير": 637,
      "▁بد": 638,
      "▁كتاب": 639,
      "ناء": 640,
      "▁فلما": 641,
      "▁بك": 642,
      "▁والج": 643,
      "رح": 644,
      "رية": 645,
      "ه.": 646,
      "يف": 647,
      "لاء": 648,
      "▁عمرو": 649,
      "▁بكر": 650,
      "ادة": 651,
      "▁مص": 652,
      "ند": 653,
      "زيد": 654,
      "▁قل": 655,
      "لاة": 656,
      "لمة": 657,
      "شد": 658,
      "):": 659,
      "قص": 660,
      "ينا": 661,
      "ي،": 662,
      "▁٦": 663,
      "▁والح": 664,
      "▁الاست": 665,
      "▁روا": 666,
      "▁بما": 667,
      "▁يو": 668,
      "▁سمع": 669,
      "▁سب": 670,
      "▁الذين": 671,
      "اس": 672,
      "ك،": 673,
      "قول:": 674,
      "▁والع": 675,
      "روف": 676,
      "▁بني": 677,
      "عيد": 678,
      "ريق": 679,
      "قر": 680,
      "وح": 681,
      "▁وقوله": 682,
      "▁ولكن": 683,
      "▁يعني": 684,
      "▁لهم": 685,
      "لط": 686,
      "▁انا": 687,
      "▁ذا": 688,
      "▁هنا": 689,
      "لاف": 690,
      "▁روي": 691,
      "مه": 692,
      "زا": 693,
      "▁للم": 694,
      "▁معني": 695,
      "▁محل": 696,
      "▁وعلي": 697,
      "▁اث": 698,
      "▁الفعل": 699,
      "▁مست": 700,
      "▁الرا": 701,
      "▁وانما": 702,
      "شا": 703,
      "▁الرح": 704,
      "▁انما": 705,
      "▁انت": 706,
      "▁فاذا": 707,
      "▁علم": 708,
      "▁قت": 709,
      "▁فقد": 710,
      "....": 711,
      "▁رب": 712,
      "صف": 713,
      "▁الارض": 714,
      "ره": 715,
      "قب": 716,
      "فعول": 717,
      "عب": 718,
      "راهيم": 719,
      "ولا": 720,
      "▁الحسن": 721,
      "ع،": 722,
      "ذهب": 723,
      "▁رجل": 724,
      "اله": 725,
      "مير": 726,
      "▁حين": 727,
      "رات": 728,
      "▁دا": 729,
      "▁وش": 730,
      "▁اول": 731,
      "▁اف": 732,
      "امة": 733,
      "▁الرجل": 734,
      "▁لك": 735,
      "▁مر": 736,
      "▁يم": 737,
      "▁كثير": 738,
      "▁بمعني": 739,
      "▁المح": 740,
      "▁مما": 741,
      "▁صاح": 742,
      "طف": 743,
      "الم": 744,
      "▁ود": 745,
      "▁وث": 746,
      "اتي": 747,
      "بني": 748,
      "▁والله": 749,
      "▁ها": 750,
      "كة": 751,
      "▁حرف": 752,
      "طب": 753,
      "▁وجه": 754,
      "راة": 755,
      "▁الض": 756,
      "▁الكلام": 757,
      "شت": 758,
      "ري،": 759,
      "حدث": 760,
      "▁عد": 761,
      "▁زي": 762,
      "اهر": 763,
      "▁المعني": 764,
      "▁و\"": 765,
      "سل": 766,
      "▁وذلك": 767,
      "▁واست": 768,
      "▁وز": 769,
      "ال،": 770,
      "▁(٣": 771,
      "وات": 772,
      "طر": 773,
      "▁ويقال": 774,
      "▁تكون": 775,
      "▁يك": 776,
      "▁قلت:": 777,
      "وجه": 778,
      "▁نحو:": 779,
      "▁مالك": 780,
      "ناه": 781,
      "▁ابراهيم": 782,
      "قه": 783,
      "نف": 784,
      "امل": 785,
      "▁الامر": 786,
      "▁٧": 787,
      "ــــــــ": 788,
      "▁هم": 789,
      "▁لت": 790,
      "▁وقيل:": 791,
      "صد": 792,
      "وا:": 793,
      "ظم": 794,
      "اع": 795,
      "انا": 796,
      "وية": 797,
      "▁اخبر": 798,
      "رع": 799,
      "]\n": 800,
      "\".\n": 801,
      "▁الاص": 802,
      "حيح": 803,
      "س،": 804,
      "عمل": 805,
      "▁بالم": 806,
      "نه": 807,
      "ويل": 808,
      "▁انها": 809,
      "▁دون": 810,
      "▁بت": 811,
      "باب": 812,
      "ة:": 813,
      "غي": 814,
      "هب": 815,
      "امر": 816,
      "▁فيما": 817,
      "▁سعيد": 818,
      "▁واذا": 819,
      "كا": 820,
      "ة.\n": 821,
      "▁الثاني": 822,
      "▁منهم": 823,
      "وض": 824,
      "جب": 825,
      "ديد": 826,
      "▁ابا": 827,
      "▁الرحمن": 828,
      "اذ": 829,
      "▁الملك": 830,
      "▁كلام": 831,
      "▁عليها": 832,
      "قدير": 833,
      "▁عبي": 834,
      "مد": 835,
      "▁نس": 836,
      "▁قب": 837,
      "علق": 838,
      "▁وف": 839,
      "ثل": 840,
      "حيي": 841,
      "رط": 842,
      "يرا": 843,
      "▁موضع": 844,
      "كت": 845,
      "▁تس": 846,
      "▁حال": 847,
      "جاز": 848,
      "يس": 849,
      "▁القا": 850,
      "▁الفا": 851,
      "نس": 852,
      "▁يخ": 853,
      "▁الكتاب": 854,
      "جم": 855,
      "ضرب": 856,
      "▁يقول:": 857,
      "▁يكن": 858,
      "▁تت": 859,
      "▁يجوز": 860,
      "▁الله،": 861,
      "دت": 862,
      "▁فانه": 863,
      "▁فلم": 864,
      "▁للا": 865,
      "▁وابن": 866,
      "▁يقال:": 867,
      "▁ارب": 868,
      "عين": 869,
      "▁اخت": 870,
      "▁جمي": 871,
      "عه": 872,
      "انية": 873,
      "حق": 874,
      "ذر": 875,
      "▁عشر": 876,
      "▁تج": 877,
      "▁يب": 878,
      "▁البيت": 879,
      "▁اه": 880,
      "▁صاحب": 881,
      "لهم": 882,
      "▁خبر": 883,
      "ة.": 884,
      "▁وكذلك": 885,
      "واء": 886,
      "له،": 887,
      "هي": 888,
      ").": 889,
      "▁المش": 890,
      "▁مق": 891,
      "▁جعل": 892,
      "▁وليس": 893,
      "▁قوم": 894,
      "▁حيث": 895,
      "▁عليهم": 896,
      "بتدا": 897,
      "▁رفع": 898,
      "الث": 899,
      "ح،": 900,
      "▁بخ": 901,
      "م:": 902,
      "▁الفت": 903,
      "نب": 904,
      "▁الواو": 905,
      "▁حم": 906,
      "▁فكان": 907,
      "▁عم": 908,
      "▁بالا": 909,
      "حر": 910,
      "▁ضمير": 911,
      "ذك": 912,
      "▁النس": 913,
      "▁٨": 914,
      "حل": 915,
      "▁لفظ": 916,
      "ن،": 917,
      "▁تص": 918,
      "▁الشا": 919,
      "▁ضرب": 920,
      "▁(ا": 921,
      "ذب": 922,
      "▁فما": 923,
      "▁مش": 924,
      "ون،": 925,
      "رفع": 926,
      "▁فن": 927,
      "▁جع": 928,
      "ريف": 929,
      "▁الما": 930,
      "▁ولو": 931,
      "صار": 932,
      "▁كنت": 933,
      "جة": 934,
      "▁(٤": 935,
      "جي": 936,
      "▁عباس": 937,
      "ثمان": 938,
      "وص": 939,
      "نع": 940,
      "▁شيئ": 941,
      "▁موسي": 942,
      "▁ير": 943,
      "▁تا": 944,
      "▁الاسم": 945,
      "▁فس": 946,
      "▁عي": 947,
      "▁ومع": 948,
      "ائل": 949,
      "▁اني": 950,
      "▁الاية": 951,
      "وء": 952,
      "حاق": 953,
      "▁اكثر": 954,
      "طع": 955,
      "▁منص": 956,
      "رائ": 957,
      "▁وابو": 958,
      "▁لع": 959,
      "▁تقدم": 960,
      "▁قري": 961,
      "▁اعلم": 962,
      "سمي": 963,
      "تهي": 964,
      "▁اصحاب": 965,
      "▁تم": 966,
      "▁الاسلام": 967,
      "ئت": 968,
      "▁والخ": 969,
      "▁العلم": 970,
      "▁فج": 971,
      "▁اراد": 972,
      "▁كذا": 973,
      "▁العل": 974,
      "▁خال": 975,
      "ضار": 976,
      "▁والس": 977,
      "▁مخ": 978,
      "▁وبين": 979,
      "طاب": 980,
      "▁المست": 981,
      "▁لكن": 982,
      "▁تك": 983,
      "▁الشيء": 984,
      "▁الاخر": 985,
      "فل": 986,
      "ظهر": 987,
      "مال": 988,
      "لية": 989,
      "▁والث": 990,
      "▁بق": 991,
      "فه": 992,
      "سة": 993,
      "▁وعن": 994,
      "▁(و": 995,
      "▁الاش": 996,
      "طلق": 997,
      "الح": 998,
      "▁يحيي": 999,
      "▁كذلك": 1000,
      "مات": 1001,
      "▁واس": 1002,
      "▁بلا": 1003,
      "▁لاب": 1004,
      "يات": 1005,
      "▁والش": 1006,
      "▁الاولي": 1007,
      "▁حسن": 1008,
      "▁فر": 1009,
      "حن": 1010,
      "فرد": 1011,
      "انه": 1012,
      "بيل": 1013,
      "يلة": 1014,
      "▁الماء": 1015,
      "ونه": 1016,
      "از": 1017,
      "▁به،": 1018,
      "▁(١)": 1019,
      "ظيم": 1020,
      "ها.\n": 1021,
      "▁سن": 1022,
      "▁والص": 1023,
      "نيا": 1024,
      "▁الجمع": 1025,
      "ما،": 1026,
      "▁التع": 1027,
      "▁سي": 1028,
      "▁القران": 1029,
      "▁٩": 1030,
      "▁اعت": 1031,
      "▁تد": 1032,
      "ائر": 1033,
      "داد": 1034,
      "ماعة": 1035,
      "▁سلي": 1036,
      "▁اخذ": 1037,
      "▁الشيخ": 1038,
      "الب": 1039,
      "▁مات": 1040,
      "▁سا": 1041,
      "▁بالت": 1042,
      "هاء": 1043,
      "ها.": 1044,
      "▁بذلك": 1045,
      "▁والك": 1046,
      "▁هل": 1047,
      "وط": 1048,
      "▁للت": 1049,
      "ف،": 1050,
      "الا": 1051,
      "▁المومن": 1052,
      "را،": 1053,
      "▁مسلم": 1054,
      "▁عبيد": 1055,
      "دينة": 1056,
      "لامة": 1057,
      "▁تلك": 1058,
      "▁وهم": 1059,
      "بين": 1060,
      "رير": 1061,
      "▁الصلاة": 1062,
      "ئل": 1063,
      "ير،": 1064,
      "▁ومنه": 1065,
      "▁ذلك،": 1066,
      "بيه": 1067,
      "▁المسلم": 1068,
      "سين": 1069,
      "▁الشاعر": 1070,
      "▁ترك": 1071,
      "يرة": 1072,
      "جز": 1073,
      "الت": 1074,
      "▁نعم": 1075,
      "▁صد": 1076,
      "بس": 1077,
      "▁ملك": 1078,
      "ذوف": 1079,
      "▁حذف": 1080,
      "شرة": 1081,
      "عمال": 1082,
      "داء": 1083,
      "▁سعد": 1084,
      "▁راي": 1085,
      "▁بعضهم": 1086,
      "▁لن": 1087,
      "▁مد": 1088,
      "ئذ": 1089,
      "اهد": 1090,
      "ولة": 1091,
      "▁عثمان": 1092,
      "ويه": 1093,
      "▁وط": 1094,
      "▁واخ": 1095,
      "▁الهم": 1096,
      "▁وله": 1097,
      "▁خرج": 1098,
      "▁والي": 1099,
      "▁فمن": 1100,
      "جت": 1101,
      "▁واح": 1102,
      "ان:": 1103,
      "بات": 1104,
      "▁الاد": 1105,
      "▁يريد": 1106,
      "حمل": 1107,
      "▁ذكره": 1108,
      "خص": 1109,
      "▁شيئا": 1110,
      "▁يل": 1111,
      "لاح": 1112,
      "لين": 1113,
      "وها": 1114,
      "▁رايت": 1115,
      "▁بط": 1116,
      "▁تش": 1117,
      "▁فار": 1118,
      "قع": 1119,
      "ابت": 1120,
      "▁وغ": 1121,
      "▁وقال:": 1122,
      "دا،": 1123,
      "▁نص": 1124,
      "▁حكم": 1125,
      "▁لنا": 1126,
      "مار": 1127,
      "ور،": 1128,
      "▁مبني": 1129,
      "ك:": 1130,
      "▁عليه،": 1131,
      "▁دين": 1132,
      "▁تو": 1133,
      "ريح": 1134,
      "▁الاح": 1135,
      "▁اسحاق": 1136,
      "▁الاصل": 1137,
      "بط": 1138,
      "▁كانوا": 1139,
      "▁وذكر": 1140,
      "▁اخبرنا": 1141,
      "هن": 1142,
      "▁عين": 1143,
      "قيق": 1144,
      "يام": 1145,
      "شة": 1146,
      "▁فح": 1147,
      "▁خمس": 1148,
      "▁العين": 1149,
      "ها:": 1150,
      "▁خير": 1151,
      "▁وقوله:": 1152,
      "▁كث": 1153,
      "▁بفتح": 1154,
      "▁والق": 1155,
      "غت": 1156,
      "▁عا": 1157,
      "▁تخ": 1158,
      "▁الالف": 1159,
      "▁بالك": 1160,
      "▁يزيد": 1161,
      "▁(٥": 1162,
      "▁انك": 1163,
      "▁قص": 1164,
      "▁عل": 1165,
      "ريم": 1166,
      "عن": 1167,
      "فار": 1168,
      "لطان": 1169,
      "▁اخرج": 1170,
      "ضاء": 1171,
      "▁انهم": 1172,
      "▁١٠": 1173,
      "رفة": 1174,
      "▁معا": 1175,
      "▁وقت": 1176,
      "▁الحق": 1177,
      "▁القوم": 1178,
      "جاج": 1179,
      "▁\"ا": 1180,
      "مش": 1181,
      "▁نفسه": 1182,
      "▁الحكم": 1183,
      "قوله:": 1184,
      "▁فلي": 1185,
      "سه": 1186,
      "▁الرج": 1187,
      "جه": 1188,
      "▁البا": 1189,
      "▁عق": 1190,
      "▁قيل": 1191,
      "بيع": 1192,
      "▁رواية": 1193,
      "▁الخبر": 1194,
      "رجع": 1195,
      "▁ست": 1196,
      "\".": 1197,
      "▁بيت": 1198,
      "قات": 1199,
      "▁فك": 1200,
      "بح": 1201,
      "واد": 1202,
      "▁اللغة": 1203,
      "▁فاعل": 1204,
      "▁القول": 1205,
      "▁جعفر": 1206,
      "▁ثلاثة": 1207,
      "وبة": 1208,
      "▁بس": 1209,
      "فص": 1210,
      "▁جل": 1211,
      "رام": 1212,
      "▁الضم": 1213,
      "بال": 1214,
      "نا،": 1215,
      "▁خل": 1216,
      "▁البر": 1217,
      "خاري": 1218,
      "رار": 1219,
      "▁اط": 1220,
      "▁طريق": 1221,
      "ين.\n": 1222,
      "▁قائ": 1223,
      "▁مفعول": 1224,
      "▁(٢)": 1225,
      "▁ار": 1226,
      "▁الباب": 1227,
      "▁يغ": 1228,
      "ون:": 1229,
      "فض": 1230,
      "دي،": 1231,
      "جرور": 1232,
      "▁نصب": 1233,
      "▁بالح": 1234,
      "كب": 1235,
      "▁والد": 1236,
      "▁سيب": 1237,
      "ارث": 1238,
      "▁الياء": 1239,
      "▁معه": 1240,
      "ركة": 1241,
      "▁بر": 1242,
      "▁اللفظ": 1243,
      "لا،": 1244,
      "▁انتهي": 1245,
      "▁الدنيا": 1246,
      "رفوع": 1247,
      "▁تحت": 1248,
      "ي:": 1249,
      "نو": 1250,
      "▁داود": 1251,
      "▁عائ": 1252,
      "▁اصل": 1253,
      "لائ": 1254,
      "▁سمعت": 1255,
      "؟\n": 1256,
      "▁ويقال:": 1257,
      "▁له:": 1258,
      "ارض": 1259,
      "▁قر": 1260,
      "▁جوا": 1261,
      "▁واص": 1262,
      "▁لله": 1263,
      "ديم": 1264,
      "ينة": 1265,
      "▁وقيل": 1266,
      "عام": 1267,
      "واو": 1268,
      "▁فلان": 1269,
      "▁مكان": 1270,
      "▁بج": 1271,
      "صرف": 1272,
      "▁حب": 1273,
      "ثني": 1274,
      "فها": 1275,
      "قتل": 1276,
      "▁اغ": 1277,
      "قام": 1278,
      "▁المنا": 1279,
      "▁هـ": 1280,
      "ري:": 1281,
      "▁لانها": 1282,
      "فاء": 1283,
      "▁اتي": 1284,
      "ار،": 1285,
      "▁الامام": 1286,
      "▁عام": 1287,
      "▁اليوم": 1288,
      "افظ": 1289,
      "ماعيل": 1290,
      "▁١١": 1291,
      "▁بمن": 1292,
      "قدر": 1293,
      "جع": 1294,
      "▁والب": 1295,
      "▁جميع": 1296,
      "ريب": 1297,
      "▁الانسان": 1298,
      "▁لكم": 1299,
      "▁وفيه": 1300,
      "▁مصر": 1301,
      "▁لمن": 1302,
      "▁جر": 1303,
      "▁خلق": 1304,
      "▁البص": 1305,
      "هار": 1306,
      "▁دار": 1307,
      "هور": 1308,
      "▁اللام": 1309,
      "▁كيف": 1310,
      "▁نز": 1311,
      "وهم": 1312,
      "نين": 1313,
      "▁الشعر": 1314,
      "▁كتب": 1315,
      "▁دخ": 1316,
      "كس": 1317,
      "▁بش": 1318,
      "▁ورد": 1319,
      "\":": 1320,
      "▁(ف": 1321,
      "▁البخاري": 1322,
      "ته،": 1323,
      "ت،": 1324,
      "▁سليمان": 1325,
      "▁تقول:": 1326,
      "▁فوق": 1327,
      "▁الثلاث": 1328,
      "▁قالوا:": 1329,
      "▁نف": 1330,
      "▁ذي": 1331,
      "▁لق": 1332,
      "زلة": 1333,
      "▁قتل": 1334,
      "اريخ": 1335,
      "▁وروي": 1336,
      "▁الحال": 1337,
      "▁حق": 1338,
      "▁ثنا": 1339,
      "نية": 1340,
      "عود": 1341,
      "▁المخ": 1342,
      "▁١٣": 1343,
      "شام": 1344,
      "▁(ان": 1345,
      "▁صف": 1346,
      "▁١٩": 1347,
      "▁وانشد": 1348,
      "▁توفي": 1349,
      "▁وكل": 1350,
      "▁قام": 1351,
      "▁دع": 1352,
      "▁حا": 1353,
      "ــــــــــــــــ": 1354,
      "ت:": 1355,
      "▁تر": 1356,
      "▁ونحو": 1357,
      "▁بص": 1358,
      "▁يدل": 1359,
      "ثال": 1360,
      "طلب": 1361,
      "▁١٢": 1362,
      "▁صفة": 1363,
      "▁عرف": 1364,
      "▁وكانت": 1365,
      "▁قيل:": 1366,
      "▁امن": 1367,
      "ه\n": 1368,
      "غل": 1369,
      "▁طل": 1370,
      "كلم": 1371,
      "▁عبا": 1372,
      "ورا": 1373,
      "▁تري": 1374,
      "▁بالن": 1375,
      "▁تقدير": 1376,
      "▁جه": 1377,
      "▁المراد": 1378,
      "▁قط": 1379,
      "▁ولد": 1380,
      "▁صار": 1381,
      "▁المذك": 1382,
      "▁نع": 1383,
      "▁تقول": 1384,
      "مائة": 1385,
      "زيز": 1386,
      "ين:": 1387,
      "▁از": 1388,
      "▁نظ": 1389,
      "اق": 1390,
      "ارب": 1391,
      "........": 1392,
      "▁الليل": 1393,
      "▁واع": 1394,
      "▁متعلق": 1395,
      "فعال": 1396,
      "▁المد": 1397,
      "يه": 1398,
      "▁اشت": 1399,
      "ناس": 1400,
      "▁الجز": 1401,
      "جوز": 1402,
      "تهم": 1403,
      "▁ولما": 1404,
      "يش": 1405,
      "▁مرفوع": 1406,
      "وسف": 1407,
      "▁جز": 1408,
      "▁وقع": 1409,
      "وائ": 1410,
      "حب": 1411,
      "▁يحت": 1412,
      "صول": 1413,
      "لي،": 1414,
      "▁مل": 1415,
      "افر": 1416,
      "▁الثالث": 1417,
      "▁الفاعل": 1418,
      "اته": 1419,
      "▁وكذا": 1420,
      "▁يعلم": 1421,
      "▁يز": 1422,
      "▁له،": 1423,
      "▁شع": 1424,
      "▁١٤": 1425,
      "جاب": 1426,
      "▁سمي": 1427,
      "▁١)": 1428,
      "ائدة": 1429,
      "فسير": 1430,
      "ختلف": 1431,
      "▁لح": 1432,
      "وا،": 1433,
      "ضارع": 1434,
      "▁وام": 1435,
      "▁الال": 1436,
      "▁عر": 1437,
      "ها\n": 1438,
      "▁فقلت": 1439,
      "بلغ": 1440,
      "▁يذكر": 1441,
      "▁اسماعيل": 1442,
      "▁قدم": 1443,
      "ضافة": 1444,
      "▁بنت": 1445,
      "اك": 1446,
      "رسل": 1447,
      "▁الاز": 1448,
      "▁(٦": 1449,
      "▁غيره": 1450,
      "▁وات": 1451,
      "لاق": 1452,
      "ائي": 1453,
      "▁بهم": 1454,
      "▁فيه،": 1455,
      "▁[١": 1456,
      "▁موا": 1457,
      "▁شرح": 1458,
      "▁العد": 1459,
      "بري": 1460,
      "راق": 1461,
      "شيء": 1462,
      "▁عشرة": 1463,
      "▁فض": 1464,
      "طوف": 1465,
      "▁دخل": 1466,
      "▁رجلا": 1467,
      "▁السلطان": 1468,
      "▁عمل": 1469,
      "▁شيخ": 1470,
      "يز": 1471,
      "لاد": 1472,
      "كرم": 1473,
      "راك": 1474,
      "راف": 1475,
      "▁المغ": 1476,
      "▁احدهما": 1477,
      "كذا": 1478,
      "▁العر": 1479,
      "▁سفي": 1480,
      "مرة": 1481,
      "▁بغ": 1482,
      "▁قاله": 1483,
      "كثر": 1484,
      "▁عما": 1485,
      "▁جملة": 1486,
      "▁رحم": 1487,
      "▁اللي": 1488,
      "▁يعرف": 1489,
      "▁(ب": 1490,
      "قاء": 1491,
      "قيقة": 1492,
      "▁قا": 1493,
      "▁كانه": 1494,
      "فن": 1495,
      "تين": 1496,
      "ذين": 1497,
      "▁صلي": 1498,
      "▁بهذا": 1499,
      "▁(م": 1500,
      "▁بضم": 1501,
      "▁فد": 1502,
      "].\n": 1503,
      "▁منا": 1504,
      "▁عط": 1505,
      "▁رواه": 1506,
      "امع": 1507,
      "▁مبتدا": 1508,
      "▁وعد": 1509,
      "زن": 1510,
      "زع": 1511,
      "ابر": 1512,
      "ات،": 1513,
      "▁نق": 1514,
      "▁ذهب": 1515,
      "▁(٣)": 1516,
      "▁ايام": 1517,
      "▁المصنف": 1518,
      "راءة": 1519,
      "اني،": 1520,
      "دم": 1521,
      "▁حدثني": 1522,
      "▁زيدا": 1523,
      "ائد": 1524,
      "▁الواحد": 1525,
      "▁تست": 1526,
      "وذ": 1527,
      "صا": 1528,
      "▁انس": 1529,
      "▁يف": 1530,
      "▁بالع": 1531,
      "▁العباس": 1532,
      "▁فاع": 1533,
      "▁الفر": 1534,
      "▁خالد": 1535,
      "صاري": 1536,
      "▁تب": 1537,
      "▁شاء": 1538,
      "▁القاسم": 1539,
      "▁الاف": 1540,
      "قتضي": 1541,
      "▁يدي": 1542,
      "نان": 1543,
      "▁لغة": 1544,
      "▁وانه": 1545,
      "▁قالوا": 1546,
      "▁بغير": 1547,
      "▁السماء": 1548,
      "▁بنا": 1549,
      "هاب": 1550,
      "▁وانت": 1551,
      "▁الجملة": 1552,
      "▁يه": 1553,
      "▁الروا": 1554,
      "▁وير": 1555,
      "▁وضع": 1556,
      "▁فهي": 1557,
      "▁فم": 1558,
      "واه": 1559,
      "▁مصدر": 1560,
      "▁فاما": 1561,
      "▁الدار": 1562,
      "▁بالله": 1563,
      "▁الحارث": 1564,
      "▁(ت": 1565,
      "يع": 1566,
      "▁وابي": 1567,
      "راج": 1568,
      "ضح": 1569,
      "ل،": 1570,
      "▁بينهما": 1571,
      "▁الفتح": 1572,
      "قبل": 1573,
      "ناد": 1574,
      "▁الساب": 1575,
      "▁ياتي": 1576,
      "▁المر": 1577,
      "ثي": 1578,
      "▁الاب": 1579,
      "▁القي": 1580,
      "▁((": 1581,
      "▁صحيح": 1582,
      "غر": 1583,
      "▁بلغ": 1584,
      "ين.": 1585,
      "ذاب": 1586,
      "ريا": 1587,
      "▁العزيز": 1588,
      "▁احسن": 1589,
      "▁لقد": 1590,
      "▁حل": 1591,
      "▁النار": 1592,
      "▁احت": 1593,
      "رابي": 1594,
      "▁جار": 1595,
      "▁الشمس": 1596,
      "▁والف": 1597,
      "▁الحسين": 1598,
      "طة": 1599,
      "▁مضاف": 1600,
      "▁يوسف": 1601,
      "▁كقول": 1602,
      "▁فص": 1603,
      "▁عنده": 1604,
      "▁سبيل": 1605,
      "تك": 1606,
      "قطع": 1607,
      "بيب": 1608,
      "ية.": 1609,
      "▁رك": 1610,
      "▁فاست": 1611,
      "▁١٥": 1612,
      "فاعل": 1613,
      "▁واش": 1614,
      "ضب": 1615,
      "▁السنة": 1616,
      "هم.\n": 1617,
      "اتم": 1618,
      "▁وعبد": 1619,
      "▁\"ان": 1620,
      "▁اليها": 1621,
      "انيث": 1622,
      "▁هولاء": 1623,
      "ابة": 1624,
      "▁محم": 1625,
      "▁محذوف": 1626,
      "▁القص": 1627,
      "▁عليك": 1628,
      "▁الحج": 1629,
      "▁ارض": 1630,
      "ثم": 1631,
      "تر": 1632,
      "▁دي": 1633,
      "▁عنها": 1634,
      "▁مكة": 1635,
      "وجد": 1636,
      "ني،": 1637,
      "▁٢)": 1638,
      "▁باس": 1639,
      "اء:": 1640,
      "ونا": 1641,
      "ريرة": 1642,
      "▁شعر": 1643,
      "▁ممن": 1644,
      "ونث": 1645,
      "▁دل": 1646,
      "▁رس": 1647,
      "باع": 1648,
      "▁الهمزة": 1649,
      "▁(ع": 1650,
      "▁مك": 1651,
      "▁كقوله": 1652,
      "]:": 1653,
      "▁المدينة": 1654,
      "▁خلف": 1655,
      "▁الاعراب": 1656,
      "▁اض": 1657,
      "مائ": 1658,
      "▁حس": 1659,
      "▁كون": 1660,
      "▁الشام": 1661,
      "▁المومنين": 1662,
      "▁النون": 1663,
      "جمع": 1664,
      "▁فات": 1665,
      "▁وحد": 1666,
      "▁جري": 1667,
      "▁ذو": 1668,
      "طن": 1669,
      "▁والان": 1670,
      "▁منصوب": 1671,
      "▁فتح": 1672,
      "▁وجعل": 1673,
      "▁بالق": 1674,
      "▁وجد": 1675,
      "▁شر": 1676,
      "▁كم": 1677,
      "افعي": 1678,
      "▁وين": 1679,
      "بق": 1680,
      "▁يخرج": 1681,
      "▁وو": 1682,
      "غا": 1683,
      "▁الخطاب": 1684,
      "▁منه،": 1685,
      "تمع": 1686,
      "ياة": 1687,
      "▁يعني:": 1688,
      "كرة": 1689,
      "▁عيسي": 1690,
      "▁امير": 1691,
      "▁هشام": 1692,
      "اط": 1693,
      "▁سبع": 1694,
      "▁تز": 1695,
      "▁بشر": 1696,
      "فرق": 1697,
      "دق": 1698,
      "▁بعده": 1699,
      "▁بكسر": 1700,
      "وني": 1701,
      "▁تل": 1702,
      "وي،": 1703,
      "▁ظهر": 1704,
      "▁وانا": 1705,
      "ذن": 1706,
      "▁رم": 1707,
      "▁وبع": 1708,
      "▁القاضي": 1709,
      "يل،": 1710,
      "▁اليه،": 1711,
      "▁كلمة": 1712,
      "▁١٨": 1713,
      "يمان": 1714,
      "ية.\n": 1715,
      "▁اخري": 1716,
      "لات": 1717,
      "▁سيبويه": 1718,
      "دع": 1719,
      "طق": 1720,
      "دائ": 1721,
      "ياس": 1722,
      "▁مرة": 1723,
      "▁السا": 1724,
      "▁ــ": 1725,
      "▁صلاة": 1726,
      "▁اولي": 1727,
      "▁اية": 1728,
      "▁خط": 1729,
      "▁كله": 1730,
      "قيم": 1731,
      "▁الشع": 1732,
      "▁بـ": 1733,
      "▁وصف": 1734,
      "▁١٦": 1735,
      "▁قال:\n": 1736,
      "▁لب": 1737,
      "▁الشرط": 1738,
      "▁الجنة": 1739,
      "▁سلم": 1740,
      "▁١٧": 1741,
      "▁الخط": 1742,
      "▁الضمير": 1743,
      "▁در": 1744,
      "▁هريرة": 1745,
      "▁رضي": 1746,
      "▁الحا": 1747,
      "▁حر": 1748,
      "▁خاص": 1749,
      "طان": 1750,
      "كره": 1751,
      "▁قرا": 1752,
      "ود،": 1753,
      "▁ابت": 1754,
      "▁كثيرا": 1755,
      "وري": 1756,
      "▁ياء": 1757,
      "▁ويت": 1758,
      "يدة": 1759,
      "▁شا": 1760,
      "▁احدا": 1761,
      "ماد": 1762,
      "▁معنا": 1763,
      "▁حاج": 1764,
      "▁كت": 1765,
      "جرة": 1766,
      "▁خلاف": 1767,
      "▁ربي": 1768,
      "▁كلا": 1769,
      "▁منهما": 1770,
      "▁العلماء": 1771,
      "▁الوجه": 1772,
      "▁الاسماء": 1773,
      "ليد": 1774,
      "▁مذهب": 1775,
      "▁المراة": 1776,
      "انة": 1777,
      "▁كس": 1778,
      "وبا": 1779,
      "▁ورا": 1780,
      "▁ابيه": 1781,
      "▁جماعة": 1782,
      "▁واق": 1783,
      "▁المعت": 1784,
      "▁ثابت": 1785,
      "ثبت": 1786,
      "▁نصر": 1787,
      "خي": 1788,
      "▁ذات": 1789,
      "ش،": 1790,
      "▁الحافظ": 1791,
      "▁والر": 1792,
      "▁ماء": 1793,
      "▁صح": 1794,
      "قوب": 1795,
      "▁مقد": 1796,
      "▁الموت": 1797,
      "▁صالح": 1798,
      "▁يمكن": 1799,
      "▁(٧": 1800,
      "▁وبال": 1801,
      "▁وض": 1802,
      "وما": 1803,
      "سند": 1804,
      "▁الحر": 1805,
      "▁اللغ": 1806,
      "▁بعدها": 1807,
      "عدي": 1808,
      "▁واي": 1809,
      "اهرة": 1810,
      "▁راس": 1811,
      "▁المصدر": 1812,
      "كم،": 1813,
      "وار": 1814,
      "ونس": 1815,
      "▁سواء": 1816,
      "▁النفس": 1817,
      "▁يعت": 1818,
      "▁وهذه": 1819,
      "▁الجن": 1820,
      "▁فصل": 1821,
      "ضة": 1822,
      "▁معناه": 1823,
      "▁حك": 1824,
      "▁سبح": 1825,
      "▁يرد": 1826,
      "▁المسلمين": 1827,
      "ختص": 1828,
      "بي،": 1829,
      "ابه": 1830,
      "▁الابل": 1831,
      "▁والغ": 1832,
      "وته": 1833,
      "▁الثانية": 1834,
      "))": 1835,
      "▁ارت": 1836,
      "ركب": 1837,
      "عون": 1838,
      "▁واج": 1839,
      "▁انفس": 1840,
      "▁تغ": 1841,
      "▁ورب": 1842,
      "▁يجب": 1843,
      "▁الفضل": 1844,
      "▁الصحيح": 1845,
      "▁ايها": 1846,
      "▁الكوفي": 1847,
      "▁نزل": 1848,
      "هم.": 1849,
      "▁يدخل": 1850,
      "▁ليلة": 1851,
      "شف": 1852,
      "سلم": 1853,
      "▁واد": 1854,
      "▁الحي": 1855,
      "▁المق": 1856,
      "٢]": 1857,
      "▁التق": 1858,
      "عة،": 1859,
      "▁الامير": 1860,
      "ادر": 1861,
      "ض،": 1862,
      "▁سورة": 1863,
      "ان.\n": 1864,
      "▁شبه": 1865,
      "وجود": 1866,
      "▁المفعول": 1867,
      "▁لام": 1868,
      "▁خص": 1869,
      "▁المذكور": 1870,
      "▁تف": 1871,
      "▁جاز": 1872,
      "▁مال": 1873,
      "كام": 1874,
      "▁٣)": 1875,
      "▁عائشة": 1876,
      "▁نظر": 1877,
      "باح": 1878,
      "▁جميعا": 1879,
      "▁ليست": 1880,
      "▁وثلاث": 1881,
      "▁(٤)": 1882,
      "▁وظ": 1883,
      "ومة": 1884,
      "▁واحدة": 1885,
      "يد،": 1886,
      "ليم": 1887,
      "▁العالم": 1888,
      "▁امراة": 1889,
      "▁الات": 1890,
      "▁سفيان": 1891,
      "▁قبله": 1892,
      "▁الطويل": 1893,
      "ئب": 1894,
      "▁المال": 1895,
      "▁وفيها": 1896,
      "▁فيكون": 1897,
      "▁عدم": 1898,
      "▁يفعل": 1899,
      "▁(من": 1900,
      "حاديث": 1901,
      "▁الشاعر:\n": 1902,
      "برا": 1903,
      "▁يري": 1904,
      "نا:": 1905,
      "▁المقد": 1906,
      "زق": 1907,
      "▁عليكم": 1908,
      "وث": 1909,
      "▁خي": 1910,
      "▁معاوية": 1911,
      "فيف": 1912,
      "▁الاق": 1913,
      "▁التص": 1914,
      "▁والثاني": 1915,
      "ية:": 1916,
      "▁عاد": 1917,
      "▁ففي": 1918,
      "▁مطل": 1919,
      "خبر": 1920,
      "▁رد": 1921,
      "▁مه": 1922,
      "▁البع": 1923,
      "▁اسماء": 1924,
      "▁كنا": 1925,
      "▁وجمع": 1926,
      "▁البد": 1927,
      "▁الفاء": 1928,
      "▁قدر": 1929,
      "▁اقت": 1930,
      "▁عامر": 1931,
      "▁العق": 1932,
      "▁يقع": 1933,
      "اتل": 1934,
      "▁الشافعي": 1935,
      "▁خلا": 1936,
      "يني": 1937,
      "▁واخرج": 1938,
      "▁القت": 1939,
      "▁امت": 1940,
      "▁يوما": 1941,
      "▁ــ\n": 1942,
      "يمة": 1943,
      "▁كفر": 1944,
      "▁التح": 1945,
      "وم،": 1946,
      "▁مسعود": 1947,
      "▁بب": 1948,
      "▁منك": 1949,
      "▁والذي": 1950,
      "بعث": 1951,
      "▁مثله": 1952,
      "▁ويجوز": 1953,
      "▁سوي": 1954,
      "▁العام": 1955,
      "وخ": 1956,
      "جن": 1957,
      "▁وبعد": 1958,
      "▁الميم": 1959,
      "▁بقي": 1960,
      "▁عظيم": 1961,
      "منع": 1962,
      "قف": 1963,
      "▁الكس": 1964,
      "▁شك": 1965,
      "▁يصح": 1966,
      "▁الرب": 1967,
      "وش": 1968,
      "ا:": 1969,
      "▁التش": 1970,
      "▁زوج": 1971,
      "▁مط": 1972,
      "▁فرا": 1973,
      "شرين": 1974,
      "▁الاث": 1975,
      "قم": 1976,
      "▁يصل": 1977,
      "▁الزبير": 1978,
      "▁اربعة": 1979,
      "▁المل": 1980,
      "ته.\n": 1981,
      "]،": 1982,
      "▁بدل": 1983,
      "ولد": 1984,
      "▁حينئذ": 1985,
      "▁الحرف": 1986,
      "▁بالس": 1987,
      "▁عنه،": 1988,
      "▁مرت": 1989,
      "▁وقول": 1990,
      "حه": 1991,
      "ذل": 1992,
      "قة،": 1993,
      "▁الكلمة": 1994,
      "▁بيان": 1995,
      "▁قيس": 1996,
      "▁جواب": 1997,
      "▁الرسول": 1998,
      "▁عطف": 1999,
      "عيف": 2000,
      "▁اثر": 2001,
      "▁وبه": 2002,
      "▁البصري": 2003,
      "وجب": 2004,
      "▁العمل": 2005,
      "▁مقام": 2006,
      "▁سال": 2007,
      "سط": 2008,
      "▁بعث": 2009,
      "▁يط": 2010,
      "▁بها،": 2011,
      "▁ثقة": 2012,
      "▁عرض": 2013,
      "ساب": 2014,
      "▁جد": 2015,
      "▁متصل": 2016,
      "▁طلب": 2017,
      "مشق": 2018,
      "طيع": 2019,
      "ول،": 2020,
      "▁المبتدا": 2021,
      "▁وتع": 2022,
      "ميع": 2023,
      "رة:": 2024,
      "▁ايا": 2025,
      "بعض": 2026,
      "▁والجمع": 2027,
      "▁اربع": 2028,
      "لال": 2029,
      "▁بانه": 2030,
      "▁النساء": 2031,
      "▁\"م": 2032,
      "▁فهذا": 2033,
      "ولف": 2034,
      "▁بمنزلة": 2035,
      "▁(ل": 2036,
      "▁البل": 2037,
      "▁سلمة": 2038,
      "▁بقوله": 2039,
      "▁وصل": 2040,
      "▁العربية": 2041,
      "فهام": 2042,
      "▁وست": 2043,
      "▁لغ": 2044,
      "▁مني": 2045,
      "صور": 2046,
      "▁:\n": 2047,
      "رب،": 2048,
      "▁مرا": 2049,
      "▁لذلك": 2050,
      "▁حمل": 2051,
      "▁شرط": 2052,
      "▁٢٠": 2053,
      "▁جم": 2054,
      "انب": 2055,
      "▁كلها": 2056,
      "▁والط": 2057,
      "▁اجل": 2058,
      "راض": 2059,
      "نك": 2060,
      "▁وعمر": 2061,
      "▁ومحمد": 2062,
      "▁قولهم:": 2063,
      "▁مض": 2064,
      "▁نفي": 2065,
      "▁النصب": 2066,
      "▁السكون": 2067,
      "سبب": 2068,
      "▁المج": 2069,
      "باء": 2070,
      "▁طالب": 2071,
      "▁سبق": 2072,
      "▁المسجد": 2073,
      "غم": 2074,
      "هما،": 2075,
      "▁حج": 2076,
      "▁احدي": 2077,
      "▁والز": 2078,
      "▁الجر": 2079,
      "▁لكل": 2080,
      "▁الاي": 2081,
      "▁الكل": 2082,
      "▁ونا": 2083,
      "▁والمع": 2084,
      "باد": 2085,
      "يء": 2086,
      "▁حص": 2087,
      "عله": 2088,
      "▁المضاف": 2089,
      "▁وارب": 2090,
      "هري": 2091,
      "▁الصف": 2092,
      "ته.": 2093,
      "▁يجعل": 2094,
      "هاد": 2095,
      "▁ولذلك": 2096,
      "▁شهر": 2097,
      "و،": 2098,
      "نج": 2099,
      "▁عز": 2100,
      "▁وخمس": 2101,
      "٣]": 2102,
      "▁زياد": 2103,
      "▁الزمان": 2104,
      "▁امام": 2105,
      "▁السب": 2106,
      "▁للع": 2107,
      "افة": 2108,
      "عدة": 2109,
      "▁وامر": 2110,
      "▁بدر": 2111,
      "▁الاعرابي": 2112,
      "قين": 2113,
      "فاق": 2114,
      "عف": 2115,
      "▁اليك": 2116,
      "وام": 2117,
      "▁الاج": 2118,
      "▁قلي": 2119,
      "ط،": 2120,
      "اطب": 2121,
      "سك": 2122,
      "▁واخذ": 2123,
      "▁يعمل": 2124,
      "▁ترج": 2125,
      "▁جهة": 2126,
      "ز،": 2127,
      ")؛": 2128,
      "▁البحر": 2129,
      "▁تفسير": 2130,
      "صح": 2131,
      "▁لج": 2132,
      "▁قريش": 2133,
      "وة،": 2134,
      "▁فهم": 2135,
      "اره": 2136,
      "اية": 2137,
      "ثله": 2138,
      "ارج": 2139,
      "▁بلاد": 2140,
      "▁التاء": 2141,
      "▁القسم": 2142,
      "▁؛": 2143,
      "ومن": 2144,
      "▁حني": 2145,
      "▁ينب": 2146,
      "▁الموا": 2147,
      "▁جن": 2148,
      "▁ظاهر": 2149,
      "فيد": 2150,
      "▁اين": 2151,
      "با،": 2152,
      "▁سيد": 2153,
      "▁المعروف": 2154,
      "▁الوليد": 2155,
      "ظن": 2156,
      "▁لسان": 2157,
      "▁احب": 2158,
      "دي:": 2159,
      "وه،": 2160,
      "▁فعلي": 2161,
      "▁يعقوب": 2162,
      "قوا": 2163,
      "شياء": 2164,
      "▁علينا": 2165,
      "بيت": 2166,
      "▁٢١": 2167,
      "▁اليهم": 2168,
      "▁الناس،": 2169,
      "▁للح": 2170,
      "▁زاد": 2171,
      "سام": 2172,
      "▁الدع": 2173,
      "▁ارد": 2174,
      "▁الحاج": 2175,
      "▁فب": 2176,
      "▁معطوف": 2177,
      "ضوع": 2178,
      "واع": 2179,
      "▁المه": 2180,
      "▁اولا": 2181,
      "▁لس": 2182,
      "حية": 2183,
      "▁مغ": 2184,
      "▁معروف": 2185,
      "ابع": 2186,
      "هير": 2187,
      "!\n": 2188,
      "▁ويع": 2189,
      "▁منع": 2190,
      "ليفة": 2191,
      "▁ذاك": 2192,
      "▁اذن": 2193,
      "▁نحن": 2194,
      "ا\n": 2195,
      "▁المهم": 2196,
      "س:": 2197,
      "▁القلب": 2198,
      "▁الاصمع": 2199,
      "▁هناك": 2200,
      "وسي": 2201,
      "▁حن": 2202,
      "لائكة": 2203,
      "▁تط": 2204,
      "▁وغيره": 2205,
      "نم": 2206,
      "▁جا": 2207,
      "▁بالج": 2208,
      "▁بالضم": 2209,
      "▁حجر": 2210,
      "▁ينت": 2211,
      "▁بخلاف": 2212,
      "▁ثبت": 2213,
      "▁انزل": 2214,
      "▁الارب": 2215,
      "يم،": 2216,
      "▁بيد": 2217,
      "ائب": 2218,
      "▁للن": 2219,
      "▁دليل": 2220,
      "▁الفراء": 2221,
      "▁الظاهر": 2222,
      "▁قلب": 2223,
      "▁بالكسر": 2224,
      "▁ومر": 2225,
      "▁واسم": 2226,
      "ئك": 2227,
      "▁فجعل": 2228,
      "▁ويقول": 2229,
      "▁لابن": 2230,
      "▁الخلق": 2231,
      "▁الصحاب": 2232,
      "خير": 2233,
      "ارك": 2234,
      "▁لئ": 2235,
      "▁كبير": 2236,
      "ح:": 2237,
      "▁وسي": 2238,
      "▁اسلم": 2239,
      "مر،": 2240,
      "▁[من": 2241,
      "▁وعند": 2242,
      "اي": 2243,
      "▁الدولة": 2244,
      "▁قالت:": 2245,
      "▁نج": 2246,
      "▁نبي": 2247,
      "▁و-": 2248,
      "▁وجاء": 2249,
      "لس": 2250,
      "▁ادم": 2251,
      "▁يلي": 2252,
      "جلس": 2253,
      "▁الحياة": 2254,
      "▁مب": 2255,
      "وب،": 2256,
      "خلف": 2257,
      "عار": 2258,
      "▁١).\n": 2259,
      "وعة": 2260,
      "▁زمان": 2261,
      "جرد": 2262,
      "شاء": 2263,
      "ديق": 2264,
      "ثرة": 2265,
      "▁٢٢": 2266,
      "▁٤)": 2267,
      "▁حاتم": 2268,
      "▁عهد": 2269,
      "▁الشر": 2270,
      "في،": 2271,
      "▁الهاء": 2272,
      "ذيب": 2273,
      "▁وجملة": 2274,
      "▁الحم": 2275,
      "▁(ما": 2276,
      "▁٢٣": 2277,
      "▁الايمان": 2278,
      "▁٢٤": 2279,
      "▁٢٥": 2280,
      "▁وتس": 2281,
      "▁صدر": 2282,
      "▁الافعال": 2283,
      "ريك": 2284,
      "▁ذلك.\n": 2285,
      "▁الوج": 2286,
      "فاظ": 2287,
      "زوم": 2288,
      "▁سر": 2289,
      "▁قليل": 2290,
      "▁تكن": 2291,
      "▁وحدث": 2292,
      "▁حروف": 2293,
      "▁(٨": 2294,
      "▁بالص": 2295,
      "عو": 2296,
      "٠٠": 2297,
      "ب:": 2298,
      "رمذي": 2299,
      "▁(ح": 2300,
      "▁قبلها": 2301,
      "بر،": 2302,
      "▁مائة": 2303,
      "▁والل": 2304,
      "▁الحد": 2305,
      "▁لابي": 2306,
      "▁اصله": 2307,
      "▁النعم": 2308,
      "▁اللهم": 2309,
      "▁امرا": 2310,
      "▁الانصاري": 2311,
      "▁ويد": 2312,
      "نات": 2313,
      "▁يلزم": 2314,
      "▁بقوله:": 2315,
      "▁الجوه": 2316,
      "▁ومجرور": 2317,
      "▁التن": 2318,
      "ودة": 2319,
      "▁الرجال": 2320,
      "▁ولقد": 2321,
      "▁الفصل": 2322,
      "▁الجاه": 2323,
      "▁قولك:": 2324,
      "▁بث": 2325,
      "▁فقط": 2326,
      "▁وهما": 2327,
      "ان.": 2328,
      "ث،": 2329,
      "شم": 2330,
      "▁غز": 2331,
      "▁فيهم": 2332,
      "▁كعب": 2333,
      "▁افت": 2334,
      "▁اخرجه": 2335,
      "▁ضر": 2336,
      "نائ": 2337,
      "جمة": 2338,
      "جار": 2339,
      "▁والمعني": 2340,
      "ونها": 2341,
      "▁مضارع": 2342,
      "▁زيد،": 2343,
      "▁هكذا": 2344,
      "▁فيهما": 2345,
      "اتب": 2346,
      "▁ظرف": 2347,
      "▁جواز": 2348,
      "▁فليس": 2349,
      "حوال": 2350,
      "▁السن": 2351,
      "▁الفق": 2352,
      "▁الاعت": 2353,
      "▁صل": 2354,
      "▁فخرج": 2355,
      "ــــــــــــــــــــــــــــــــ": 2356,
      "▁مي": 2357,
      "▁كثيرة": 2358,
      "فصل": 2359,
      "▁عندي": 2360,
      "▁(ج": 2361,
      "▁تاريخ": 2362,
      "▁فقلت:": 2363,
      "بيان": 2364,
      "▁واو": 2365,
      "▁عنهم": 2366,
      "▁القد": 2367,
      "▁ويكون": 2368,
      "▁الماضي": 2369,
      "مكن": 2370,
      "▁بناء": 2371,
      "قا،": 2372,
      "▁اشد": 2373,
      "▁صوت": 2374,
      "▁وسمع": 2375,
      "▁عدي": 2376,
      "▁قالت": 2377,
      "▁فضل": 2378,
      "▁الكثير": 2379,
      "راء،": 2380,
      "▁فلو": 2381,
      "▁مفت": 2382,
      "ه)": 2383,
      "▁(س": 2384,
      "▁بالفتح": 2385,
      "▁يعد": 2386,
      "خة": 2387,
      "▁بنفس": 2388,
      "▁واللام": 2389,
      "▁الرفع": 2390,
      "▁قصد": 2391,
      "▁لقي": 2392,
      "▁ايضا:": 2393,
      "▁البلا": 2394,
      "ج،": 2395,
      "▁الحب": 2396,
      "▁ينا": 2397,
      "▁\".\n": 2398,
      "▁\"من": 2399,
      "▁وجود": 2400,
      "امن": 2401,
      "هنا": 2402,
      "▁الروم": 2403,
      "▁جرير": 2404,
      "داة": 2405,
      "▁النح": 2406,
      "▁مولي": 2407,
      "):\n": 2408,
      "ربة": 2409,
      "هات": 2410,
      "▁الحروف": 2411,
      "▁سم": 2412,
      "▁مثال": 2413,
      "ابي": 2414,
      "كيف": 2415,
      "▁يسمع": 2416,
      "▁الدي": 2417,
      "▁افضل": 2418,
      "ابل": 2419,
      "▁جابر": 2420,
      "▁الكاف": 2421,
      "▁...\n": 2422,
      "▁نب": 2423,
      "▁النحو": 2424,
      "عوا": 2425,
      "▁[س": 2426,
      "▁سبب": 2427,
      "▁وذ": 2428,
      "▁(ي": 2429,
      "وين": 2430,
      "▁تعلم": 2431,
      "▁حول": 2432,
      "▁عاص": 2433,
      "▁نوع": 2434,
      "حتمل": 2435,
      "▁افعل": 2436,
      "▁فيها،": 2437,
      "▁ته": 2438,
      "▁وعلامة": 2439,
      "▁منكم": 2440,
      "سي،": 2441,
      "▁واحد،": 2442,
      "▁الحرب": 2443,
      "بارة": 2444,
      "▁به.\n": 2445,
      "▁وبعض": 2446,
      "▁(و)": 2447,
      "▁كونه": 2448,
      "راع": 2449,
      "▁الموضع": 2450,
      "▁اللب": 2451,
      "▁والاست": 2452,
      "صة": 2453,
      "▁سير": 2454,
      "▁زيادة": 2455,
      "▁المقص": 2456,
      "▁٢٦": 2457,
      "راس": 2458,
      "▁(وال": 2459,
      "▁والجملة": 2460,
      "▁رجال": 2461,
      "▁لص": 2462,
      "▁(١).\n": 2463,
      "▁الدهر": 2464,
      "▁(ز": 2465,
      "▁الادب": 2466,
      "▁كـ": 2467,
      "▁اعط": 2468,
      "احب": 2469,
      "▁القل": 2470,
      "▁الاخرة": 2471,
      "▁السلام": 2472,
      "▁يجمع": 2473,
      "▁ينبغي": 2474,
      "شية": 2475,
      "فو": 2476,
      "١،": 2477,
      "▁كسر": 2478,
      "▁مخت": 2479,
      "▁٢٧": 2480,
      "▁مضي": 2481,
      "▁وسلم": 2482,
      "▁وشر": 2483,
      "▁ساكن": 2484,
      "علي": 2485,
      "▁المدين": 2486,
      "بيد": 2487,
      "ثلة": 2488,
      "▁القيامة": 2489,
      "▁اليهود": 2490,
      "وكيد": 2491,
      "▁قلوب": 2492,
      "▁انظر": 2493,
      "▁طال": 2494,
      "ورد": 2495,
      "▁ولكنه": 2496,
      "▁راسه": 2497,
      "▁وزن": 2498,
      "▁الصفة": 2499,
      "▁الاك": 2500,
      "▁ايضا،": 2501,
      "اة": 2502,
      "▁رمض": 2503,
      "▁٢٨": 2504,
      "▁السي": 2505,
      "ضمن": 2506,
      "▁العظيم": 2507,
      "▁يونس": 2508,
      "▁اصاب": 2509,
      "ذفت": 2510,
      "٤]": 2511,
      "▁وفتح": 2512,
      "▁ماض": 2513,
      "▁(لا": 2514,
      "▁هذا،": 2515,
      "▁دخلت": 2516,
      "▁خيرا": 2517,
      "ق:": 2518,
      "▁الايات": 2519,
      "صر،": 2520,
      "▁اري": 2521,
      "فاع": 2522,
      "صبح": 2523,
      "ودا": 2524,
      "▁ومعني": 2525,
      "▁بشيء": 2526,
      "▁(٥)": 2527,
      "▁الوقت": 2528,
      "▁الخير": 2529,
      "▁صي": 2530,
      "▁وتح": 2531,
      "▁الطريق": 2532,
      "▁عني": 2533,
      "▁[م": 2534,
      "بدل": 2535,
      "▁قسم": 2536,
      "▁الثاني:": 2537,
      "▁المسي": 2538,
      "▁كف": 2539,
      "قض": 2540,
      "▁سل": 2541,
      "▁ومما": 2542,
      "▁وخرج": 2543,
      "▁[١]": 2544,
      "▁(ك": 2545,
      "▁معت": 2546,
      "ناف": 2547,
      "▁يسمي": 2548,
      "▁التانيث": 2549,
      "امت": 2550,
      "▁سائر": 2551,
      "ائفة": 2552,
      "▁الرك": 2553,
      "▁مثل:": 2554,
      "وضع": 2555,
      "خلق": 2556,
      "▁اعراب": 2557,
      "▁وراء": 2558,
      "▁الباء": 2559,
      "▁ثعل": 2560,
      "غني": 2561,
      "قال:": 2562,
      "▁ربك": 2563,
      "▁معرفة": 2564,
      "▁الحديث:": 2565,
      "▁ويح": 2566,
      "▁بالب": 2567,
      "▁\"ت": 2568,
      "▁يده": 2569,
      "مهور": 2570,
      "ضعف": 2571,
      "وقف": 2572,
      "ينه": 2573,
      "▁شئت": 2574,
      "▁نقل": 2575,
      "صدر": 2576,
      "▁البغ": 2577,
      "▁بدا": 2578,
      "▁ولهذا": 2579,
      "▁به.": 2580,
      "▁خر": 2581,
      "▁امنوا": 2582,
      "▁الليث": 2583,
      "▁عباد": 2584,
      "▁كن": 2585,
      "▁بالش": 2586,
      "لاب": 2587,
      "ائه": 2588,
      "▁ارا": 2589,
      "وغ": 2590,
      "ائم": 2591,
      "٢،": 2592,
      "▁يجد": 2593,
      "▁والمراد": 2594,
      "▁معل": 2595,
      "▁الكتب": 2596,
      "▁كي": 2597,
      "ثا": 2598,
      "وي:": 2599,
      "▁يقوم": 2600,
      "▁للك": 2601,
      "ان\n": 2602,
      "رون": 2603,
      "▁احي": 2604,
      "▁بنو": 2605,
      "قيه": 2606,
      "▁قراءة": 2607,
      "▁نت": 2608,
      "حيث": 2609,
      "جتمع": 2610,
      "▁فخ": 2611,
      "▁فذكر": 2612,
      "طه": 2613,
      "▁ثاني": 2614,
      "▁(عن": 2615,
      "▁الحجاج": 2616,
      "▁المتكلم": 2617,
      "ياب": 2618,
      "▁كا": 2619,
      "قاد": 2620,
      "▁٢).\n": 2621,
      "▁اعلم.\n": 2622,
      "▁تنا": 2623,
      "▁اشبه": 2624,
      "▁ومنهم": 2625,
      "▁قطع": 2626,
      "▁انتهي.\n": 2627,
      "ظاهر": 2628,
      "▁العم": 2629,
      "سد": 2630,
      "▁الفرس": 2631,
      "▁عج": 2632,
      "▁الكريم": 2633,
      "ثة": 2634,
      "هام": 2635,
      "▁فصار": 2636,
      "ذان": 2637,
      "▁وترك": 2638,
      "▁لغير": 2639,
      "▁اكل": 2640,
      "▁باسم": 2641,
      "▁الجمعة": 2642,
      "▁يصلي": 2643,
      "▁اسمه": 2644,
      "▁اسما": 2645,
      "امس": 2646,
      "كار": 2647,
      "▁العامل": 2648,
      "▁الله:": 2649,
      "▁[سورة": 2650,
      "▁فش": 2651,
      "▁واله": 2652,
      "مييز": 2653,
      "▁ارسل": 2654,
      "▁الجم": 2655,
      "غيرة": 2656,
      "▁ذكرنا": 2657,
      "▁ورس": 2658,
      "▁متي": 2659,
      "▁لكان": 2660,
      "▁فاخذ": 2661,
      "▁طرف": 2662,
      "▁المفرد": 2663,
      "▁كر": 2664,
      "ون.\n": 2665,
      "▁السم": 2666,
      "يته": 2667,
      "ظة": 2668,
      "▁شهد": 2669,
      "▁قولهم": 2670,
      "▁]": 2671,
      "وفة": 2672,
      "صوص": 2673,
      "ونة": 2674,
      "▁يشت": 2675,
      "▁اعمال": 2676,
      "▁التا": 2677,
      "▁٢٩": 2678,
      "▁وفر": 2679,
      "▁لانهم": 2680,
      "▁\"ما": 2681,
      "▁اللا": 2682,
      "▁شان": 2683,
      "▁اسرائ": 2684,
      "▁يظهر": 2685,
      "▁فجاء": 2686,
      "▁)": 2687,
      "ظي": 2688,
      "لو": 2689,
      "▁امره": 2690,
      "▁فانها": 2691,
      "▁شعب": 2692,
      "▁اجتمع": 2693,
      "▁الهي": 2694,
      "▁واعت": 2695,
      "▁زائدة": 2696,
      "لكم": 2697,
      "▁البح": 2698,
      "▁فرس": 2699,
      "▁طا": 2700,
      "▁ومثله": 2701,
      "▁اظ": 2702,
      "▁الصالح": 2703,
      "▁وسكون": 2704,
      "▁جاءت": 2705,
      "▁ومنها": 2706,
      "ليس": 2707,
      "▁النب": 2708,
      "▁خمسة": 2709,
      "▁التقدير": 2710,
      "▁مثلا": 2711,
      "▁اوا": 2712,
      "▁وسبع": 2713,
      "▁اخي": 2714,
      "▁لش": 2715,
      "وضا": 2716,
      "▁نافع": 2717,
      "▁الكبير": 2718,
      "▁سما": 2719,
      "▁الصد": 2720,
      "▁ابنه": 2721,
      "امي": 2722,
      "▁شه": 2723,
      "▁مفع": 2724,
      "ودي": 2725,
      "حف": 2726,
      "▁بينهم": 2727,
      "▁وكسر": 2728,
      "▁المكان": 2729,
      "▁نه": 2730,
      "▁اهم": 2731,
      "▁ثمان": 2732,
      "▁قوله:\n": 2733,
      "را\n": 2734,
      "▁جنا": 2735,
      "▁\"،": 2736,
      "▁صلة": 2737,
      "ارت": 2738,
      "▁مفر": 2739,
      "▁الزي": 2740,
      "▁التم": 2741,
      "▁فرع": 2742,
      "قاق": 2743,
      "▁ويست": 2744,
      "▁(اب": 2745,
      "▁علامة": 2746,
      "٣،": 2747,
      "ين\n": 2748,
      "▁مشت": 2749,
      "▁صال": 2750,
      "يره": 2751,
      "▁مز": 2752,
      "▁ليت": 2753,
      "▁يروي": 2754,
      "▁الفار": 2755,
      "▁تمام": 2756,
      "ا.\n": 2757,
      "▁اجمع": 2758,
      "▁الدا": 2759,
      "▁اختلف": 2760,
      "▁واخر": 2761,
      "▁الساكن": 2762,
      "▁عبيدة": 2763,
      "▁المشر": 2764,
      "ما\n": 2765,
      "▁حنيفة": 2766,
      "▁جائ": 2767,
      "عي،": 2768,
      "▁\"لا": 2769,
      "هـ": 2770,
      "نون": 2771,
      "قي،": 2772,
      "▁وقرا": 2773,
      "▁نسبة": 2774,
      "ثناء": 2775,
      "▁سيف": 2776,
      "سكر": 2777,
      "دري": 2778,
      "▁بهذه": 2779,
      "▁الرابع": 2780,
      "٥]": 2781,
      "بره": 2782,
      "▁الخليل": 2783,
      "▁حسب": 2784,
      "راح": 2785,
      "▁يقتضي": 2786,
      "▁\"ف": 2787,
      "▁لد": 2788,
      "▁الامور": 2789,
      "▁بالض": 2790,
      "▁يعود": 2791,
      "▁(وا": 2792,
      "▁ربيع": 2793,
      "▁ادري": 2794,
      "▁بعضها": 2795,
      "▁القب": 2796,
      "▁(٩": 2797,
      "▁عدد": 2798,
      "▁صلا": 2799,
      "▁اليم": 2800,
      "▁المز": 2801,
      "▁وجوه": 2802,
      "▁الطعام": 2803,
      "▁واصل": 2804,
      "▁بسبب": 2805,
      "سع": 2806,
      "وقع": 2807,
      "مي،": 2808,
      "▁-\n": 2809,
      "▁قبي": 2810,
      "▁واخت": 2811,
      "▁قتادة": 2812,
      "▁يات": 2813,
      "كين": 2814,
      "▁صورة": 2815,
      "▁الجواب": 2816,
      "فقه": 2817,
      "▁الجل": 2818,
      "▁كتابه": 2819,
      "▁التو": 2820,
      "▁٣١": 2821,
      "ريع": 2822,
      "▁ورجل": 2823,
      "▁الثلاثة": 2824,
      "▁خز": 2825,
      "حمة": 2826,
      "▁المثل": 2827,
      "▁وفا": 2828,
      "طلع": 2829,
      "▁عنه:": 2830,
      "فسر": 2831,
      "▁نوا": 2832,
      "▁شدي": 2833,
      "لاك": 2834,
      "جلي": 2835,
      "▁واحدا": 2836,
      "▁لهذا": 2837,
      "▁وربما": 2838,
      "صال": 2839,
      "ئر": 2840,
      "▁حرب": 2841,
      "▁حما": 2842,
      "▁دمشق": 2843,
      "▁مررت": 2844,
      "▁وجهه": 2845,
      "فة،": 2846,
      "▁سهل": 2847,
      "▁العا": 2848,
      "▁والاخ": 2849,
      "▁الظرف": 2850,
      "ظل": 2851,
      "قاب": 2852,
      "تان": 2853,
      "▁وقل": 2854,
      "▁زعم": 2855,
      "▁مهم": 2856,
      "▁ابدا": 2857,
      "▁واف": 2858,
      "▁المسالة": 2859,
      "تا": 2860,
      "▁دخول": 2861,
      "▁تاب": 2862,
      "▁يضرب": 2863,
      "▁(في": 2864,
      "٠)": 2865,
      "▁غلام": 2866,
      "▁[٢]": 2867,
      "▁بار": 2868,
      "صدق": 2869,
      "▁وجب": 2870,
      "بة:": 2871,
      "ارية": 2872,
      "▁فكيف": 2873,
      "▁عندهم": 2874,
      "ام،": 2875,
      "حدة": 2876,
      "بي:": 2877,
      "▁الوز": 2878,
      "فر،": 2879,
      "شديد": 2880,
      "▁نفسي": 2881,
      "▁اليمن": 2882,
      "▁مقص": 2883,
      "▁ربيعة": 2884,
      "▁اخره": 2885,
      "▁عص": 2886,
      "▁الاخبار": 2887,
      "▁يحمل": 2888,
      "▁بينه": 2889,
      "▁فقالوا:": 2890,
      "راط": 2891,
      "▁الراء": 2892,
      "▁همزة": 2893,
      "▁والمن": 2894,
      "▁منصور": 2895,
      "▁الها": 2896,
      "زه": 2897,
      "▁الاول:": 2898,
      "٤،": 2899,
      "▁بالي": 2900,
      "▁بكل": 2901,
      "▁ديوان": 2902,
      "▁وتن": 2903,
      "▁ومثل": 2904,
      "▁عمر،": 2905,
      "ني:": 2906,
      "▁فرق": 2907,
      "▁بالفعل": 2908,
      "▁الجمل": 2909,
      "▁قرب": 2910,
      "▁يقل": 2911,
      "▁الاول،": 2912,
      "▁البلاد": 2913,
      "▁٣٠": 2914,
      "▁النحوي": 2915,
      "▁الملائكة": 2916,
      "▁وعشرين": 2917,
      "▁ظن": 2918,
      "▁تدخل": 2919,
      "▁والارض": 2920,
      "▁وكتب": 2921,
      "قون": 2922,
      "▁النظر": 2923,
      "▁الاط": 2924,
      "▁لولا": 2925,
      "▁دائ": 2926,
      "▁الترك": 2927,
      "▁اموال": 2928,
      "رضي": 2929,
      "▁ابيه،": 2930,
      "▁اللسان": 2931,
      "▁ايوب": 2932,
      "▁علا": 2933,
      "▁(٢).\n": 2934,
      "▁الشيطان": 2935,
      "شهد": 2936,
      "▁سيبوي": 2937,
      "▁الموص": 2938,
      "ثنية": 2939,
      "▁سوا": 2940,
      "بياء": 2941,
      "▁(ص": 2942,
      "▁قائم": 2943,
      "▁العطف": 2944,
      "▁الثق": 2945,
      "▁المشرك": 2946,
      "▁ظل": 2947,
      "▁والنس": 2948,
      "▁الطب": 2949,
      "عبة": 2950,
      "▁مجري": 2951,
      "▁٥)": 2952,
      "▁انشد": 2953,
      "ك.": 2954,
      "▁ضعيف": 2955,
      "▁المط": 2956,
      "▁عدا": 2957,
      "▁عليه.\n": 2958,
      "▁هما": 2959,
      "▁المولف": 2960,
      "▁الحمد": 2961,
      "برة": 2962,
      "▁يومن": 2963,
      "▁لكون": 2964,
      "▁سبحانه": 2965,
      "ريض": 2966,
      "▁عدة": 2967,
      "▁ثالث": 2968,
      "▁رحمه": 2969,
      "غب": 2970,
      "▁وهب": 2971,
      "خلص": 2972,
      "ا.": 2973,
      "▁الذكر": 2974,
      "فش": 2975,
      "▁نور": 2976,
      "ناع": 2977,
      "▁بوا": 2978,
      "▁الحس": 2979,
      "▁واعلم": 2980,
      "▁ذر": 2981,
      "قن": 2982,
      "▁المعاني": 2983,
      "▁الست": 2984,
      "ارف": 2985,
      "▁بالخ": 2986,
      "▁رح": 2987,
      "حسن": 2988,
      "هر،": 2989,
      "▁بمع": 2990,
      "▁ري": 2991,
      "كري": 2992,
      "١.\n": 2993,
      "▁التاريخ": 2994,
      "▁وحكي": 2995,
      "▁شديد": 2996,
      "▁بلفظ": 2997,
      "▁النفي": 2998,
      "▁لدي": 2999,
      "▁الري": 3000,
      "▁الطيب": 3001,
      "▁فالا": 3002,
      "▁علي،": 3003,
      "▁غيره،": 3004,
      "▁دعا": 3005,
      "▁وبا": 3006,
      "▁العصر": 3007,
      "▁واحت": 3008,
      "▁(قوله:": 3009,
      "تيب": 3010,
      "▁السما": 3011,
      "٥،": 3012,
      "▁رجع": 3013,
      "عتبار": 3014,
      "▁حبيب": 3015,
      "▁جبل": 3016,
      "بن": 3017,
      "▁يرجع": 3018,
      "▁الخمس": 3019,
      "▁مم": 3020,
      "▁العبد": 3021,
      "دوا": 3022,
      "▁منها،": 3023,
      "▁اجت": 3024,
      "▁وثمان": 3025,
      "ميز": 3026,
      "▁(الم": 3027,
      "نوين": 3028,
      "▁بالغ": 3029,
      "هو": 3030,
      "لمي": 3031,
      "ناب": 3032,
      "▁حقيقة": 3033,
      "▁الاسود": 3034,
      "شري": 3035,
      "▁غر": 3036,
      "▁ولل": 3037,
      "▁المحذوف": 3038,
      "▁الجماعة": 3039,
      "▁المخت": 3040,
      "،\n": 3041,
      "▁اشار": 3042,
      "▁قصر": 3043,
      "▁الترمذي": 3044,
      "▁حض": 3045,
      "▁اقل": 3046,
      "▁قوة": 3047,
      "▁قي": 3048,
      "▁حجة": 3049,
      "▁ياخذ": 3050,
      "▁(ن": 3051,
      "حرك": 3052,
      "▁الحديث،": 3053,
      "خول": 3054,
      "برد": 3055,
      "▁منذ": 3056,
      "▁وذهب": 3057,
      "افع": 3058,
      "▁واصحاب": 3059,
      "▁المصري": 3060,
      "غفر": 3061,
      "عا،": 3062,
      "▁الكري": 3063,
      "▁ملا": 3064,
      "حوا": 3065,
      "▁المضارع": 3066,
      "▁مدة": 3067,
      "▁وهل": 3068,
      "▁بهما": 3069,
      "١)": 3070,
      "▁نعيم": 3071,
      "▁النج": 3072,
      "جعل": 3073,
      "▁تدل": 3074,
      "▁العاص": 3075,
      "▁المي": 3076,
      "▁ذلك.": 3077,
      "▁\"ل": 3078,
      "▁نزلت": 3079,
      "▁عنا": 3080,
      "▁٣٦": 3081,
      "▁طوي": 3082,
      "ريقة": 3083,
      "▁المطلب": 3084,
      "▁ايمان": 3085,
      "كما": 3086,
      "▁الزم": 3087,
      "بقرة:": 3088,
      "▁محمد،": 3089,
      "▁ايدي": 3090,
      "▁عوف": 3091,
      "▁عليها،": 3092,
      "▁عب": 3093,
      "▁العن": 3094,
      "▁الني": 3095,
      "ضت": 3096,
      "ائف": 3097,
      "▁فاني": 3098,
      "سنة": 3099,
      "▁التر": 3100,
      "▁النوع": 3101,
      "▁ربه": 3102,
      "طاع": 3103,
      "حيط": 3104,
      "▁تقديره": 3105,
      "▁سلام": 3106,
      "▁يديه": 3107,
      "▁القياس": 3108,
      "▁الكامل": 3109,
      "▁كنتم": 3110,
      "▁حبان": 3111,
      "واز": 3112,
      "▁نقول:": 3113,
      "▁٣٢": 3114,
      "▁(خ": 3115,
      "هود": 3116,
      "▁العقل": 3117,
      "▁التك": 3118,
      "سيط": 3119,
      "▁بام": 3120,
      "▁الرواية": 3121,
      "▁الابت": 3122,
      "▁طب": 3123,
      "كاة": 3124,
      "ته:": 3125,
      "▁شمس": 3126,
      "▁حماد": 3127,
      "▁جنس": 3128,
      "▁تعد": 3129,
      "▁نك": 3130,
      "▁٣٣": 3131,
      "▁يومئذ": 3132,
      "اء.\n": 3133,
      "زوج": 3134,
      "▁ادرك": 3135,
      "زيادة": 3136,
      "ضيف": 3137,
      "▁والام": 3138,
      "▁اريد": 3139,
      "▁جما": 3140,
      "▁مروان": 3141,
      "حدثنا": 3142,
      "▁قليلا": 3143,
      "▁المرا": 3144,
      "انع": 3145,
      "▁عف": 3146,
      "▁واض": 3147,
      "افية": 3148,
      "▁ساب": 3149,
      "▁يقدر": 3150,
      "▁يجز": 3151,
      "▁جزء": 3152,
      "شب": 3153,
      "ذات": 3154,
      "وية،": 3155,
      "▁انسان": 3156,
      "▁لنفس": 3157,
      "▁واكثر": 3158,
      "▁\"ي": 3159,
      "▁فيقول": 3160,
      "▁معد": 3161,
      "▁والواو": 3162,
      "▁بالف": 3163,
      "▁يحتمل": 3164,
      "اض": 3165,
      "▁حفص": 3166,
      "▁بالواو": 3167,
      "▁بعضهم:": 3168,
      "قها": 3169,
      "٢)": 3170,
      "▁واه": 3171,
      "▁الربيع": 3172,
      "▁الصحابة": 3173,
      "ورة،": 3174,
      "ظام": 3175,
      "................": 3176,
      "▁ابل": 3177,
      "ظلم": 3178,
      "▁حز": 3179,
      "رف،": 3180,
      "▁٣٤": 3181,
      "▁سالم": 3182,
      "▁٣٧": 3183,
      "▁ونحن": 3184,
      "▁وعليه": 3185,
      "▁نصف": 3186,
      "طين": 3187,
      "▁(١)\n": 3188,
      "رفه": 3189,
      "▁الحك": 3190,
      "▁عن:": 3191,
      "م\n": 3192,
      "▁باي": 3193,
      "▁مرض": 3194,
      "اني:": 3195,
      "▁مول": 3196,
      "▁تقديم": 3197,
      "ق\n": 3198,
      "▁وار": 3199,
      "▁النف": 3200,
      "اخر": 3201,
      "▁الار": 3202,
      "▁النحا": 3203,
      "راب،": 3204,
      "صن": 3205,
      "▁الاعم": 3206,
      "▁المجاز": 3207,
      "▁الكر": 3208,
      "▁(ق": 3209,
      "ون.": 3210,
      "٦،": 3211,
      "نتين": 3212,
      "▁اوله": 3213,
      "▁\"ج": 3214,
      "\"\n": 3215,
      "▁الموصول": 3216,
      "\"؛": 3217,
      "▁بلي": 3218,
      "قية": 3219,
      "▁اشارة": 3220,
      "▁علمت": 3221,
      "▁البناء": 3222,
      "▁يكتب": 3223,
      "▁فالم": 3224,
      "▁هن": 3225,
      "هاجر": 3226,
      "▁جبير": 3227,
      "▁اصحابه": 3228,
      "▁استعمال": 3229,
      "▁تريد": 3230,
      "▁دم": 3231,
      "بارك": 3232,
      "▁الفرق": 3233,
      "▁وهكذا": 3234,
      "▁استع": 3235,
      "▁واحمد": 3236,
      "▁يحتاج": 3237,
      "▁تسع": 3238,
      "▁وقتل": 3239,
      "▁يمنع": 3240,
      "▁فيه:": 3241,
      "وفا": 3242,
      "▁يحب": 3243,
      "▁حفظ": 3244,
      "وحة": 3245,
      "▁اولئك": 3246,
      "▁تميم": 3247,
      "▁المهملة": 3248,
      "▁وقعت": 3249,
      "▁ومات": 3250,
      "▁٣٥": 3251,
      "▁نعت": 3252,
      "ساكر": 3253,
      "▁وتوفي": 3254,
      "▁حرم": 3255,
      "بوت": 3256,
      "صير": 3257,
      "▁بمعني:": 3258,
      "تني": 3259,
      "▁فانت": 3260,
      "▁اسرائيل": 3261,
      "٨،": 3262,
      "▁كقولك:": 3263,
      "بان": 3264,
      "▁لر": 3265,
      "▁عذاب": 3266,
      "▁اخبرني": 3267,
      "▁٣).\n": 3268,
      "زلت": 3269,
      "▁(٦)": 3270,
      "بعه": 3271,
      "▁اجر": 3272,
      "▁فارس": 3273,
      "▁غي": 3274,
      "متنع": 3275,
      "شار": 3276,
      "تي،": 3277,
      "صيص": 3278,
      "▁سالت": 3279,
      "▁جانب": 3280,
      "▁الايام": 3281,
      "هم:": 3282,
      "▁يحدث": 3283,
      "▁السك": 3284,
      "▁[البقرة:": 3285,
      "▁الاخري": 3286,
      "▁مستتر": 3287,
      "▁حرك": 3288,
      "▁فرض": 3289,
      "طار": 3290,
      "▁الاستفهام": 3291,
      "▁حكي": 3292,
      "▁رمضان": 3293,
      "▁حاجة": 3294,
      "اد،": 3295,
      "٣)": 3296,
      "▁للج": 3297,
      "▁روح": 3298,
      "▁وتق": 3299,
      "بالغة": 3300,
      "ه؛": 3301,
      "ربت": 3302,
      "▁دفع": 3303,
      "▁اهله": 3304,
      "▁فتقول:": 3305,
      "▁\"ع": 3306,
      "٧،": 3307,
      "ربا": 3308,
      "▁حميد": 3309,
      "▁ويا": 3310,
      "▁ترا": 3311,
      "▁وقوع": 3312,
      "▁عت": 3313,
      "فية": 3314,
      "▁الحقيقة": 3315,
      "▁قاضي": 3316,
      "▁وقالوا:": 3317,
      "▁الامة": 3318,
      "▁بالمع": 3319,
      "▁الوصف": 3320,
      "ها)": 3321,
      "▁فاد": 3322,
      "▁حركة": 3323,
      "▁مواضع": 3324,
      "▁الصوت": 3325,
      "▁الخيل": 3326,
      "▁انفسهم": 3327,
      "▁دينار": 3328,
      "ع:": 3329,
      "د\n": 3330,
      "▁كثر": 3331,
      "طاء": 3332,
      "▁غاية": 3333,
      "▁امية": 3334,
      "٩،": 3335,
      "▁ينظر": 3336,
      "▁جبري": 3337,
      "خم": 3338,
      "▁الاغ": 3339,
      "▁والمر": 3340,
      "▁طول": 3341,
      "▁ظلم": 3342,
      "▁يقولون": 3343,
      "الية": 3344,
      "▁كلامه": 3345,
      "▁القدر": 3346,
      "صم": 3347,
      "قيت": 3348,
      "زة،": 3349,
      "▁الناقة": 3350,
      "ئمة": 3351,
      "▁ترد": 3352,
      "▁اكبر": 3353,
      "▁فاب": 3354,
      "▁انتم": 3355,
      "▁ووا": 3356,
      "▁٣٨": 3357,
      "▁الارض،": 3358,
      "▁ضي": 3359,
      "▁اردت": 3360,
      "٤)": 3361,
      "تهما": 3362,
      "▁مدينة": 3363,
      "ناك": 3364,
      "▁بالضمة": 3365,
      "▁طي": 3366,
      "▁(الا": 3367,
      "▁\"و": 3368,
      "▁الشريف": 3369,
      "▁[٣]": 3370,
      "▁فز": 3371,
      "▁عقد": 3372,
      "▁تجد": 3373,
      "▁اعظم": 3374,
      "▁قضي": 3375,
      "▁سار": 3376,
      "▁ورسوله": 3377,
      "▁للس": 3378,
      "▁تكلم": 3379,
      "▁معاذ": 3380,
      "٥)": 3381,
      "▁الفي": 3382,
      "ضمر": 3383,
      "▁مجاهد": 3384,
      "▁يلت": 3385,
      "▁عطاء": 3386,
      "مامة": 3387,
      "ختلاف": 3388,
      "▁اعم": 3389,
      "▁يجري": 3390,
      "▁الجبل": 3391,
      "▁الدال": 3392,
      "زاء": 3393,
      "▁مشي": 3394,
      "▁فقل": 3395,
      "▁ورج": 3396,
      "▁للناس": 3397,
      "▁صاد": 3398,
      "عة:": 3399,
      "جري": 3400,
      "▁انش": 3401,
      "▁امة": 3402,
      "▁يقبل": 3403,
      "▁القيام": 3404,
      "▁شدة": 3405,
      "▁مجرور": 3406,
      "ها؛": 3407,
      "▁محا": 3408,
      "▁للتع": 3409,
      "▁الاندل": 3410,
      "▁الحاكم": 3411,
      "▁\"ب": 3412,
      "▁الانصار": 3413,
      "▁واهل": 3414,
      "▁اعد": 3415,
      "جاوز": 3416,
      "▁فغ": 3417,
      "▁الاه": 3418,
      "▁مطلقا": 3419,
      "▁درج": 3420,
      "▁حمزة": 3421,
      "▁نها": 3422,
      "▁اسد": 3423,
      "▁فاس": 3424,
      "اهل": 3425,
      "▁الصواب": 3426,
      "▁بغداد": 3427,
      "ق.\n": 3428,
      "لاة،": 3429,
      "▁القيس": 3430,
      "٢.\n": 3431,
      "▁وعنه": 3432,
      "▁يتم": 3433,
      "▁٣٩": 3434,
      "▁والصواب": 3435,
      "▁السر": 3436,
      "▁نش": 3437,
      "باط": 3438,
      "▁فقال:\n": 3439,
      "▁النهار": 3440,
      "٦]": 3441,
      "▁وحم": 3442,
      "▁العذاب": 3443,
      "▁فسر": 3444,
      "فضل": 3445,
      "ادة،": 3446,
      "▁نسب": 3447,
      "▁ذه": 3448,
      "▁الله.\n": 3449,
      "▁عيا": 3450,
      "▁تقع": 3451,
      "▁الفعل،": 3452,
      "هادة": 3453,
      "فك": 3454,
      "ور:": 3455,
      "▁عروة": 3456,
      "▁فامر": 3457,
      "دح": 3458,
      "ئي": 3459,
      "ميت": 3460,
      "▁شهاب": 3461,
      "▁وبر": 3462,
      "▁والاصل": 3463,
      "▁الضر": 3464,
      "اغ": 3465,
      "▁المك": 3466,
      "▁الشار": 3467,
      "▁والفاعل": 3468,
      "▁طلحة": 3469,
      "▁الخي": 3470,
      "▁بطن": 3471,
      "▁بحيث": 3472,
      "▁باعتبار": 3473,
      "ك.\n": 3474,
      "▁كذب": 3475,
      "▁الاستاذ": 3476,
      "▁احدهما:": 3477,
      "▁لات": 3478,
      "▁ويل": 3479,
      "▁النسب": 3480,
      "▁والض": 3481,
      "▁الواق": 3482,
      "▁فانما": 3483,
      "▁الاض": 3484,
      "▁يشبه": 3485,
      "▁مقدم": 3486,
      "▁اكت": 3487,
      "▁الاضافة": 3488,
      "▁جعله": 3489,
      "▁\"الم": 3490,
      "▁فرد": 3491,
      "▁عاصم": 3492,
      "▁لئلا": 3493,
      "▁اياه": 3494,
      "لية،": 3495,
      "▁الاشارة": 3496,
      "▁منت": 3497,
      "▁ويحتمل": 3498,
      "▁شاه": 3499,
      "▁الوض": 3500,
      "▁الخاص": 3501,
      "▁وضرب": 3502,
      "مسك": 3503,
      "▁وكانوا": 3504,
      "ويد": 3505,
      "▁نهي": 3506,
      "▁\"ك": 3507,
      "▁حالة": 3508,
      "٠،": 3509,
      "▁اخو": 3510,
      "ضمير": 3511,
      "▁اخبار": 3512,
      "٦)": 3513,
      "▁لين": 3514,
      "▁شيء،": 3515,
      "▁الاستع": 3516,
      "▁حضر": 3517,
      "▁اقام": 3518,
      "▁واصله": 3519,
      "▁يخل": 3520,
      "-\n": 3521,
      "▁زمن": 3522,
      "▁ايات": 3523,
      "▁ويس": 3524,
      "▁امه": 3525,
      "▁الابي": 3526,
      "ربية": 3527,
      "وبه": 3528,
      "▁وسط": 3529,
      "▁زهير": 3530,
      "▁جعلت": 3531,
      "▁ضم": 3532,
      "▁شم": 3533,
      "▁ركب": 3534,
      "▁مكر": 3535,
      "▁والثاني:": 3536,
      "▁١)،": 3537,
      "▁البق": 3538,
      "▁غل": 3539,
      "٧)": 3540,
      "▁كانها": 3541,
      "▁شخص": 3542,
      "▁ـ": 3543,
      "▁حسان": 3544,
      "▁تفعل": 3545,
      "▁واني": 3546,
      "دا\n": 3547,
      "▁موص": 3548,
      "▁كلم": 3549,
      "يمي": 3550,
      "جر،": 3551,
      "لا\n": 3552,
      "حة،": 3553,
      "▁زين": 3554,
      "▁العرب،": 3555,
      "يب،": 3556,
      "▁للق": 3557,
      "▁نفسه،": 3558,
      "دال": 3559,
      "طفة": 3560,
      "▁الريح": 3561,
      "▁شئ": 3562,
      "▁مذ": 3563,
      "▁الوق": 3564,
      "▁تقد": 3565,
      "صاف": 3566,
      "خا": 3567,
      "▁ثوب": 3568,
      "▁الحن": 3569,
      "▁واث": 3570,
      "▁ورواه": 3571,
      "▁صور": 3572,
      "▁الجيش": 3573,
      "▁رو": 3574,
      "ئس": 3575,
      "▁(قال": 3576,
      "▁معين": 3577,
      "ويا": 3578,
      "▁تعمل": 3579,
      "▁يبلغ": 3580,
      "▁صدق": 3581,
      "بائل": 3582,
      "خفيف": 3583,
      "▁تاتي": 3584,
      "▁خطا": 3585,
      "▁انب": 3586,
      "جود": 3587,
      "▁تذكر": 3588,
      "▁يستعمل": 3589,
      "▁سنة،": 3590,
      "▁مخل": 3591,
      "▁قومه": 3592,
      "▁اشهر": 3593,
      "▁وقر": 3594,
      "دون": 3595,
      "▁اختلاف": 3596,
      "زو": 3597,
      "▁عالم": 3598,
      "▁وكيف": 3599,
      "٨)": 3600,
      "▁الحذف": 3601,
      "وسط": 3602,
      "▁الزهري": 3603,
      "باه": 3604,
      "▁التعريف": 3605,
      "ناها": 3606,
      "▁لهما": 3607,
      "واف": 3608,
      "▁الخل": 3609,
      "فتحة": 3610,
      "▁كثرة": 3611,
      "▁لط": 3612,
      "▁سميت": 3613,
      "▁البعير": 3614,
      "▁الرس": 3615,
      "▁مونث": 3616,
      "▁عصر": 3617,
      "▁الجوهري": 3618,
      "▁الكافر": 3619,
      "▁ذكرت": 3620,
      "▁عمرو،": 3621,
      "▁انواع": 3622,
      "▁الصل": 3623,
      "▁يراد": 3624,
      "▁نائب": 3625,
      "▁محمود": 3626,
      "▁العامة": 3627,
      "فا،": 3628,
      "▁برا": 3629,
      "▁في:": 3630,
      "ومه": 3631,
      "قق": 3632,
      "شيخ": 3633,
      "▁رقم": 3634,
      "▁اللحم": 3635,
      "▁اورد": 3636,
      "▁معم": 3637,
      "ئن": 3638,
      "▁يسال": 3639,
      "غام": 3640,
      "▁يتعلق": 3641,
      "▁للاست": 3642,
      "▁ظهور": 3643,
      "وائد": 3644,
      "▁ظاه": 3645,
      "وع،": 3646,
      "▁يتع": 3647,
      "▁(٣).\n": 3648,
      "▁والنون": 3649,
      "▁الزيادة": 3650,
      "تنا": 3651,
      "▁واذ": 3652,
      "▁الالفاظ": 3653,
      "وس،": 3654,
      "لبس": 3655,
      "▁الانبياء": 3656,
      "بيعة": 3657,
      "▁نون": 3658,
      "احة": 3659,
      "ديه": 3660,
      "▁وفعل": 3661,
      "▁ماذا": 3662,
      "ديب": 3663,
      "▁عمران": 3664,
      "▁الحل": 3665,
      "▁كلهم": 3666,
      "▁علي:": 3667,
      "▁ادخل": 3668,
      "▁واشت": 3669,
      "ئا": 3670,
      "▁نح": 3671,
      "▁احاديث": 3672,
      "درية": 3673,
      "واج": 3674,
      "▁جئت": 3675,
      "▁العبا": 3676,
      "▁المثني": 3677,
      "▁مضم": 3678,
      "▁لكنه": 3679,
      "▁والاخر": 3680,
      "▁٤٠": 3681,
      "يا،": 3682,
      "▁هد": 3683,
      "▁المث": 3684,
      "ادس": 3685,
      "▁الفع": 3686,
      "▁الاشياء": 3687,
      "▁مكت": 3688,
      "▁محمدا": 3689,
      "▁والاس": 3690,
      "ديدة": 3691,
      "▁يوجد": 3692,
      "ذة": 3693,
      "▁عض": 3694,
      "▁بري": 3695,
      "▁قولك": 3696,
      "▁كفروا": 3697,
      "ص،": 3698,
      "▁حذفت": 3699,
      "▁السيد": 3700,
      "فرة": 3701,
      "▁يرت": 3702,
      "▁فاخبر": 3703,
      "▁زر": 3704,
      "اء.": 3705,
      "▁وعل": 3706,
      "▁مجم": 3707,
      "▁مجر": 3708,
      "▁الخر": 3709,
      "شع": 3710,
      "▁فالت": 3711,
      "▁تحقيق": 3712,
      "ف:": 3713,
      "ين)": 3714,
      "▁ليل": 3715,
      "▁السيف": 3716,
      "▁فقيل": 3717,
      "واعد": 3718,
      "ئناف": 3719,
      "▁يصلح": 3720,
      "▁خلي": 3721,
      "▁بالنس": 3722,
      "▁عال": 3723,
      "▁العدد": 3724,
      "▁قصة": 3725,
      "▁وحده": 3726,
      "▁سبحان": 3727,
      "▁فاط": 3728,
      "▁ياكل": 3729,
      "▁يصف": 3730,
      "▁بقية": 3731,
      "▁كع": 3732,
      "▁المشبه": 3733,
      "▁عليه.": 3734,
      "ئه": 3735,
      "تيار": 3736,
      "▁العلاء": 3737,
      "▁الغي": 3738,
      "▁العربي": 3739,
      "▁الخليفة": 3740,
      "نام": 3741,
      "▁لخ": 3742,
      "▁الاشت": 3743,
      "▁فعله": 3744,
      "▁المخاطب": 3745,
      "▁بالر": 3746,
      "ضية": 3747,
      "الس": 3748,
      "▁تعالي،": 3749,
      "▁امور": 3750,
      "خلة": 3751,
      "▁جبريل": 3752,
      "حش": 3753,
      "▁٤١": 3754,
      "▁عش": 3755,
      "▁طويل": 3756,
      "▁صنع": 3757,
      "▁فانك": 3758,
      "▁مالك،": 3759,
      "▁سبي": 3760,
      "▁وقف": 3761,
      "▁الصاد": 3762,
      "٧]": 3763,
      "▁خاصة": 3764,
      "تيبة": 3765,
      "▁وقالوا": 3766,
      "▁يسم": 3767,
      "▁منس": 3768,
      "عدم": 3769,
      "▁اليس": 3770,
      "▁نجد": 3771,
      "▁النهي": 3772,
      "شيد": 3773,
      "كلف": 3774,
      "▁المعني،": 3775,
      "▁كذلك،": 3776,
      "▁يطلب": 3777,
      "▁صحي": 3778,
      "▁سقط": 3779,
      "▁الدم": 3780,
      "▁يقولون:": 3781,
      "▁الناظم": 3782,
      "▁[مفرد": 3783,
      "▁(د": 3784,
      "▁البلد": 3785,
      "▁القط": 3786,
      "▁تعرف": 3787,
      "▁صاحبه": 3788,
      "▁الذه": 3789,
      "▁المام": 3790,
      "٩)": 3791,
      "▁قريب": 3792,
      "▁يرفع": 3793,
      "▁ارج": 3794,
      "زال": 3795,
      "▁ذك": 3796,
      "▁وعلم": 3797,
      "ئة،": 3798,
      "▁\"ح": 3799,
      "▁بمكة": 3800,
      "▁سكن": 3801,
      "▁الراس": 3802,
      "▁ضد": 3803,
      "▁السلط": 3804,
      "▁واقام": 3805,
      "▁ستة": 3806,
      "▁المغرب": 3807,
      "▁القاف": 3808,
      "نبي": 3809,
      "▁وحا": 3810,
      "فف": 3811,
      "▁اقبل": 3812,
      "▁اخيه": 3813,
      "▁المشركين": 3814,
      "▁لا،": 3815,
      "فيه": 3816,
      "▁اظهر": 3817,
      "ج:": 3818,
      "▁صرف": 3819,
      "▁الصرف": 3820,
      "▁فط": 3821,
      "بك": 3822,
      "▁الاحاديث": 3823,
      "▁كاف": 3824,
      "جتماع": 3825,
      "▁تمر": 3826,
      "▁وصح": 3827,
      "وضة": 3828,
      "▁لها،": 3829,
      "▁الشهر": 3830,
      "▁نقله": 3831,
      "▁يقرا": 3832,
      "▁العي": 3833,
      "ضاة": 3834,
      "▁المقصود": 3835,
      "▁لانك": 3836,
      "رة.\n": 3837,
      "▁البغدا": 3838,
      "▁وايضا": 3839,
      "▁حديثه": 3840,
      "لب،": 3841,
      "▁فكل": 3842,
      "الة،": 3843,
      "▁ينزل": 3844,
      "▁الخلاف": 3845,
      "▁اولاد": 3846,
      "▁فيه.\n": 3847,
      "▁للص": 3848,
      "▁يقت": 3849,
      "▁دريد": 3850,
      "▁سوء": 3851,
      "▁القراء": 3852,
      "▁تبع": 3853,
      "▁المشت": 3854,
      "▁اعطي": 3855,
      "▁ضعف": 3856,
      "وف،": 3857,
      "▁٦)": 3858,
      "▁والذين": 3859,
      "▁بدلا": 3860,
      "▁جي": 3861,
      "▁والالف": 3862,
      "▁علق": 3863,
      "انها": 3864,
      "ح\n": 3865,
      "▁للش": 3866,
      "▁ني": 3867,
      "▁التشبيه": 3868,
      "▁وجماعة": 3869,
      "د:": 3870,
      "وت،": 3871,
      "▁كالم": 3872,
      "▁صن": 3873,
      "▁(١)،": 3874,
      "▁ند": 3875,
      "▁انف": 3876,
      "▁عبادة": 3877,
      "▁ويروي": 3878,
      "▁الانت": 3879,
      "▁و\"ال": 3880,
      "▁عندنا": 3881,
      "▁يذهب": 3882,
      "▁فعلت": 3883,
      "▁العراق": 3884,
      "▁واط": 3885,
      "▁درا": 3886,
      "▁المنذر": 3887,
      "▁جدا": 3888,
      "ان)": 3889,
      "▁السير": 3890,
      "ن:": 3891,
      "نوا": 3892,
      "▁الاصمعي:": 3893,
      "▁بز": 3894,
      "▁موضوع": 3895,
      "لوا": 3896,
      "▁المسند": 3897,
      "▁اصبح": 3898,
      "▁سف": 3899,
      "▁السف": 3900,
      "واب،": 3901,
      "▁لفظا": 3902,
      "▁رافع": 3903,
      "▁الكفار": 3904,
      "▁سبعة": 3905,
      "▁الملوك": 3906,
      "▁مراد": 3907,
      "▁شرف": 3908,
      "▁وزاد": 3909,
      "▁[٢": 3910,
      "▁ووجه": 3911,
      "▁اصب": 3912,
      "▁عامل": 3913,
      "▁الكفر": 3914,
      "▁لاجل": 3915,
      "▁شعبة": 3916,
      "▁الخطيب": 3917,
      "ينئذ": 3918,
      "واري": 3919,
      "▁وحسن": 3920,
      "▁العدو": 3921,
      "▁واخبر": 3922,
      "▁باع": 3923,
      "▁ذوي": 3924,
      "▁الاحت": 3925,
      "▁المعجمة": 3926,
      "▁المم": 3927,
      "▁لعل": 3928,
      "▁الخز": 3929,
      "▁معاني": 3930,
      "▁وزعم": 3931,
      "▁الوضوء": 3932,
      "▁ارس": 3933,
      "▁عمر:": 3934,
      "حا،": 3935,
      "▁خبرا": 3936,
      "▁طاهر": 3937,
      "ق.": 3938,
      "▁والياء": 3939,
      "▁سري": 3940,
      "▁موت": 3941,
      "١\n": 3942,
      "▁لحم": 3943,
      "▁ويق": 3944,
      "▁ربنا": 3945,
      "▁بالالف": 3946,
      "▁في\n": 3947,
      "▁الفتحة": 3948,
      "كاية": 3949,
      "▁خد": 3950,
      "▁زال": 3951,
      "▁تاء": 3952,
      "كرمة": 3953,
      "▁طعام": 3954,
      "▁نقص": 3955,
      "▁لقوله": 3956,
      "فهم": 3957,
      "▁والفعل": 3958,
      "▁اقول": 3959,
      "▁فتي": 3960,
      "▁الكسر": 3961,
      "▁كلما": 3962,
      "▁ضربت": 3963,
      "▁اقرب": 3964,
      "ثق": 3965,
      "▁فانا": 3966,
      "▁المسلمون": 3967,
      "▁الاسلام،": 3968,
      "▁ودخل": 3969,
      "▁مقت": 3970,
      "▁المنص": 3971,
      "▁علما": 3972,
      "▁وجدت": 3973,
      "▁جني": 3974,
      "▁مسالة": 3975,
      "ال:": 3976,
      "شرح": 3977,
      "▁الله.": 3978,
      "▁طائفة": 3979,
      "زمه": 3980,
      "▁معناه:": 3981,
      "را.\n": 3982,
      "▁بعضا": 3983,
      "▁للخ": 3984,
      "▁بعيد": 3985,
      "وان،": 3986,
      "▁بات": 3987,
      "▁برد": 3988,
      "▁حات": 3989,
      "▁زائد": 3990,
      "عاء": 3991,
      "▁سه": 3992,
      "▁الدر": 3993,
      "▁المذكر": 3994,
      "والي": 3995,
      "▁فقام": 3996,
      "▁السين": 3997,
      "▁هارون": 3998,
      "الته": 3999,
      "▁فعلا": 4000,
      "بة،": 4001,
      "▁تجعل": 4002,
      "▁الحركة": 4003,
      "▁٤٢": 4004,
      "وده": 4005,
      "▁ميم": 4006,
      "▁تسمي": 4007,
      "خرة": 4008,
      "▁العب": 4009,
      "▁دلالة": 4010,
      "▁محت": 4011,
      "▁اثبات": 4012,
      "▁السيا": 4013,
      "▁قال،": 4014,
      "▁احوال": 4015,
      "▁القائل": 4016,
      "فات": 4017,
      "▁واختلف": 4018,
      "▁بلد": 4019,
      "▁عباس:": 4020,
      "خلت": 4021,
      "▁حنبل": 4022,
      "▁وتقول:": 4023,
      "▁الكلام،": 4024,
      "▁فهل": 4025,
      "▁الراي": 4026,
      "▁اثار": 4027,
      "▁استح": 4028,
      "▁الاخفش": 4029,
      "ون)": 4030,
      "▁ابواب": 4031,
      "▁٤٣": 4032,
      "▁اتخذ": 4033,
      "▁التج": 4034,
      "حاق،": 4035,
      "▁معطوفة": 4036,
      "فاف": 4037,
      "▁غيرها": 4038,
      "▁وابا": 4039,
      "ذاك": 4040,
      "▁قائما": 4041,
      "▁مكس": 4042,
      "▁يفت": 4043,
      "خ،": 4044,
      "▁السوال": 4045,
      "ائن": 4046,
      "▁معهم": 4047,
      "▁خرا": 4048,
      "▁حصل": 4049,
      "▁الميت": 4050,
      "▁يحل": 4051,
      "▁الضرب": 4052,
      "▁المرء": 4053,
      "▁علماء": 4054,
      "▁رحمة": 4055,
      "كه": 4056,
      "▁يبق": 4057,
      "٨]": 4058,
      "▁حياة": 4059,
      "▁المثال": 4060,
      "▁فو": 4061,
      "▁لمع": 4062,
      "▁فام": 4063,
      "داد،": 4064,
      "▁تاويل": 4065,
      "▁جمادي": 4066,
      "▁الاله": 4067,
      "▁يثبت": 4068,
      "▁انهما": 4069,
      "▁واغ": 4070,
      "ولين": 4071,
      "▁التفسير": 4072,
      "دار": 4073,
      "▁يحسن": 4074,
      "▁هدي": 4075,
      "الها": 4076,
      "▁الشعراء": 4077,
      "▁فرج": 4078,
      "▁ريح": 4079,
      "▁فيمن": 4080,
      "▁مختلف": 4081,
      "▁القرن": 4082,
      "▁لاز": 4083,
      "▁الثوب": 4084,
      "▁(٢)\n": 4085,
      "ئيس": 4086,
      "▁المنافق": 4087,
      "▁الجيم": 4088,
      "▁(او": 4089,
      "▁العهد": 4090,
      "▁والثالث": 4091,
      "▁البيان": 4092,
      "▁٢)،": 4093,
      "▁اجاز": 4094,
      "مة،": 4095,
      "وق،": 4096,
      "▁صحة": 4097,
      "▁فوا": 4098,
      "لفة": 4099,
      "رز": 4100,
      "▁الفض": 4101,
      "▁وعنه:": 4102,
      "▁فدخل": 4103,
      "▁لاحد": 4104,
      "▁لبعض": 4105,
      "▁فله": 4106,
      "▁شرب": 4107,
      "▁عليهم،": 4108,
      "▁\"ن": 4109,
      "▁الجنس": 4110,
      "▁نعم،": 4111,
      "▁الحجة": 4112,
      "داه": 4113,
      "▁بيده": 4114,
      "▁الظهر": 4115,
      "▁يخت": 4116,
      "▁قلنا": 4117,
      "▁الدني": 4118,
      "▁قائل": 4119,
      "سمية": 4120,
      "▁يزل": 4121,
      "▁فيقول:": 4122,
      "▁اخر،": 4123,
      "▁بالل": 4124,
      "صيحة": 4125,
      "م.\n": 4126,
      "▁وصار": 4127,
      "ائق": 4128,
      "▁مجل": 4129,
      "▁والتقدير": 4130,
      "▁\".": 4131,
      "▁قلبه": 4132,
      "▁وذكره": 4133,
      "▁الصلاة،": 4134,
      "▁بامر": 4135,
      "▁الجار": 4136,
      "▁وثلاثين": 4137,
      "اعي": 4138,
      "▁فقتل": 4139,
      "▁الدل": 4140,
      "▁خرجت": 4141,
      "▁عشرين": 4142,
      "▁\"الا": 4143,
      "▁الته": 4144,
      "▁عوض": 4145,
      "▁الوصل": 4146,
      "▁٤).\n": 4147,
      "ضرة": 4148,
      "لي:": 4149,
      "دد": 4150,
      "▁وتت": 4151,
      "▁هذين": 4152,
      "▁مجاز": 4153,
      "ناده": 4154,
      "▁يض": 4155,
      "▁ومس": 4156,
      "٣.\n": 4157,
      "▁وعمرو": 4158,
      "▁يبقي": 4159,
      "▁وخل": 4160,
      "▁بالنسبة": 4161,
      "▁الجمهور": 4162,
      "له.\n": 4163,
      "وشر": 4164,
      "▁قضاء": 4165,
      "▁الجاهلية": 4166,
      "ندي": 4167,
      "▁نسخ": 4168,
      "▁الروح": 4169,
      "▁٤٤": 4170,
      "▁خش": 4171,
      "▁المطر": 4172,
      "▁الشري": 4173,
      "▁الكلم": 4174,
      "▁واجاز": 4175,
      "▁يقتل": 4176,
      "▁الاصمعي": 4177,
      "▁التنوين": 4178,
      "▁سيا": 4179,
      "انت": 4180,
      "اء\n": 4181,
      "▁المشهور": 4182,
      "اتها": 4183,
      "▁فقالت": 4184,
      "▁المب": 4185,
      "وهو": 4186,
      "▁(ان)": 4187,
      "▁نوح": 4188,
      "▁عبارة": 4189,
      "▁ومائة": 4190,
      "▁الور": 4191,
      "▁بحر": 4192,
      "وعا": 4193,
      "▁ولعل": 4194,
      "▁تخرج": 4195,
      "▁مجا": 4196,
      "▁ببعض": 4197,
      "▁بابن": 4198,
      "▁من\n": 4199,
      "▁المونث": 4200,
      "رجمة": 4201,
      "▁وانشد:\n": 4202,
      "▁الاعرابي:": 4203,
      "رية،": 4204,
      "▁نار": 4205,
      "دة،": 4206,
      "▁ويك": 4207,
      "▁ونس": 4208,
      "▁مسر": 4209,
      "▁السبب": 4210,
      "ير:": 4211,
      "▁جمل": 4212,
      "▁التس": 4213,
      "▁جام": 4214,
      "قلب": 4215,
      "▁وليست": 4216,
      "ين:\n": 4217,
      "▁جمال": 4218,
      "▁فهذه": 4219,
      "واح": 4220,
      "▁واك": 4221,
      "▁الابتداء": 4222,
      "▁الدين،": 4223,
      "▁ابوه": 4224,
      "قيا": 4225,
      "عة.\n": 4226,
      "ظا": 4227,
      "درس": 4228,
      "▁نصبه": 4229,
      "▁الامراء": 4230,
      "▁اهلها": 4231,
      "▁شعي": 4232,
      "▁المفت": 4233,
      "▁بفعل": 4234,
      "▁الدارقط": 4235,
      "▁واول": 4236,
      "▁الجزء": 4237,
      "▁المذكورة": 4238,
      "▁بذكر": 4239,
      "▁اهـ": 4240,
      "▁صب": 4241,
      "▁الطي": 4242,
      "▁فلانا": 4243,
      "▁;": 4244,
      "▁قيا": 4245,
      "ريت": 4246,
      "▁معرف": 4247,
      "▁ضع": 4248,
      "▁الجامع": 4249,
      "▁عمير": 4250,
      "ناة": 4251,
      "▁هند": 4252,
      "▁خب": 4253,
      "خوذ": 4254,
      "ع\n": 4255,
      "صاب": 4256,
      "▁(٧)": 4257,
      "▁افعال": 4258,
      "▁الحرام": 4259,
      "▁والمت": 4260,
      "▁واراد": 4261,
      "▁علة": 4262,
      "▁الينا": 4263,
      "دلالة": 4264,
      "▁وكتاب": 4265,
      "▁الثالث:": 4266,
      "▁٤٥": 4267,
      "▁الحجاز": 4268,
      "▁منه.\n": 4269,
      "الفة": 4270,
      "▁الاسناد": 4271,
      "زي،": 4272,
      "ظفر": 4273,
      "▁عنك": 4274,
      "▁ذلك:": 4275,
      "قل،": 4276,
      "ثار": 4277,
      "▁المقر": 4278,
      "▁تقديره:": 4279,
      "▁شاعر": 4280,
      "ان\"": 4281,
      "دة:": 4282,
      "▁الفتي": 4283,
      "▁واربعين": 4284,
      "▁الرزا": 4285,
      "وا\n": 4286,
      "▁واز": 4287,
      "▁عرفت": 4288,
      "▁النجا": 4289,
      "اتهم": 4290,
      "▁[٤]": 4291,
      "]:\n": 4292,
      "▁(ش": 4293,
      "▁معها": 4294,
      "▁فاح": 4295,
      "▁مولا": 4296,
      "▁الدعاء": 4297,
      "▁الوس": 4298,
      "▁الرحيم": 4299,
      "▁ساعة": 4300,
      "٩]": 4301,
      "▁الكسرة": 4302,
      "▁القضاء": 4303,
      "▁بالفتحة": 4304,
      "رات،": 4305,
      "▁موج": 4306,
      "انية،": 4307,
      "▁النو": 4308,
      "▁الجه": 4309,
      "▁بحرف": 4310,
      "▁تعريف": 4311,
      "سرة": 4312,
      "▁يشاء": 4313,
      "▁يسر": 4314,
      "▁حام": 4315,
      "▁الخلا": 4316,
      "▁قرية": 4317,
      "الد": 4318,
      "▁يعطي": 4319,
      "▁عليهما": 4320,
      "وزن": 4321,
      "▁وصلي": 4322,
      "▁قتله": 4323,
      "▁قيام": 4324,
      "▁اكرم": 4325,
      "▁والذ": 4326,
      "▁الكعبة": 4327,
      "▁ونحوه": 4328,
      "▁زيد:": 4329,
      "▁قوي": 4330,
      "▁فيت": 4331,
      "▁تحمل": 4332,
      "▁اسمع": 4333,
      "لوب": 4334,
      "▁مقر": 4335,
      "▁(كان": 4336,
      "▁يحذف": 4337,
      "لام،": 4338,
      "▁[الان": 4339,
      "▁ولن": 4340,
      "ليل،": 4341,
      "▁احدكم": 4342,
      "▁وحي": 4343,
      "▁المقام": 4344,
      "▁خلافا": 4345,
      "▁السماوات": 4346,
      "▁نسي": 4347,
      "▁مومن": 4348,
      "▁عباس،": 4349,
      "▁١)\n": 4350,
      "لتها": 4351,
      "▁فيه.": 4352,
      "▁رمي": 4353,
      "▁موصول": 4354,
      "▁العروس": 4355,
      "▁المعني:": 4356,
      "ه\"": 4357,
      "خط": 4358,
      "▁لاست": 4359,
      "عث": 4360,
      "كمل": 4361,
      "▁وغيرهما": 4362,
      "▁نكرة": 4363,
      "▁استئناف": 4364,
      "▁بالاس": 4365,
      "▁ومعه": 4366,
      "قبة": 4367,
      "وكم": 4368,
      "▁لـ": 4369,
      "٢\n": 4370,
      "▁وعدم": 4371,
      "▁الزه": 4372,
      "اكيد": 4373,
      "▁وجوب": 4374,
      "▁الخمر": 4375,
      "را.": 4376,
      "▁طر": 4377,
      "بدو": 4378,
      "هذا": 4379,
      "▁فكانت": 4380,
      "▁الواقع": 4381,
      "غار": 4382,
      "▁الفجر": 4383,
      "▁المدينة،": 4384,
      "▁فانهم": 4385,
      "▁سج": 4386,
      "قار": 4387,
      "▁الحجر": 4388,
      "▁يطلق": 4389,
      "▁الصحا": 4390,
      "▁وزيد": 4391,
      "▁بحسب": 4392,
      "▁لهم،": 4393,
      "درسة": 4394,
      "▁البلاغة": 4395,
      "ناية": 4396,
      "ــــــــــــــــــــــــــــــــــــــــــــــــــــــــــــــــ": 4397,
      "بيح": 4398,
      "▁هلك": 4399,
      "▁اعرف": 4400,
      "راز": 4401,
      "▁يحصل": 4402,
      "▁القران،": 4403,
      "با\n": 4404,
      "▁قلنا:": 4405,
      "▁بنفسه": 4406,
      "▁والاد": 4407,
      "▁جائز": 4408,
      "▁تغير": 4409,
      "ركات": 4410,
      "▁فائدة": 4411,
      "▁تلا": 4412,
      "▁يخفي": 4413,
      "▁مسجد": 4414,
      "ليا": 4415,
      "ور\n": 4416,
      "▁ولده": 4417,
      "ائع": 4418,
      "ب\n": 4419,
      "▁اصول": 4420,
      "▁فقالت:": 4421,
      "▁بكم": 4422,
      "حك": 4423,
      "▁الهدي": 4424,
      "▁اربعين": 4425,
      "▁زك": 4426,
      "▁احكام": 4427,
      "▁خارج": 4428,
      "▁اعني": 4429,
      "▁يجيء": 4430,
      "▁ملوك": 4431,
      "▁الرم": 4432,
      "▁بالد": 4433,
      "قاع": 4434,
      "صره": 4435,
      "▁معي": 4436,
      "▁١-": 4437,
      "▁الغني": 4438,
      "▁بالاضاف": 4439,
      "▁هاشم": 4440,
      "▁منهم،": 4441,
      "▁شيئا،": 4442,
      "▁العج": 4443,
      "▁طيب": 4444,
      "ء،": 4445,
      "▁يزال": 4446,
      "▁ودفن": 4447,
      "▁الرف": 4448,
      "▁يحي": 4449,
      "▁توا": 4450,
      "▁للب": 4451,
      "▁النداء": 4452,
      "▁[ف": 4453,
      "وابه": 4454,
      "▁المقت": 4455,
      "▁ينفع": 4456,
      "▁كذ": 4457,
      "▁عاطفة": 4458,
      "▁الصبح": 4459,
      "▁واحدة،": 4460,
      "▁له.\n": 4461,
      "▁فحذف": 4462,
      "▁الساعة": 4463,
      "ناهم": 4464,
      "▁المنصور": 4465,
      "▁البيه": 4466,
      "▁الفاظ": 4467,
      "▁وتم": 4468,
      "▁ركعت": 4469,
      "▁والحا": 4470,
      "▁غال": 4471,
      "▁الرجل:": 4472,
      "كال": 4473,
      "▁والنا": 4474,
      "▁مناف": 4475,
      "▁وغيره،": 4476,
      "▁شري": 4477,
      "▁مذكر": 4478,
      "▁باد": 4479,
      "▁حبي": 4480,
      "▁وكنت": 4481,
      "رن": 4482,
      "▁(٢)،": 4483,
      "▁المحدث": 4484,
      "▁العين،": 4485,
      "▁٤٦": 4486,
      "▁الاخير": 4487,
      "▁والتع": 4488,
      "لث": 4489,
      "١]": 4490,
      "▁الصغير": 4491,
      "▁الكلمات": 4492,
      "▁)\n": 4493,
      "▁يث": 4494,
      "مر:": 4495,
      "فصيل": 4496,
      "▁بالاضافة": 4497,
      "▁راه": 4498,
      "▁\"في": 4499,
      "▁يوا": 4500,
      "بة.\n": 4501,
      "▁اعلي": 4502,
      "صه": 4503,
      "▁وحديث": 4504,
      "▁بمصر": 4505,
      "▁اذا:": 4506,
      "▁تعالي.\n": 4507,
      "▁اللبن": 4508,
      "قته": 4509,
      "▁وارت": 4510,
      "ك؟": 4511,
      "▁(باب": 4512,
      "▁وولي": 4513,
      "▁اصط": 4514,
      "عد،": 4515,
      "▁القتال": 4516,
      "▁بمثل": 4517,
      "▁القاهرة": 4518,
      "▁جان": 4519,
      "ات:": 4520,
      "▁النص": 4521,
      "▁الملا": 4522,
      "▁كري": 4523,
      "▁ماله": 4524,
      "شه": 4525,
      "▁جب": 4526,
      "▁ذكرها": 4527,
      "▁مفرد": 4528,
      "وره": 4529,
      "▁فكانه": 4530,
      "▁صارت": 4531,
      "لة:": 4532,
      "▁موق": 4533,
      "▁لست": 4534,
      "▁كاد": 4535,
      "▁واجب": 4536,
      "شرون": 4537,
      "▁اثنين": 4538,
      "▁وفل": 4539,
      "ز:": 4540,
      "▁جده": 4541,
      "لة.\n": 4542,
      "▁غالب": 4543,
      "فهوم": 4544,
      "▁الاعمال": 4545,
      "▁الاستثناء": 4546,
      "▁الرسل": 4547,
      "▁الوف": 4548,
      "زله": 4549,
      "اليف": 4550,
      "ماه": 4551,
      "فسد": 4552,
      "▁ناحية": 4553,
      "▁مذك": 4554,
      "▁مبا": 4555,
      "لتين": 4556,
      "شي،": 4557,
      "▁البصرة": 4558,
      "صلح": 4559,
      "ة)": 4560,
      "▁بقول": 4561,
      "▁الاصل،": 4562,
      "▁التخ": 4563,
      "٠]": 4564,
      "▁والهاء": 4565,
      "▁٤٧": 4566,
      "▁السل": 4567,
      "فعة": 4568,
      "▁ونظ": 4569,
      "▁الغر": 4570,
      "▁وخمسين": 4571,
      "عها": 4572,
      "▁مخرج": 4573,
      "▁يدرك": 4574,
      "▁والاع": 4575,
      "▁الليث:": 4576,
      "درك": 4577,
      "قة.": 4578,
      "▁وسم": 4579,
      "▁يتبع": 4580,
      "▁تقي": 4581,
      "▁اتبع": 4582,
      "▁حمد": 4583,
      "▁العلامة": 4584,
      "ري.\n": 4585,
      "▁موجود": 4586,
      "▁والاب": 4587,
      "▁الفرج": 4588,
      "▁الزمخ": 4589,
      "▁عمي": 4590,
      "بيها": 4591,
      "▁الهذ": 4592,
      "ارق": 4593,
      "▁فـ": 4594,
      "▁واربع": 4595,
      "برت": 4596,
      "▁والمجرور": 4597,
      "▁عاش": 4598,
      "▁ببغ": 4599,
      "▁بمح": 4600,
      "قياس": 4601,
      "▁[مفرد]:": 4602,
      "▁حكاه": 4603,
      "▁الحاء": 4604,
      "مائة،": 4605,
      "ح.\n": 4606,
      "▁اضرب": 4607,
      "حي،": 4608,
      "▁يقصد": 4609,
      "زدق": 4610,
      "▁٢-": 4611,
      "▁ابراهيم،": 4612,
      "▁امثال": 4613,
      "▁سيبويه:": 4614,
      "▁خا": 4615,
      "▁فلذلك": 4616,
      "▁\"س": 4617,
      "▁عذ": 4618,
      "غال": 4619,
      "▁فرعون": 4620,
      "▁مرك": 4621,
      "زر": 4622,
      "▁ثقة،": 4623,
      "▁مجلس": 4624,
      "▁ابيات": 4625,
      "وزي": 4626,
      "▁وضم": 4627,
      "▁كره": 4628,
      "▁الهوي": 4629,
      "غيير": 4630,
      "▁غريب": 4631,
      "▁رائ": 4632,
      "▁ايضا.\n": 4633,
      "▁فضرب": 4634,
      "▁يفهم": 4635,
      "فضيل": 4636,
      "▁المتقدم": 4637,
      "▁القراءة": 4638,
      "▁قصيدة": 4639,
      "▁(٤).\n": 4640,
      "▁الضمة": 4641,
      "▁جهن": 4642,
      "▁طرق": 4643,
      "سيم": 4644,
      "قبال": 4645,
      "▁يدعو": 4646,
      "▁الزجاج": 4647,
      "صيل": 4648,
      "ينة،": 4649,
      "▁الاخر،": 4650,
      "▁ويش": 4651,
      "وحيد": 4652,
      "▁مشر": 4653,
      "▁بكر،": 4654,
      "▁انق": 4655,
      "▁اثنتين": 4656,
      "▁جامع": 4657,
      "شة،": 4658,
      "▁فكتب": 4659,
      "▁بدليل": 4660,
      "▁العلة": 4661,
      "▁والمفعول": 4662,
      "▁له.": 4663,
      "▁موقع": 4664,
      "ثه": 4665,
      "▁٤٨": 4666,
      "▁غيره:": 4667,
      "اده": 4668,
      "براني": 4669,
      "▁اجد": 4670,
      "▁ولان": 4671,
      "▁وعم": 4672,
      "▁وغيرهم": 4673,
      "▁استعمل": 4674,
      "▁وتسعين": 4675,
      "▁وتر": 4676,
      "▁ولولا": 4677,
      "▁جهل": 4678,
      "ادم": 4679,
      "▁فيك": 4680,
      "▁وجوبا": 4681,
      "▁اسحاق،": 4682,
      "▁ومائت": 4683,
      "▁ترجمة": 4684,
      "▁بالان": 4685,
      "▁المرت": 4686,
      "▁(ول": 4687,
      "▁خذ": 4688,
      "▁وكما": 4689,
      "▁هج": 4690,
      "وير": 4691,
      "▁ميت": 4692,
      "كرر": 4693,
      "▁(بوشر": 4694,
      "▁انبانا": 4695,
      "ديد،": 4696,
      "▁قياس": 4697,
      "جيء": 4698,
      "▁الخص": 4699,
      "دي\n": 4700,
      "▁مقال": 4701,
      "▁سليم": 4702,
      "كة،": 4703,
      "▁عينه": 4704,
      "▁مفعولا": 4705,
      "اب،": 4706,
      "ية\n": 4707,
      "غض": 4708,
      "▁سعيد،": 4709,
      "▁المحرم": 4710,
      "بها": 4711,
      "▁(حدثنا": 4712,
      "▁ويوم": 4713,
      "▁الخامس": 4714,
      "▁حلب": 4715,
      "▁ملي": 4716,
      "▁عقبة": 4717,
      "▁وتا": 4718,
      "▁العلوم": 4719,
      "▁يدع": 4720,
      "▁اصلا": 4721,
      "داء،": 4722,
      "▁شيبة": 4723,
      "ماعة،": 4724,
      "▁الاسد": 4725,
      "▁السبع": 4726,
      "▁البيهقي": 4727,
      "▁نائ": 4728,
      "املة": 4729,
      "▁الشرق": 4730,
      "له.": 4731,
      "▁مطر": 4732,
      "▁عيني": 4733,
      "▁العباد": 4734,
      "ونهم": 4735,
      "▁والو": 4736,
      "▁حقا": 4737,
      "▁وسياتي": 4738,
      "▁اخذت": 4739,
      "▁اذكر": 4740,
      "▁النوا": 4741,
      "▁حسين": 4742,
      "▁الشاهد": 4743,
      "▁بعضه": 4744,
      "▁الفقه": 4745,
      "▁عدل": 4746,
      "▁منزلة": 4747,
      "▁يفيد": 4748,
      "▁قلوبهم": 4749,
      "▁باط": 4750,
      "▁اضافة": 4751,
      "ناق": 4752,
      "▁من:": 4753,
      "▁سود": 4754,
      "▁كلي": 4755,
      "ون\n": 4756,
      "بائ": 4757,
      "▁٣)،": 4758,
      "عة.": 4759,
      "كمة": 4760,
      "▁الله-": 4761,
      "٣\n": 4762,
      "▁الشديد": 4763,
      "▁سياتي": 4764,
      "▁بذ": 4765,
      "▁خفي": 4766,
      "▁ربما": 4767,
      "▁مجه": 4768,
      "▁السحاب": 4769,
      "▁حيان": 4770,
      "▁مريم": 4771,
      "كر،": 4772,
      "▁الخال": 4773,
      "▁النسائي": 4774,
      "نوب": 4775,
      "▁الصديق": 4776,
      "▁غزوة": 4777,
      "▁وفيه:": 4778,
      "▁والاول": 4779,
      "▁داخل": 4780,
      "▁وسب": 4781,
      "▁فعل،": 4782,
      "▁الاقت": 4783,
      "▁بينها": 4784,
      "▁عمرا": 4785,
      "▁النعمان": 4786,
      "▁يتكلم": 4787,
      "▁اشياء": 4788,
      "٤.\n": 4789,
      "▁عسي": 4790,
      "▁شجر": 4791,
      "▁فتكون": 4792,
      "زية": 4793,
      "قران": 4794,
      "▁(اذا": 4795,
      "▁امرئ": 4796,
      "▁السابق": 4797,
      "▁بالط": 4798,
      "▁عمار": 4799,
      "▁الامر،": 4800,
      "وكل": 4801,
      "زيل": 4802,
      "▁وتقول": 4803,
      "▁الشيب": 4804,
      "▁(يا": 4805,
      "ذار": 4806,
      "▁المعرفة": 4807,
      "▁العوا": 4808,
      "▁الذهب": 4809,
      "▁بدون": 4810,
      "▁الاكثر": 4811,
      "واية": 4812,
      "▁الماء،": 4813,
      "▁وحذف": 4814,
      "▁اقوال": 4815,
      "خذه": 4816,
      "▁النظ": 4817,
      "▁الحال،": 4818,
      "▁اعل": 4819,
      "▁السكيت": 4820,
      "▁عامة": 4821,
      "▁حظ": 4822,
      "▁الطرف": 4823,
      "حث": 4824,
      "▁مثلها": 4825,
      "▁افراد": 4826,
      "▁[خ": 4827,
      "▁قوما": 4828,
      "▁فقالوا": 4829,
      "▁يكاد": 4830,
      "▁الفقهاء": 4831,
      "▁المغيرة": 4832,
      "▁مقا": 4833,
      "▁وحمل": 4834,
      "▁يسير": 4835,
      "سيف": 4836,
      "▁لعدم": 4837,
      "▁ومت": 4838,
      "▁والمش": 4839,
      "▁سئل": 4840,
      "▁حلي": 4841,
      "▁الفعلية": 4842,
      "▁بعين": 4843,
      "▁ورايت": 4844,
      "▁(١٠": 4845,
      "▁عندك": 4846,
      "سف": 4847,
      "▁سق": 4848,
      "صت": 4849,
      "▁النصر": 4850,
      "لة،": 4851,
      "▁الدنيا،": 4852,
      "▁وبي": 4853,
      "▁وسن": 4854,
      "واهد": 4855,
      "▁شاذ": 4856,
      "▁حكيم": 4857,
      "▁المنت": 4858,
      "▁عساكر": 4859,
      "▁انته": 4860,
      "سان،": 4861,
      "▁الاعلي": 4862,
      "▁استعم": 4863,
      "▁الاتي": 4864,
      "▁وعاد": 4865,
      "▁يسب": 4866,
      "▁قيد": 4867,
      "▁شق": 4868,
      "▁ربكم": 4869,
      "▁سرا": 4870,
      "▁بلغت": 4871,
      "▁الحمي": 4872,
      "▁شعره": 4873,
      "▁عمه": 4874,
      "▁الاحكام": 4875,
      "ال\n": 4876,
      "▁الاثنين": 4877,
      "▁(ومن": 4878,
      "▁الفقيه": 4879,
      "▁احق": 4880,
      "▁عنهما": 4881,
      "▁-:": 4882,
      "▁اثبت": 4883,
      "▁فنزل": 4884,
      "▁برجل": 4885,
      "ات.\n": 4886,
      "▁ضعي": 4887,
      "باري": 4888,
      "▁وسار": 4889,
      "جاع": 4890,
      "▁الموضوع": 4891,
      "▁يقدم": 4892,
      "ل\n": 4893,
      "رجي": 4894,
      "▁غدا": 4895,
      "▁وها": 4896,
      "▁ماخوذ": 4897,
      "▁للان": 4898,
      "١٠": 4899,
      "▁تجري": 4900,
      "▁هاهنا": 4901,
      "▁لاهل": 4902,
      "ميس": 4903,
      "▁النها": 4904,
      "▁والخبر": 4905,
      "▁يبين": 4906,
      "▁مرد": 4907,
      "▁الصورة": 4908,
      "▁اطلق": 4909,
      "▁وته": 4910,
      "وري،": 4911,
      "▁يترك": 4912,
      "▁وتقدم": 4913,
      "▁مكة،": 4914,
      "▁تحذف": 4915,
      "ناول": 4916,
      "وعه": 4917,
      "▁الخبر،": 4918,
      "اني.\n": 4919,
      "زت": 4920,
      "كي،": 4921,
      "▁عنه.\n": 4922,
      "▁والاح": 4923,
      "▁الحص": 4924,
      "▁٤٩": 4925,
      "دية": 4926,
      "▁منه.": 4927,
      "▁ونص": 4928,
      "ين؛": 4929,
      "▁نقول": 4930,
      "▁شرع": 4931,
      "▁الدلالة": 4932,
      "▁ابلغ": 4933,
      "▁انتهي.": 4934,
      "▁بض": 4935,
      "▁فقيل:": 4936,
      "▁النك": 4937,
      "▁كتابا": 4938,
      "▁غلب": 4939,
      "صية": 4940,
      "▁لهذه": 4941,
      "▁بذلك،": 4942,
      "اته،": 4943,
      "▁معه،": 4944,
      "▁نظير": 4945,
      "▁كانا": 4946,
      "▁اقسام": 4947,
      "▁التثنية": 4948,
      "فعله": 4949,
      "▁الكوفة": 4950,
      "▁سوال": 4951,
      "▁اهلك": 4952,
      "▁تقوم": 4953,
      "▁رايته": 4954,
      "▁فتقول": 4955,
      "كتور": 4956,
      "▁قم": 4957,
      "▁الحيوان": 4958,
      "در،": 4959,
      "▁حديثا": 4960,
      "▁وبني": 4961,
      "▁واليه": 4962,
      "ليق": 4963,
      "▁غض": 4964,
      "▁وقدم": 4965,
      "▁اسباب": 4966,
      "▁قبر": 4967,
      "▁عظم": 4968,
      "▁\"وال": 4969,
      "▁البار": 4970,
      "▁الله)": 4971,
      "بض": 4972,
      "▁\"كان": 4973,
      "▁مادة": 4974,
      "▁فكذلك": 4975,
      "▁لبس": 4976,
      "▁وبعث": 4977,
      "▁الفراء:": 4978,
      "▁القلوب": 4979,
      "واق": 4980,
      "▁(ر": 4981,
      "▁بيوت": 4982,
      "▁وانظر": 4983,
      "ذو": 4984,
      "▁خطاب": 4985,
      "▁وستين": 4986,
      "▁اسلام": 4987,
      "▁الحرم": 4988,
      "▁رغ": 4989,
      "▁احد،": 4990,
      "▁لامر": 4991,
      "▁التوكيد": 4992,
      "ور.": 4993,
      "▁الدول": 4994,
      "▁وعي": 4995,
      "▁وانها": 4996,
      "▁وتك": 4997,
      "وا.": 4998,
      "▁عبيد:": 4999,
      "▁اجتماع": 5000,
      "▁اللغوي": 5001,
      "▁يحكم": 5002,
      "▁والحديث": 5003,
      "علوم": 5004,
      "▁مصد": 5005,
      "▁خروج": 5006,
      "▁الحديث.\n": 5007,
      "▁انصرف": 5008,
      "▁تزوج": 5009,
      "▁يامر": 5010,
      "ورية": 5011,
      "ثيل": 5012,
      "▁بيننا": 5013,
      "▁٧)": 5014,
      "كنت": 5015,
      "▁صيغة": 5016,
      "▁النصاري": 5017,
      "▁الشيء:": 5018,
      "▁\"اب": 5019,
      "▁لاح": 5020,
      "▁اقر": 5021,
      "▁فالج": 5022,
      "▁جيش": 5023,
      "▁المالك": 5024,
      "▁مف": 5025,
      "تها،": 5026,
      "▁السفر": 5027,
      "انيا": 5028,
      "▁المذهب": 5029,
      "▁واقت": 5030,
      "▁والحسن": 5031,
      "ذكير": 5032,
      "▁لزم": 5033,
      "راء:": 5034,
      "▁الشه": 5035,
      "▁نبات": 5036,
      "▁النحاة": 5037,
      "▁مسا": 5038,
      "▁\"ان\"": 5039,
      "▁تيم": 5040,
      "▁الجد": 5041,
      "صلي": 5042,
      "صحاب": 5043,
      "▁الواو:": 5044,
      "نق": 5045,
      "▁ومثال": 5046,
      "▁الوقف": 5047,
      "ماح": 5048,
      "ان:\n": 5049,
      "فوا": 5050,
      "▁لهم:": 5051,
      "▁اقوي": 5052,
      "▁فارسل": 5053,
      "▁لنفسه": 5054,
      "الهم": 5055,
      "ص:": 5056,
      "▁وتكون": 5057,
      "▁القصر": 5058,
      "▁عمله": 5059,
      "▁وتد": 5060,
      "▁حذي": 5061,
      "▁الاصول": 5062,
      "▁الظالم": 5063,
      "٤\n": 5064,
      "▁البغدادي": 5065,
      "▁ليكون": 5066,
      "▁البسيط": 5067,
      "▁ونزل": 5068,
      "▁الشرع": 5069,
      "▁درهم": 5070,
      "ديع": 5071,
      "▁قريبا": 5072,
      "شير": 5073,
      "▁النخ": 5074,
      "ري\n": 5075,
      "▁نفسك": 5076,
      "▁سع": 5077,
      "وقا": 5078,
      "▁فيقال:": 5079,
      "▁الرجل،": 5080,
      "وطي": 5081,
      "▁نسخة": 5082,
      "ور.\n": 5083,
      "▁الامم": 5084,
      "ة\n": 5085,
      "▁ومنها:": 5086,
      "▁باخ": 5087,
      "▁يسلم": 5088,
      "▁اليه.\n": 5089,
      "▁فرغ": 5090,
      "▁القضاة": 5091,
      "▁غف": 5092,
      "▁الصي": 5093,
      "نها": 5094,
      "▁لعمر": 5095,
      "▁غني": 5096,
      "▁دام": 5097,
      "▁الخروج": 5098,
      "▁اتباع": 5099,
      "▁الفارسي": 5100,
      "▁تقل": 5101,
      "▁(٣)\n": 5102,
      "▁وغيرها": 5103,
      "▁صا": 5104,
      "▁غد": 5105,
      "▁رز": 5106,
      "▁فاض": 5107,
      "▁الهر": 5108,
      "▁الفس": 5109,
      "▁القدي": 5110,
      "▁سيما": 5111,
      "▁لكونه": 5112,
      "▁ثياب": 5113,
      "▁الضحا": 5114,
      "▁الهج": 5115,
      "ات.": 5116,
      "لة.": 5117,
      "▁واخرجه": 5118,
      "▁والميم": 5119,
      "▁ويحيي": 5120,
      "▁حرا": 5121,
      "▁الدمش": 5122,
      "ائط": 5123,
      "ائي:": 5124,
      "▁محب": 5125,
      "▁تولي": 5126,
      "▁كش": 5127,
      "▁الثاني،": 5128,
      "▁سماع": 5129,
      "غة،": 5130,
      "▁البحث": 5131,
      "▁الشجر": 5132,
      "▁قتيبة": 5133,
      "وبي": 5134,
      "▁التوراة": 5135,
      "▁الشخص": 5136,
      "▁اسامة": 5137,
      "▁وسبعين": 5138,
      "▁بابي": 5139,
      "▁صلاح": 5140,
      "▁خليفة": 5141,
      "قسم": 5142,
      "▁ليلي": 5143,
      "▁العدل": 5144,
      "▁خطب": 5145,
      "▁الراب": 5146,
      "▁عه": 5147,
      "▁الطير": 5148,
      "▁قلبي": 5149,
      "▁المحا": 5150,
      "▁مقل": 5151,
      "س.\n": 5152,
      "▁اضط": 5153,
      "وا.\n": 5154,
      "▁وكم": 5155,
      "▁ملت": 5156,
      "ليه": 5157,
      "▁٥٠": 5158,
      "ل:": 5159,
      "قة.\n": 5160,
      "خله": 5161,
      "ذاء": 5162,
      "▁نساء": 5163,
      "▁(وان": 5164,
      "▁ثق": 5165,
      "▁المفر": 5166,
      "▁كريم": 5167,
      "▁اليها،": 5168,
      "بة.": 5169,
      "▁(اي": 5170,
      "▁البقرة": 5171,
      "▁بيته": 5172,
      "▁لازم": 5173,
      "▁وعمل": 5174,
      "▁تام": 5175,
      "▁الكريمة": 5176,
      "▁شيخنا": 5177,
      "داع": 5178,
      "ارئ": 5179,
      "▁بيع": 5180,
      "▁الشئ": 5181,
      "وادث": 5182,
      "▁بالحق": 5183,
      "▁خوف": 5184,
      "▁العلم،": 5185,
      "▁رض": 5186,
      "▁حالا": 5187,
      "▁اليه.": 5188,
      "▁التمييز": 5189,
      "▁سنين": 5190,
      "▁وانتم": 5191,
      "▁رفعه": 5192,
      "▁حسنا": 5193,
      "▁(ما)": 5194,
      "▁نشر": 5195,
      "▁السمع": 5196,
      "اجد": 5197,
      "▁الهند": 5198,
      "صيح": 5199,
      "▁التاس": 5200,
      "سر،": 5201,
      "▁يتقدم": 5202,
      "▁لئن": 5203,
      "▁بيا": 5204,
      "▁الثالثة": 5205,
      "▁القديم": 5206,
      "▁باست": 5207,
      "▁يختلف": 5208,
      "▁سد": 5209,
      "▁فاخرج": 5210,
      "▁فذلك": 5211,
      "▁انني": 5212,
      "▁فين": 5213,
      "▁الاما": 5214,
      "▁حارث": 5215,
      "▁بو": 5216,
      "▁بدمشق": 5217,
      "قيقي": 5218,
      "▁الغرض": 5219,
      "▁احمد،": 5220,
      "▁يمين": 5221,
      "▁فانزل": 5222,
      "▁الثقات": 5223,
      "طم": 5224,
      "▁وثمانين": 5225,
      "▁\"ق": 5226,
      "▁التف": 5227,
      "تح": 5228,
      "▁شيوخ": 5229,
      "▁فبعث": 5230,
      "▁الاموال": 5231,
      "▁انكم": 5232,
      "ولوا": 5233,
      "▁الزوج": 5234,
      "فاد": 5235,
      "بتها": 5236,
      "▁الوزير": 5237,
      "▁الخب": 5238,
      "▁خالف": 5239,
      "▁الرمة": 5240,
      "▁هاء": 5241,
      "مرت": 5242,
      "▁والتي": 5243,
      "▁الولد": 5244,
      "▁نست": 5245,
      "▁تلق": 5246,
      "▁تصغير": 5247,
      "▁النخل": 5248,
      "▁والاش": 5249,
      "خد": 5250,
      "ديا": 5251,
      "▁مبتدا،": 5252,
      "▁المنع": 5253,
      "▁الاعشي": 5254,
      "▁مطلق": 5255,
      "▁المبارك": 5256,
      "▁عقب": 5257,
      "ارة،": 5258,
      "▁يجتمع": 5259,
      "▁هر": 5260,
      "▁الضي": 5261,
      "ين\"": 5262,
      "▁ويب": 5263,
      "▁شوال": 5264,
      "▁راجع": 5265,
      "ماء،": 5266,
      "طت": 5267,
      "▁المومنين،": 5268,
      "▁عدو": 5269,
      "▁ورفع": 5270,
      "▁فاتي": 5271,
      "▁اسود": 5272,
      "▁حيا": 5273,
      "▁الثلاثي": 5274,
      "▁الحدث": 5275,
      "عيان": 5276,
      "▁العرا": 5277,
      "▁العرب:": 5278,
      "▁قبيل": 5279,
      "▁(٣)،": 5280,
      "جيل": 5281,
      "▁ر\n": 5282,
      "▁الشرك": 5283,
      "▁الخوا": 5284,
      "▁والنصب": 5285,
      "▁زكريا": 5286,
      "شق": 5287,
      "فيا": 5288,
      "▁ابتداء": 5289,
      "لاع": 5290,
      "▁يضع": 5291,
      "ال.\n": 5292,
      "▁نفسها": 5293,
      "▁مالا": 5294,
      "▁ومسلم": 5295,
      "هم\n": 5296,
      "▁المصرية": 5297,
      "▁الازه": 5298,
      "ولت": 5299,
      "▁ذكرناه": 5300,
      "▁فوجد": 5301,
      "▁اللغات": 5302,
      "▁فيقال": 5303,
      "▁والفر": 5304,
      "زام": 5305,
      "سية": 5306,
      "▁ينصرف": 5307,
      "▁اخري،": 5308,
      "▁البدل": 5309,
      "▁ومج": 5310,
      "▁المهاجر": 5311,
      "ناعة": 5312,
      "▁اليد": 5313,
      "ب.\n": 5314,
      "▁وحكم": 5315,
      "▁قدمت": 5316,
      "▁ناقص": 5317,
      "▁يستطيع": 5318,
      "طفي": 5319,
      "▁يفر": 5320,
      "▁العلا": 5321,
      "▁حافظ": 5322,
      "▁شد": 5323,
      "صاله": 5324,
      "▁ابناء": 5325,
      "▁صفر": 5326,
      "١-": 5327,
      "▁يتعدي": 5328,
      "▁كونها": 5329,
      "همزة": 5330,
      "فون": 5331,
      "▁لها:": 5332,
      "▁شريك": 5333,
      "ذاهب": 5334,
      "ادل": 5335,
      "▁والار": 5336,
      "▁رسوله": 5337,
      "▁متعد": 5338,
      "▁احيانا": 5339,
      "▁ونقل": 5340,
      "له\n": 5341,
      "▁التراب": 5342,
      "▁تجمع": 5343,
      "▁ساكنة": 5344,
      "▁بعده،": 5345,
      "▁الكسائي": 5346,
      "▁انكر": 5347,
      "▁الكاتب": 5348,
      "ضد": 5349,
      "▁الاربعة": 5350,
      "▁صغير": 5351,
      "▁لبني": 5352,
      "▁الاية،": 5353,
      "ائي،": 5354,
      "▁كمال": 5355,
      "▁اخا": 5356,
      "بروا": 5357,
      "س\n": 5358,
      "▁وتاج": 5359,
      "▁كثير،": 5360,
      "▁الاثير": 5361,
      "بحث": 5362,
      "طال": 5363,
      "▁يجر": 5364,
      "▁جذ": 5365,
      "▁الرجز": 5366,
      "▁اشر": 5367,
      "▁تما": 5368,
      "▁الصح": 5369,
      "▁الظاهرة": 5370,
      "ما.": 5371,
      "▁ضرورة": 5372,
      "▁مشا": 5373,
      "▁الشبه": 5374,
      "▁الغالب": 5375,
      "▁للد": 5376,
      "▁ذرا": 5377,
      "▁المبرد": 5378,
      "▁صرح": 5379,
      "▁الافراد": 5380,
      "حات": 5381,
      "▁والظ": 5382,
      "صحيح": 5383,
      "كد": 5384,
      "▁القري": 5385,
      "فذ": 5386,
      "لاء،": 5387,
      "▁تعرض": 5388,
      "▁والرا": 5389,
      "▁محذوف،": 5390,
      "ش:": 5391,
      "▁وبقي": 5392,
      "▁هذ": 5393,
      "▁وشرح": 5394,
      "▁النع": 5395,
      "▁يقطع": 5396,
      "▁مري": 5397,
      "▁تبين": 5398,
      "▁رزق": 5399,
      "▁مقب": 5400,
      "طويل": 5401,
      "▁التقدير:": 5402,
      "▁العشر": 5403,
      "شاد": 5404,
      "▁تفا": 5405,
      "▁الكتاب،": 5406,
      "▁ومنه:": 5407,
      "ما.\n": 5408,
      "ح.": 5409,
      "لكة": 5410,
      "س.": 5411,
      "▁قدي": 5412,
      "▁الاخر:\n": 5413,
      "▁عس": 5414,
      "▁حري": 5415,
      "▁سلطان": 5416,
      "رر": 5417,
      "▁يلق": 5418,
      "▁المسلمين،": 5419,
      "لزم": 5420,
      "٥\n": 5421,
      "▁يوجب": 5422,
      "▁عنها،": 5423,
      "▁معشر": 5424,
      "▁خاف": 5425,
      "نوي": 5426,
      "▁سفر": 5427,
      "ثرت": 5428,
      "▁الانف": 5429,
      "▁نزول": 5430,
      "يدان": 5431,
      "٤-": 5432,
      "▁[٣": 5433,
      "شك": 5434,
      "▁(ولا": 5435,
      "▁يصير": 5436,
      "▁الحسن،": 5437,
      "▁حوله": 5438,
      "▁٥٢": 5439,
      "▁الناصر": 5440,
      "▁الحما": 5441,
      "يق": 5442,
      "▁يشعر": 5443,
      "▁الروايات": 5444,
      "▁قبض": 5445,
      "ويت": 5446,
      "ن)": 5447,
      "▁اضاف": 5448,
      "٣-": 5449,
      "▁الامثلة": 5450,
      "▁والتاء": 5451,
      "...": 5452,
      "▁غضب": 5453,
      "▁حقه": 5454,
      "▁السج": 5455,
      "▁الراجز": 5456,
      "▁خلال": 5457,
      "▁عمرو:": 5458,
      "▁النكرة": 5459,
      "عده": 5460,
      "الوا": 5461,
      "واتها": 5462,
      "▁الموصوف": 5463,
      "جو": 5464,
      "▁والاسم": 5465,
      "▁جارية": 5466,
      "▁والمعني:": 5467,
      "▁اسحاق:": 5468,
      "صرة": 5469,
      "٥.\n": 5470,
      "▁\"وا": 5471,
      "لاص": 5472,
      "▁ربهم": 5473,
      "▁يشهد": 5474,
      "▁وشبه": 5475,
      "▁لف": 5476,
      "▁جاءني": 5477,
      "▁اداة": 5478,
      "▁كح": 5479,
      "▁تض": 5480,
      "▁لغت": 5481,
      "▁نبت": 5482,
      "▁(فا": 5483,
      "٥-": 5484,
      "▁ولت": 5485,
      "▁وقبل": 5486,
      "ضاع": 5487,
      "ربه": 5488,
      "اش": 5489,
      "▁صدقة": 5490,
      "▁البشر": 5491,
      "ن.\n": 5492,
      "▁يودي": 5493,
      "▁(علي": 5494,
      "▁غسل": 5495,
      "▁الذك": 5496,
      "▁الزمن": 5497,
      "▁متص": 5498,
      "ليظ": 5499,
      "▁الليلة": 5500,
      "▁خف": 5501,
      "▁٥١": 5502,
      "عدل": 5503,
      "▁تصرف": 5504,
      "▁بنات": 5505,
      "▁والبا": 5506,
      "▁١:": 5507,
      "▁اعتبار": 5508,
      "ابا": 5509,
      "▁هلال": 5510,
      "زار": 5511,
      "▁مختص": 5512,
      "ير.\n": 5513,
      "▁السبت": 5514,
      "▁فاطمة": 5515,
      "▁نقي": 5516,
      "▁البط": 5517,
      "▁وكلا": 5518,
      "▁فقط،": 5519,
      "▁مشبه": 5520,
      "▁جميل": 5521,
      "▁النسخ": 5522,
      "▁كقولك": 5523,
      "▁الفص": 5524,
      "▁نفر": 5525,
      "قطاع": 5526,
      "▁اهت": 5527,
      "▁ثمانية": 5528,
      "▁ره": 5529,
      "▁والنسائي": 5530,
      "▁\"فعل": 5531,
      "▁عكرمة": 5532,
      "▁عوضا": 5533,
      "قصد": 5534,
      "▁سفيان،": 5535,
      "▁مصر،": 5536,
      "▁فاقام": 5537,
      "▁بحذف": 5538,
      "▁يعرض": 5539,
      "▁الشرح": 5540,
      "حان": 5541,
      "▁تعلق": 5542,
      "▁الواس": 5543,
      "نا.": 5544,
      "▁وبل": 5545,
      "▁الاولي،": 5546,
      "▁ههنا": 5547,
      "▁الناب": 5548,
      "▁الهجرة": 5549,
      "-:": 5550,
      "▁الوهاب": 5551,
      "▁احمر": 5552,
      "٦-": 5553,
      "▁(فعل": 5554,
      "نز": 5555,
      "▁الزكاة": 5556,
      "▁واوا": 5557,
      "▁سك": 5558,
      "▁اوس": 5559,
      "ي.\n": 5560,
      "▁ولذا": 5561,
      "مشق،": 5562,
      "▁المجد": 5563,
      "▁والمس": 5564,
      "ك)": 5565,
      "سته": 5566,
      "▁حاتم:": 5567,
      "▁التاب": 5568,
      "ثلاث": 5569,
      "صاص": 5570,
      "▁نفع": 5571,
      "▁عجز": 5572,
      "▁اسر": 5573,
      "٧-": 5574,
      "كرة،": 5575,
      "▁زم": 5576,
      "▁يدا": 5577,
      "ثن": 5578,
      "▁قبلها،": 5579,
      "▁فصلي": 5580,
      "▁الجبال": 5581,
      "▁لز": 5582,
      "عاة": 5583,
      "مان،": 5584,
      "▁عصف": 5585,
      "▁بف": 5586,
      "▁ونصب": 5587,
      "؟!": 5588,
      "▁راج": 5589,
      "▁ماضي": 5590,
      "جد،": 5591,
      "▁النوم": 5592,
      "▁ايضا.": 5593,
      "ديل": 5594,
      "حيا": 5595,
      "لاط": 5596,
      "▁الدرا": 5597,
      "▁نم": 5598,
      "▁ومح": 5599,
      "▁طريقة": 5600,
      "لين،": 5601,
      "٨-": 5602,
      "▁وتخ": 5603,
      "▁وائل": 5604,
      "▁والمح": 5605,
      "▁الفرزدق": 5606,
      "▁بالمدينة": 5607,
      "▁سلمة،": 5608,
      "لك،": 5609,
      "▁(١١": 5610,
      "▁باح": 5611,
      "٩-": 5612,
      "▁الاسمية": 5613,
      "▁علمه": 5614,
      "يران": 5615,
      "حون": 5616,
      "▁جزم": 5617,
      "▁شاهد": 5618,
      "▁امرو": 5619,
      "▁مضار": 5620,
      "اث": 5621,
      "▁والكاف": 5622,
      "▁البصر": 5623,
      "▁القاهر": 5624,
      "▁الله\n": 5625,
      "▁جهنم": 5626,
      "▁الجي": 5627,
      "▁لها.": 5628,
      "▁ففعل": 5629,
      "▁فاعت": 5630,
      "▁يحفظ": 5631,
      "▁كتبت": 5632,
      "▁يضر": 5633,
      "٢-": 5634,
      "▁٥٤": 5635,
      "▁٣-": 5636,
      "ته\n": 5637,
      "▁كبي": 5638,
      "▁منزل": 5639,
      "▁جزاء": 5640,
      "▁فيا": 5641,
      "▁الكرم": 5642,
      "▁موسي،": 5643,
      "▁تعت": 5644,
      "▁والشر": 5645,
      "طيف": 5646,
      "▁يدعي": 5647,
      "▁الشعر،": 5648,
      "▁وامراة": 5649,
      "يتها": 5650,
      "▁السع": 5651,
      "وتي": 5652,
      "▁[الن": 5653,
      "▁الجنا": 5654,
      "▁العط": 5655,
      "▁٥).\n": 5656,
      "▁الكت": 5657,
      "▁الفرا": 5658,
      "▁عظي": 5659,
      "▁السري": 5660,
      "▁الملك،": 5661,
      "اهر،": 5662,
      "نسية": 5663,
      "▁جلس": 5664,
      "وون": 5665,
      "ول\n": 5666,
      "▁معمر": 5667,
      "▁بير": 5668,
      "▁٥٣": 5669,
      "▁وبلغ": 5670,
      "الي،": 5671,
      "\":\n": 5672,
      "▁تقدي": 5673,
      "▁ضل": 5674,
      "▁قرات": 5675,
      "لائل": 5676,
      "▁حاله": 5677,
      "▁مسلم،": 5678,
      "▁كه": 5679,
      "▁السماع": 5680,
      "ثت": 5681,
      "▁واحسن": 5682,
      "▁المفسر": 5683,
      "▁كاتب": 5684,
      "▁وخبر": 5685,
      "▁احداهما": 5686,
      "▁\"يا": 5687,
      "▁الواحدة": 5688,
      "▁فاجاب": 5689,
      "داية": 5690,
      "راها": 5691,
      "▁يبعث": 5692,
      "▁القرشي": 5693,
      "▁تبا": 5694,
      "▁التركيب": 5695,
      "▁نظم": 5696,
      "▁اخذه": 5697,
      "▁الاستعارة": 5698,
      "▁بالنصب": 5699,
      "▁٥٦": 5700,
      "▁يمت": 5701,
      "▁ينصب": 5702,
      "وك،": 5703,
      "طئ": 5704,
      "▁ربا": 5705,
      "▁المعطوف": 5706,
      "▁عندما": 5707,
      "▁الرحمن،": 5708,
      "▁نري": 5709,
      "▁التعبير": 5710,
      "غتسل": 5711,
      "طي،": 5712,
      "▁التاويل": 5713,
      "ليلا": 5714,
      "▁رجب": 5715,
      "▁ادي": 5716,
      "▁برج": 5717,
      "حقق": 5718,
      "▁تحرك": 5719,
      "▁علي\n": 5720,
      "▁النعت": 5721,
      "▁قس": 5722,
      "▁الوار": 5723,
      "▁والاف": 5724,
      "▁القتل": 5725,
      "▁[٥]": 5726,
      "ووا": 5727,
      "▁ثعلب": 5728,
      "▁ضمن": 5729,
      "خال": 5730,
      "▁[ي": 5731,
      "ط:": 5732,
      "ارس": 5733,
      "▁الاستعمال": 5734,
      "▁وامت": 5735,
      "▁القوة": 5736,
      "▁الخلف": 5737,
      "واك": 5738,
      "▁الدليل": 5739,
      "▁حدود": 5740,
      "▁احرف": 5741,
      "▁سلط": 5742,
      "▁يملك": 5743,
      "▁[الم": 5744,
      "يين": 5745,
      "▁عظ": 5746,
      "▁الضل": 5747,
      "▁وقام": 5748,
      "يده": 5749,
      "▁-من": 5750,
      "ن\n": 5751,
      "▁الهذلي": 5752,
      "▁امرهم": 5753,
      "▁تمت": 5754,
      "▁الائمة": 5755,
      "▁وضعت": 5756,
      "رج،": 5757,
      "▁ثلاثين": 5758,
      "▁بـ\"": 5759,
      "▁القصة": 5760,
      "▁اثناء": 5761,
      "فيل": 5762,
      "▁بحديث": 5763,
      "▁مقدر": 5764,
      "زول": 5765,
      "▁(مع": 5766,
      "▁دعاء": 5767,
      "▁القليل": 5768,
      "▁الجميع": 5769,
      "ئم": 5770,
      "▁ارتفع": 5771,
      "▁تات": 5772,
      "▁الشباب": 5773,
      "▁الشك": 5774,
      "▁وتص": 5775,
      "▁سعي": 5776,
      "صرت": 5777,
      "جازي": 5778,
      "خيم": 5779,
      "وي.\n": 5780,
      "▁باله": 5781,
      "▁للنبي": 5782,
      "طعام": 5783,
      "▁زه": 5784,
      "▁وهو:": 5785,
      "▁برق": 5786,
      "▁فنا": 5787,
      "▁نفوس": 5788,
      "ائهم": 5789,
      "▁قالا:": 5790,
      "▁معجم": 5791,
      "واحد": 5792,
      "▁الثياب": 5793,
      "▁المطل": 5794,
      "▁يعلمون": 5795,
      "▁العمر": 5796,
      "ريرة،": 5797,
      "▁الاية:": 5798,
      "▁شديدا": 5799,
      "▁٥٥": 5800,
      "▁العت": 5801,
      "▁كانما": 5802,
      "▁المستقبل": 5803,
      "▁وعرف": 5804,
      "▁المض": 5805,
      "▁الاسكن": 5806,
      "▁جوازا": 5807,
      "▁الواو،": 5808,
      "▁ووقع": 5809,
      "▁الخام": 5810,
      "▁اعج": 5811,
      "▁الكلب": 5812,
      "▁الاثر": 5813,
      "▁واصحابه": 5814,
      "▁الطويل،": 5815,
      "▁وقالت": 5816,
      "▁عرق": 5817,
      "▁حذيفة": 5818,
      "▁الاحوال": 5819,
      "▁وايا": 5820,
      "▁مظ": 5821,
      "▁نخ": 5822,
      "▁يقول:\n": 5823,
      "▁صر": 5824,
      "لفت": 5825,
      "▁(١٢": 5826,
      "▁الاوز": 5827,
      "▁الظن": 5828,
      "▁بيض": 5829,
      "▁ضبط": 5830,
      "▁عادة": 5831,
      "▁هو:": 5832,
      "▁معناها": 5833,
      "▁الباطل": 5834,
      "▁المدني": 5835,
      "▁الخلافة": 5836,
      "▁لون": 5837,
      "رتب": 5838,
      "▁الابد": 5839,
      "▁يخالف": 5840,
      "▁واضح": 5841,
      "▁وقلت": 5842,
      "▁تسمع": 5843,
      "▁ديوانه": 5844,
      "وكد": 5845,
      "▁غلط": 5846,
      "▁السادس": 5847,
      "▁الخش": 5848,
      "▁عتبة": 5849,
      "▁تضمن": 5850,
      "نيه": 5851,
      "▁يدفع": 5852,
      "▁اصلها": 5853,
      "▁بصي": 5854,
      "▁بالام": 5855,
      "▁المرفوع": 5856,
      "▁النه": 5857,
      "ائص": 5858,
      "▁نشا": 5859,
      "▁وسعيد": 5860,
      "▁الرازي": 5861,
      "▁وهنا": 5862,
      "ئات": 5863,
      "جان": 5864,
      "▁ادع": 5865,
      "▁كـ\"": 5866,
      "▁بطل": 5867,
      "▁الجهاد": 5868,
      "٦\n": 5869,
      "▁ناقة": 5870,
      "تيم": 5871,
      "▁القمر": 5872,
      "▁للرجل": 5873,
      "▁استفهام": 5874,
      "▁ناس": 5875,
      "▁تاج": 5876,
      "▁وتش": 5877,
      "▁سواد": 5878,
      "▁كب": 5879,
      "▁[الح": 5880,
      "▁صالحا": 5881,
      "▁وتشديد": 5882,
      "ورهم": 5883,
      "▁عينا": 5884,
      "▁فاص": 5885,
      "لقي": 5886,
      "قرا": 5887,
      "▁مدح": 5888,
      "▁ودا": 5889,
      "فقة": 5890,
      "▁النار،": 5891,
      "يرة،": 5892,
      "▁مجمع": 5893,
      "▁البصريين": 5894,
      "▁عبر": 5895,
      "▁السلم": 5896,
      "▁عليا": 5897,
      "▁الفاعل،": 5898,
      "▁ودع": 5899,
      "▁فذهب": 5900,
      "فاعة": 5901,
      "▁خدي": 5902,
      "▁هز": 5903,
      "▁خار": 5904,
      "▁المتوفي": 5905,
      "▁يعل": 5906,
      "رابه": 5907,
      "د.\n": 5908,
      "رضا": 5909,
      "▁وقال:\n": 5910,
      "▁حقيق": 5911,
      "▁بها.\n": 5912,
      "▁وردت": 5913,
      "▁الكلا": 5914,
      "▁٤)،": 5915,
      "▁الرمل": 5916,
      "▁والمست": 5917,
      "▁يمس": 5918,
      "▁بخط": 5919,
      "▁مسل": 5920,
      "▁٢)\n": 5921,
      "▁بن\n": 5922,
      "▁للر": 5923,
      "▁ولفظ": 5924,
      "لل": 5925,
      "▁والصحيح": 5926,
      "▁ابنة": 5927,
      "▁تقري": 5928,
      "لاه": 5929,
      "▁مئة": 5930,
      "▁ممد": 5931,
      "▁رسم": 5932,
      "▁غري": 5933,
      "▁الاعلام": 5934,
      "▁الحضر": 5935,
      "▁باطل": 5936,
      "مته": 5937,
      "ما)": 5938,
      "قرب": 5939,
      "▁الشام،": 5940,
      "▁فقت": 5941,
      "▁قبله،": 5942,
      "قاط": 5943,
      "عرف": 5944,
      "ستان": 5945,
      "▁وابراهيم": 5946,
      "▁القرط": 5947,
      "قتها": 5948,
      "ال.": 5949,
      "▁حرام": 5950,
      "▁كثيرة،": 5951,
      "▁امكن": 5952,
      "▁(الك": 5953,
      "▁الجوا": 5954,
      "▁الياء،": 5955,
      "▁المكت": 5956,
      "▁اسمها": 5957,
      "▁والناس": 5958,
      "▁الجنة،": 5959,
      "▁ينسب": 5960,
      "▁الصفات": 5961,
      "▁البيت،": 5962,
      "▁رسالة": 5963,
      "ن.": 5964,
      "افعل": 5965,
      "▁ينكر": 5966,
      "▁نن": 5967,
      "▁القام": 5968,
      "▁وبعضهم": 5969,
      "▁جيد": 5970,
      "▁كراه": 5971,
      "▁جدي": 5972,
      "▁غا": 5973,
      "▁نعمة": 5974,
      "▁لانهما": 5975,
      "▁يختص": 5976,
      "حاء": 5977,
      "▁الحاجة": 5978,
      "▁لك،": 5979,
      "▁١):": 5980,
      "غرب": 5981,
      "عمة": 5982,
      "▁(ثم": 5983,
      "▁[ا": 5984,
      "▁الرشيد": 5985,
      "▁فخر": 5986,
      "▁السابقة": 5987,
      "▁والامر": 5988,
      "بية": 5989,
      "▁السلف": 5990,
      "جيب": 5991,
      "▁الصبي": 5992,
      "▁شرك": 5993,
      "▁الصدر": 5994,
      "فين": 5995,
      "▁مجرد": 5996,
      "▁يمن": 5997,
      "طور": 5998,
      "ختصاص": 5999,
      "▁ويسمي": 6000,
      "وا)": 6001,
      "حمي": 6002,
      "▁م\n": 6003,
      "٧\n": 6004,
      "▁٢:": 6005,
      "▁والتح": 6006,
      "▁ولكنها": 6007,
      "زاب": 6008,
      "▁اواخر": 6009,
      "▁ابيض": 6010,
      "▁الازهري:": 6011,
      "▁فتن": 6012,
      "▁صدي": 6013,
      "▁شجرة": 6014,
      "▁يمتنع": 6015,
      "▁ثعلبة": 6016,
      "▁ويقول:": 6017,
      "٠-": 6018,
      "▁الوع": 6019,
      "ذم": 6020,
      "▁مسن": 6021,
      "▁قاتل": 6022,
      "▁صع": 6023,
      "▁المواضع": 6024,
      "وطة": 6025,
      "▁مالك:": 6026,
      "▁يرج": 6027,
      "▁الاختلاف": 6028,
      "▁يكره": 6029,
      "▁خلقه": 6030,
      "▁دونه": 6031,
      "هم)": 6032,
      "▁التقي": 6033,
      "▁عليه:": 6034,
      "دي.\n": 6035,
      "▁الرسالة": 6036,
      "قدام": 6037,
      "▁حسنة": 6038,
      "▁وتب": 6039,
      "▁لفظه": 6040,
      "▁يخبر": 6041,
      "▁الاسلامية": 6042,
      "▁الغز": 6043,
      "تيه": 6044,
      "▁النبوة": 6045,
      "غ،": 6046,
      "▁اسناد": 6047,
      "▁طبع": 6048,
      "▁اصبحت": 6049,
      "غاء": 6050,
      "▁كبار": 6051,
      "▁الواجب": 6052,
      "▁بوجه": 6053,
      "▁يسار": 6054,
      "▁عجل": 6055,
      "▁اتيت": 6056,
      "لا.\n": 6057,
      "▁رابع": 6058,
      "▁يحا": 6059,
      "▁مرح": 6060,
      "▁يموت": 6061,
      "واني": 6062,
      "▁بزيد": 6063,
      "▁عقيل": 6064,
      "▁الشعب": 6065,
      "▁العسكر": 6066,
      "▁ابني": 6067,
      "▁\"اذا": 6068,
      "خروج": 6069,
      "▁فلن": 6070,
      "▁سعد،": 6071,
      "▁داود،": 6072,
      "▁(ابن": 6073,
      "▁النفوس": 6074,
      "▁(ج)": 6075,
      "▁دائما": 6076,
      "▁لقب": 6077,
      "▁تعل": 6078,
      "▁وقوله:\n": 6079,
      "اف،": 6080,
      "▁رق": 6081,
      "▁يعبد": 6082,
      "▁ووضع": 6083,
      "▁صفات": 6084,
      "▁كناية": 6085,
      "▁\"الت": 6086,
      "▁بالياء": 6087,
      "▁ويقولون:": 6088,
      "▁تنت": 6089,
      "▁(٥).\n": 6090,
      "▁بسم": 6091,
      "▁وبد": 6092,
      "▁جند": 6093,
      "▁كامل": 6094,
      "دها": 6095,
      "ك\n": 6096,
      "▁تمييز": 6097,
      "▁دينار،": 6098,
      "هز": 6099,
      "▁شعيب": 6100,
      "▁كلاهما": 6101,
      "جهول": 6102,
      "▁وجمعه": 6103,
      "▁البت": 6104,
      "▁التعجب": 6105,
      "ود\n": 6106,
      "▁توجه": 6107,
      "▁مسلمة": 6108,
      "▁يريد:": 6109,
      "▁النور": 6110,
      "▁مشد": 6111,
      "رة.": 6112,
      "عدت": 6113,
      "٦.\n": 6114,
      "▁البك": 6115,
      "▁والحق": 6116,
      "صل،": 6117,
      "▁هريرة،": 6118,
      "▁كذا،": 6119,
      "▁فسار": 6120,
      "▁وحدثنا": 6121,
      "▁الخد": 6122,
      "▁اللحي": 6123,
      "▁عار": 6124,
      "كم)": 6125,
      "▁الجام": 6126,
      "وهن": 6127,
      "▁الخوف": 6128,
      "▁عوا": 6129,
      "▁مبين": 6130,
      "▁عثمان:": 6131,
      "▁النحويين": 6132,
      "▁مائ": 6133,
      "▁والتقدير:": 6134,
      "▁نجا": 6135,
      "▁يكت": 6136,
      "ضاح": 6137,
      "▁تعالي:\n": 6138,
      "▁النضر": 6139,
      "▁الخطا": 6140,
      "▁الغائ": 6141,
      "وقة": 6142,
      "مة:": 6143,
      "ولها": 6144,
      "▁ولسان": 6145,
      "▁عاب": 6146,
      "▁ادني": 6147,
      "▁ارادة": 6148,
      "▁ده": 6149,
      "▁؟": 6150,
      "▁للمت": 6151,
      "▁بانها": 6152,
      "لاما": 6153,
      "▁الوحي": 6154,
      "▁تاكل": 6155,
      "▁معرب": 6156,
      "▁وكانه": 6157,
      "▁يومنون": 6158,
      "▁عيينة": 6159,
      "▁كفا": 6160,
      "▁الدارقطني": 6161,
      "▁افر": 6162,
      "▁امثلة": 6163,
      "▁احمد:": 6164,
      "٨\n": 6165,
      "▁المعجم": 6166,
      "▁واتي": 6167,
      "▁يبت": 6168,
      "▁[الت": 6169,
      "▁يريدون": 6170,
      "▁الحق،": 6171,
      "عا\n": 6172,
      "▁فتنة": 6173,
      "▁المحل": 6174,
      "▁مرج": 6175,
      "به\n": 6176,
      "▁ابد": 6177,
      "▁ناصر": 6178,
      "▁السورة": 6179,
      "▁ثلاثا": 6180,
      "▁زائ": 6181,
      "▁عربي": 6182,
      "▁فسمع": 6183,
      "▁ديار": 6184,
      "▁التصغير": 6185,
      "ير.": 6186,
      "زني": 6187,
      "نا.\n": 6188,
      "▁نعلم": 6189,
      "نساء:": 6190,
      "▁لرسول": 6191,
      "رايت": 6192,
      "▁مرس": 6193,
      "▁القبائل": 6194,
      "▁السموات": 6195,
      "▁قولا": 6196,
      "▁يصيب": 6197,
      "ونك": 6198,
      "▁تي": 6199,
      "▁تاك": 6200,
      "صري": 6201,
      "ير\n": 6202,
      "▁المقدس": 6203,
      "حيحة": 6204,
      "▁الكذب": 6205,
      "ها\"": 6206,
      "▁بمحذوف": 6207,
      "١١": 6208,
      "▁ببغداد": 6209,
      "▁الحديد": 6210,
      "رام،": 6211,
      "▁شعبان": 6212,
      "اليك": 6213,
      "▁والما": 6214,
      "▁قن": 6215,
      "▁الاشع": 6216,
      "▁زيدا،": 6217,
      "▁ابنا": 6218,
      "▁عود": 6219,
      "سم،": 6220,
      "▁ومعناه": 6221,
      "▁يعلي": 6222,
      "▁راك": 6223,
      "▁الطا": 6224,
      "▁يتخذ": 6225,
      "وحا": 6226,
      "▁وملك": 6227,
      "▁(٨)": 6228,
      "▁اسفل": 6229,
      "▁اشهد": 6230,
      "▁اخوان": 6231,
      "▁كام": 6232,
      "لون": 6233,
      "▁تنوين": 6234,
      "▁جال": 6235,
      "▁بره": 6236,
      "▁واسمه": 6237,
      "▁المنصوب": 6238,
      "▁لماذا": 6239,
      "▁(وي": 6240,
      "▁(٤)،": 6241,
      "▁(بوشر).\n": 6242,
      "قاس": 6243,
      "اليا": 6244,
      "▁الوجود": 6245,
      "▁قراء": 6246,
      "▁الهل": 6247,
      "▁والعرب": 6248,
      "▁ورف": 6249,
      "وها،": 6250,
      "▁(ابو": 6251,
      "ورات": 6252,
      "▁اضيف": 6253,
      "▁٥٧": 6254,
      "▁صلاته": 6255,
      "دلال": 6256,
      "▁ل\n": 6257,
      "▁الفن": 6258,
      "وسا": 6259,
      "قيب": 6260,
      "وسع": 6261,
      "ليت": 6262,
      "▁ابي،": 6263,
      "تهر": 6264,
      "▁رحل": 6265,
      "▁كني": 6266,
      "▁فقي": 6267,
      "▁العالمين": 6268,
      "▁اخوه": 6269,
      "▁وفاته": 6270,
      "▁قامت": 6271,
      "▁المعد": 6272,
      "▁[فصيحة": 6273,
      "▁اذهب": 6274,
      "▁ويخ": 6275,
      "▁دينا": 6276,
      "▁مسائل": 6277,
      "▁يكونوا": 6278,
      "▁جنب": 6279,
      "جموع": 6280,
      "▁زائدة،": 6281,
      "قارب": 6282,
      "▁سح": 6283,
      "والله": 6284,
      "▁مقي": 6285,
      "▁التب": 6286,
      "به.\n": 6287,
      "▁الدعوة": 6288,
      "▁النابغة": 6289,
      "ول:": 6290,
      "▁ووق": 6291,
      "▁مصعب": 6292,
      "▁وصاحب": 6293,
      "▁الابيات": 6294,
      "▁لكثرة": 6295,
      "▁النظم": 6296,
      "▁لبي": 6297,
      "▁المضمر": 6298,
      "▁عظيمة": 6299,
      "▁كانك": 6300,
      "▁الاحد": 6301,
      "▁ماجه": 6302,
      "▁وذا": 6303,
      "▁مكانه": 6304,
      "▁لي:": 6305,
      "▁يبني": 6306,
      "▁الحالة": 6307,
      "▁خوا": 6308,
      "▁وهي:": 6309,
      "▁المصادر": 6310,
      "▁-ب": 6311,
      "▁وـ": 6312,
      "شمي": 6313,
      "▁سائ": 6314,
      "▁اننا": 6315,
      "▁اعرابي": 6316,
      "▁قار": 6317,
      "▁مخصوص": 6318,
      "ما\"": 6319,
      "▁ذهبت": 6320,
      "▁واسر": 6321,
      "▁حكاية": 6322,
      "▁الحنف": 6323,
      "▁اللفظ،": 6324,
      "▁تستعمل": 6325,
      "▁منكر": 6326,
      "▁الحكمة": 6327,
      "▁٥٩": 6328,
      "▁قبيلة": 6329,
      "▁كفي": 6330,
      "د.": 6331,
      "▁الاندلس": 6332,
      "▁لالت": 6333,
      "▁الطلب": 6334,
      "ضه": 6335,
      "▁الريا": 6336,
      "قدمة": 6337,
      "▁(٤)\n": 6338,
      "▁وانهم": 6339,
      "▁الرحم": 6340,
      "▁برك": 6341,
      "▁عسكر": 6342,
      "▁يظن": 6343,
      "▁بالناس": 6344,
      "▁بعض،": 6345,
      "▁النبات": 6346,
      "▁بسر": 6347,
      "▁تشبيه": 6348,
      "▁وجع": 6349,
      "▁وغيرهم.\n": 6350,
      "ربوا": 6351,
      "▁قلبت": 6352,
      "▁البعض": 6353,
      "▁اليون": 6354,
      "▁الدكتور": 6355,
      "حط": 6356,
      "ري.": 6357,
      "فقوا": 6358,
      "بوع": 6359,
      "▁زوجها": 6360,
      "▁يقضي": 6361,
      "لا:": 6362,
      "▁قتال": 6363,
      "▁الليل،": 6364,
      "▁لعبد": 6365,
      "▁منه:": 6366,
      "▁محر": 6367,
      "▁يوخذ": 6368,
      "اذن": 6369,
      "▁صالح،": 6370,
      "▁فمات": 6371,
      "▁وبنو": 6372,
      "▁بالز": 6373,
      "▁ووج": 6374,
      "▁الصيد": 6375,
      "▁الحيا": 6376,
      "▁وحينئذ": 6377,
      "▁الغلام": 6378,
      "▁ويم": 6379,
      "▁بعي": 6380,
      "▁والترمذي": 6381,
      "▁والده": 6382,
      "▁حلف": 6383,
      "▁قطعة": 6384,
      "قاضي": 6385,
      "▁هذا؟": 6386,
      "▁(١٣": 6387,
      "▁السبيل": 6388,
      "▁لحق": 6389,
      "▁الكه": 6390,
      "▁الهد": 6391,
      "▁جرت": 6392,
      "▁جاه": 6393,
      "▁الزهري،": 6394,
      "▁الاخيرة": 6395,
      "▁بلال": 6396,
      "▁يخاف": 6397,
      "▁رجل،": 6398,
      "▁كقوله:": 6399,
      "▁خبره": 6400,
      "▁معلوم": 6401,
      "▁ويدل": 6402,
      "▁وسمي": 6403,
      "لح": 6404,
      "ريق،": 6405,
      "ي\n": 6406,
      "▁عذا": 6407,
      "ثقل": 6408,
      "▁٥٨": 6409,
      "▁الصدقة": 6410,
      "▁كرم": 6411,
      "▁سنة.\n": 6412,
      "▁مجموع": 6413,
      "قان": 6414,
      "▁تتبع": 6415,
      "ئ،": 6416,
      "▁ومد": 6417,
      "▁لاتصاله": 6418,
      "▁مفتوحة": 6419,
      "▁يشترط": 6420,
      "▁فدعا": 6421,
      "▁تحدث": 6422,
      "▁منق": 6423,
      "▁العيش": 6424,
      "▁مطاب": 6425,
      "بته": 6426,
      "▁ذنب": 6427,
      "عته": 6428,
      "▁والسلام": 6429,
      "▁الاجتماع": 6430,
      "▁الظلم": 6431,
      "▁اجعل": 6432,
      "ساس": 6433,
      "▁الصبر": 6434,
      "▁للغ": 6435,
      "▁متعل": 6436,
      "ورها": 6437,
      "▁ارادوا": 6438,
      "▁يمر": 6439,
      "▁فمع": 6440,
      "▁القوي": 6441,
      "▁المستثني": 6442,
      "▁دولة": 6443,
      "▁الحض": 6444,
      "▁ومالك": 6445,
      "▁رفي": 6446,
      "وفق": 6447,
      "ع.\n": 6448,
      "ه:\n": 6449,
      "▁المجر": 6450,
      "عدد": 6451,
      "▁ابان": 6452,
      "▁يقر": 6453,
      "▁بيني": 6454,
      "▁جديد": 6455,
      "▁عباده": 6456,
      "ومات": 6457,
      "▁العز": 6458,
      "▁الطبري": 6459,
      "ية؛": 6460,
      "▁الخلي": 6461,
      "▁المهدي": 6462,
      "▁الاكل": 6463,
      "▁نهر": 6464,
      "▁الرزاق": 6465,
      "▁يكثر": 6466,
      "▁الرد": 6467,
      "عال": 6468,
      "▁اشرف": 6469,
      "افي": 6470,
      "▁تخل": 6471,
      "▁ففيه": 6472,
      "شاعر": 6473,
      "▁الشارح": 6474,
      "▁يحيي،": 6475,
      "▁الزمخشري": 6476,
      "▁يكفي": 6477,
      "▁(ز)\n": 6478,
      "ضاعف": 6479,
      "▁عمران:": 6480,
      "▁حلق": 6481,
      "▁هنا،": 6482,
      "▁الشمال": 6483,
      "▁الانس": 6484,
      "▁راينا": 6485,
      "ك\"": 6486,
      "من،": 6487,
      "▁بثلاث": 6488,
      "▁كبر": 6489,
      "▁الجمال": 6490,
      "وات،": 6491,
      "▁حمي": 6492,
      "اسة": 6493,
      "▁يمشي": 6494,
      "▁مشه": 6495,
      "▁اوائل": 6496,
      "▁الطبراني": 6497,
      "بتم": 6498,
      "▁الجوهري:": 6499,
      "▁جو": 6500,
      "▁طاعة": 6501,
      "▁بخبر": 6502,
      "▁باق": 6503,
      "وجيه": 6504,
      "▁تفر": 6505,
      "▁بالاست": 6506,
      "٩\n": 6507,
      "▁بشرط": 6508,
      "▁زرعة": 6509,
      "طوا": 6510,
      "▁\"ما\"": 6511,
      "ساوي": 6512,
      "▁تانيث": 6513,
      "▁مجتمع": 6514,
      "▁معظم": 6515,
      "▁اثني": 6516,
      "▁مقتضي": 6517,
      "سهيل": 6518,
      "▁غم": 6519,
      "▁اطلاق": 6520,
      "▁كتبه": 6521,
      "▁الحلق": 6522,
      "كث": 6523,
      "▁الاذ": 6524,
      "▁الخارج": 6525,
      "واة": 6526,
      "▁العيد": 6527,
      "▁وخلق": 6528,
      "▁السراج": 6529,
      "دة.\n": 6530,
      "▁وارسل": 6531,
      "نة،": 6532,
      "عته،": 6533,
      "▁الحكيم": 6534,
      "▁الكبري": 6535,
      "▁متعلقان": 6536,
      "▁مثله،": 6537,
      "▁المقال": 6538,
      "▁نيابة": 6539,
      "▁بالنا": 6540,
      "▁وانك": 6541,
      "▁بقر": 6542,
      "▁كمن": 6543,
      "▁الدمشقي": 6544,
      "▁والثانية": 6545,
      "واضع": 6546,
      "▁مقدمة": 6547,
      "سير": 6548,
      "▁ونعم": 6549,
      "مائة.\n": 6550,
      "▁ورجع": 6551,
      "▁محدث": 6552,
      "نبيه": 6553,
      "ورخ": 6554,
      "▁وفد": 6555,
      "▁(ط": 6556,
      "▁المبالغة": 6557,
      "▁الاخت": 6558,
      "▁وفاة": 6559,
      "▁مشهور": 6560,
      "▁اخاه": 6561,
      "▁السام": 6562,
      "▁سهم": 6563,
      "▁مزيد": 6564,
      "▁تضرب": 6565,
      "▁كرا": 6566,
      "عتها": 6567,
      "▁المجتمع": 6568,
      "▁٦٠": 6569,
      "▁الفائدة": 6570,
      "ريس": 6571,
      "▁شرا": 6572,
      "▁و-:": 6573,
      "▁جمعا": 6574,
      "▁النجم": 6575,
      "▁عليم": 6576,
      "▁ابعد": 6577,
      "▁العلي": 6578,
      "▁بمر": 6579,
      "عية": 6580,
      "لامه": 6581,
      "▁وغيره.\n": 6582,
      "ها:\n": 6583,
      "▁شباب": 6584,
      "▁امس": 6585,
      "▁مدل": 6586,
      "▁الغرب": 6587,
      "▁الاسم،": 6588,
      "صاد": 6589,
      "▁يهدي": 6590,
      "▁عنه.": 6591,
      "خاص": 6592,
      "▁للف": 6593,
      "▁الترجمة": 6594,
      "انهم": 6595,
      "▁يصنع": 6596,
      "▁نصيب": 6597,
      "▁بالث": 6598,
      "▁ايديهم": 6599,
      "▁المحيط": 6600,
      "فرت": 6601,
      "▁فرح": 6602,
      "▁بها.": 6603,
      "▁وفاعل": 6604,
      "▁الغا": 6605,
      "▁حرفا": 6606,
      "▁مطلقا،": 6607,
      "▁يعم": 6608,
      "▁يلب": 6609,
      "قة:": 6610,
      "ع.": 6611,
      "▁تارة": 6612,
      "▁مرفوعا": 6613,
      "▁وحدثني": 6614,
      "▁ويمكن": 6615,
      "▁الصبا": 6616,
      "حمله": 6617,
      "▁تراه": 6618,
      "▁العلمية": 6619,
      "▁رووس": 6620,
      "▁قاب": 6621,
      "▁خمسين": 6622,
      "ردد": 6623,
      "وصل": 6624,
      "▁بقوله:\n": 6625,
      "▁الحميد": 6626,
      "▁مهر": 6627,
      "▁اجاب": 6628,
      "وبة:": 6629,
      "▁وزي": 6630,
      "▁موخر": 6631,
      "▁الوجوه": 6632,
      "▁منز": 6633,
      "نسي": 6634,
      "ينا\n": 6635,
      "▁(١):": 6636,
      "▁عياض": 6637,
      "▁الحمل": 6638,
      "▁كشف": 6639,
      "▁به:": 6640,
      "▁حش": 6641,
      "نا\n": 6642,
      "لاحظ": 6643,
      "▁النق": 6644,
      "▁فرجع": 6645,
      "▁النووي": 6646,
      "▁جوف": 6647,
      "▁مهما": 6648,
      "ريء": 6649,
      "▁عارض": 6650,
      "▁سبعين": 6651,
      "هارة": 6652,
      "▁اتاه": 6653,
      "كية": 6654,
      "▁١).": 6655,
      "ضيق": 6656,
      "ولده": 6657,
      "▁فجمع": 6658,
      "كف": 6659,
      "▁بالشام": 6660,
      "▁والظاهر": 6661,
      "بيث": 6662,
      "لا.": 6663,
      "ملوك": 6664,
      "▁وسائر": 6665,
      "▁متفق": 6666,
      "▁درجة": 6667,
      "قله": 6668,
      "▁القطع": 6669,
      "▁منصوبا": 6670,
      "▁اليكم": 6671,
      "▁احدها:": 6672,
      "▁تركت": 6673,
      "▁يبر": 6674,
      "▁معك": 6675,
      "▁والجار": 6676,
      "▁وادي": 6677,
      "ضعفاء": 6678,
      "▁اللام،": 6679,
      "▁الصدق": 6680,
      "▁مضر": 6681,
      "▁يعيش": 6682,
      "مة.": 6683,
      "▁سجد": 6684,
      "▁انعم": 6685,
      "▁صحب": 6686,
      "▁الولي": 6687,
      "▁كلامهم": 6688,
      "▁المسيب": 6689,
      "▁تخفي": 6690,
      "▁الفرنج": 6691,
      "▁يخلو": 6692,
      "خيل": 6693,
      "انون": 6694,
      "▁الند": 6695,
      "▁التمر": 6696,
      "▁وفق": 6697,
      "▁بالمعروف": 6698,
      "بل،": 6699,
      "▁فضلا": 6700,
      "▁(وع": 6701,
      "▁مقدار": 6702,
      "▁والعل": 6703,
      "▁الكف": 6704,
      "▁الديار": 6705,
      "▁فعال": 6706,
      "▁بالرفع": 6707,
      "جاء": 6708,
      "شاف": 6709,
      "وبة،": 6710,
      "▁وذو": 6711,
      "▁قلة": 6712,
      "▁العربية،": 6713,
      "▁افع": 6714,
      "▁الانعام": 6715,
      "▁المجرور": 6716,
      "▁مثني": 6717,
      "▁هوا": 6718,
      "عان": 6719,
      "١٢": 6720,
      "▁حملت": 6721,
      "▁للمفعول": 6722,
      "▁كقوله:\n": 6723,
      "▁الاحي": 6724,
      "▁شذ": 6725,
      "▁المطلق": 6726,
      "▁مختلفة": 6727,
      "▁التهذيب": 6728,
      "▁برب": 6729,
      "▁يكني": 6730,
      "▁خلت": 6731,
      "▁فدل": 6732,
      "▁اضمار": 6733,
      "▁عنده،": 6734,
      "بته،": 6735,
      "▁جف": 6736,
      "باي": 6737,
      "▁امي": 6738,
      "قوم": 6739,
      "▁جعفر،": 6740,
      "▁العقد": 6741,
      "▁بكر:": 6742,
      "▁ويروي:": 6743,
      "▁يعقل": 6744,
      "▁رت": 6745,
      "▁التعلي": 6746,
      "▁لاخ": 6747,
      "▁كلمات": 6748,
      "▁الخميس": 6749,
      "▁يلقي": 6750,
      "▁اسرع": 6751,
      "▁الثامن": 6752,
      "٧.\n": 6753,
      "▁وبها": 6754,
      "▁لبيد": 6755,
      "▁المقا": 6756,
      "▁٤-": 6757,
      "▁٨)": 6758,
      "▁حصن": 6759,
      "▁ناب": 6760,
      "▁ثان": 6761,
      "▁اتم": 6762,
      "زب": 6763,
      "▁حبس": 6764,
      "زاز": 6765,
      "▁ذوات": 6766,
      "▁وجل": 6767,
      "▁[و": 6768,
      "▁صم": 6769,
      "▁مذه": 6770,
      "ائها": 6771,
      "ضرورة": 6772,
      "▁٢):": 6773,
      "▁الممد": 6774,
      "جاه": 6775,
      "▁[النساء:": 6776,
      "▁حكمه": 6777,
      "▁يزعم": 6778,
      "▁بالمس": 6779,
      "▁العش": 6780,
      "▁تقلب": 6781,
      "▁الصلة": 6782,
      "حها": 6783,
      "حكم": 6784,
      "▁تاخر": 6785,
      "▁والجواب": 6786,
      "▁وشي": 6787,
      "▁احدث": 6788,
      "▁الظل": 6789,
      "وفة،": 6790,
      "▁مسند": 6791,
      "مة.\n": 6792,
      "حول": 6793,
      "▁ومنا": 6794,
      "▁يلحق": 6795,
      "▁يضاف": 6796,
      "▁الخ)": 6797,
      "دعي": 6798,
      "▁وفت": 6799,
      "▁ذلك؛": 6800,
      "▁عثمان،": 6801,
      "▁واقع": 6802,
      "▁اتا": 6803,
      "▁مدا": 6804,
      "▁الاخذ": 6805,
      "▁امراته": 6806,
      "اهد،": 6807,
      "▁عمارة": 6808,
      "ذير": 6809,
      "▁فقدم": 6810,
      "▁اختيار": 6811,
      "سيا": 6812,
      "يخ": 6813,
      "▁(الت": 6814,
      "▁بتا": 6815,
      "▁وبهذا": 6816,
      "▁منها:": 6817,
      "▁بينا": 6818,
      "▁المسمي": 6819,
      "▁يدري": 6820,
      "▁المتنبي": 6821,
      "▁لقوم": 6822,
      "▁خلافة": 6823,
      "▁لاج": 6824,
      "▁وفلان": 6825,
      "قه،": 6826,
      "▁القوا": 6827,
      "▁نظام": 6828,
      "اني\n": 6829,
      "▁لحي": 6830,
      "▁لاع": 6831,
      "▁همز": 6832,
      "▁واستدل": 6833,
      "▁القاموس": 6834,
      "▁ا.": 6835,
      "هية": 6836,
      "▁٦٣": 6837,
      "م.": 6838,
      "▁ظننت": 6839,
      "▁الاعراب،": 6840,
      "▁مقاتل": 6841,
      "▁ترجع": 6842,
      "▁ياب": 6843,
      "▁بكون": 6844,
      "▁تقبل": 6845,
      "▁يشير": 6846,
      "رادة": 6847,
      "▁ائت": 6848,
      "▁ويزيد": 6849,
      "ضوا": 6850,
      "▁(من)": 6851,
      "وقي": 6852,
      "▁واشار": 6853,
      "▁الشيء،": 6854,
      "▁الوادي": 6855,
      "▁المحت": 6856,
      "▁المتاخر": 6857,
      "▁ممت": 6858,
      "▁هـ)": 6859,
      "▁النهر": 6860,
      "زين": 6861,
      "▁والعلم": 6862,
      "رجة": 6863,
      "▁اثن": 6864,
      "▁الاصبه": 6865,
      "ليلة": 6866,
      "▁اخر:": 6867,
      "دخل": 6868,
      "١٩": 6869,
      "▁بزيادة": 6870,
      "ذري": 6871,
      "▁العظ": 6872,
      "▁مجد": 6873,
      "▁للفعل": 6874,
      "ثاق": 6875,
      "▁فينا": 6876,
      "▁ومعنا": 6877,
      "▁اظهار": 6878,
      "▁الدائ": 6879,
      "▁المرض": 6880,
      "▁فيجوز": 6881,
      "ريج": 6882,
      "▁للذين": 6883,
      "▁مضافا": 6884,
      "▁المضار": 6885,
      "ياطين": 6886,
      "كنا": 6887,
      "▁المشي": 6888,
      "▁وطلب": 6889,
      "▁تفيد": 6890,
      "ي.": 6891,
      "▁ورك": 6892,
      "ذر،": 6893,
      "▁اسناده": 6894,
      "▁يصدق": 6895,
      "▁نبه": 6896,
      "▁٦٢": 6897,
      "▁صدوق": 6898,
      "▁هـ.\n": 6899,
      "▁وطل": 6900,
      "ختار": 6901,
      "▁جسم": 6902,
      "▁يهم": 6903,
      "▁المشار": 6904,
      "▁المامون": 6905,
      "▁انفسكم": 6906,
      "١٣": 6907,
      "▁الباب،": 6908,
      "▁يون": 6909,
      "جح": 6910,
      "▁اوجه": 6911,
      "لتم": 6912,
      "▁الطويل]\n": 6913,
      "ظ،": 6914,
      "▁تشت": 6915,
      "▁بالذي": 6916,
      "▁[٤": 6917,
      "▁بالتح": 6918,
      "▁اخر:\n": 6919,
      "▁كثيرا،": 6920,
      "بث": 6921,
      "▁شاع": 6922,
      "▁يرا": 6923,
      "▁الثوري": 6924,
      "جوا": 6925,
      "▁شار": 6926,
      "▁اعطيت": 6927,
      "▁الصور": 6928,
      "▁[ت": 6929,
      "▁الفاضل": 6930,
      "▁الجو": 6931,
      "ميص": 6932,
      "▁البعيد": 6933,
      "▁ادعي": 6934,
      "▁الشم": 6935,
      "▁رئيس": 6936,
      "▁(ه": 6937,
      "▁ساع": 6938,
      "▁سام": 6939,
      "▁خزيمة": 6940,
      "▁تقدم،": 6941,
      "▁..................": 6942,
      "▁الكوفيين": 6943,
      "▁امتنع": 6944,
      "▁اوج": 6945,
      "▁الجسم": 6946,
      "▁يشرب": 6947,
      "سبه": 6948,
      "▁(فان": 6949,
      "▁غالبا": 6950,
      "▁مولف": 6951,
      "سيرا": 6952,
      "▁يلبس": 6953,
      "▁وراي": 6954,
      "▁بقدر": 6955,
      "▁التقديم": 6956,
      "طرة": 6957,
      "واكب": 6958,
      "▁وهن": 6959,
      "▁بالليل": 6960,
      "▁اشعار": 6961,
      "▁باص": 6962,
      "▁بايات": 6963,
      "▁السنة،": 6964,
      "▁حقي": 6965,
      "ماة": 6966,
      "ر\n": 6967,
      "رجم": 6968,
      "▁٦٤": 6969,
      "▁الالت": 6970,
      "▁موك": 6971,
      "▁عالما": 6972,
      "▁الطل": 6973,
      "▁سلك": 6974,
      "فلة": 6975,
      "▁جريج": 6976,
      "هما.\n": 6977,
      "▁فري": 6978,
      "▁الجب": 6979,
      "▁الغسل": 6980,
      "▁سببا": 6981,
      "▁اباه": 6982,
      "▁الشت": 6983,
      "▁المخص": 6984,
      "▁الغنم": 6985,
      "▁الدخول": 6986,
      "▁جمعه": 6987,
      "▁الكتابة": 6988,
      "مرة،": 6989,
      "▁النطق": 6990,
      "▁ريب": 6991,
      "▁وصلت": 6992,
      "▁السود": 6993,
      "طاعة": 6994,
      "سب،": 6995,
      "▁احدهم": 6996,
      "▁حارثة": 6997,
      "▁نجي": 6998,
      "▁استئنافية.": 6999,
      "▁بعل": 7000,
      "▁وعز": 7001,
      "▁استقر": 7002,
      "▁ثني": 7003,
      "▁ادب": 7004,
      "▁المسيح": 7005,
      "دينا": 7006,
      "▁وثقه": 7007,
      "٠\n": 7008,
      "٨.\n": 7009,
      "لي.\n": 7010,
      "▁حمله": 7011,
      "واء،": 7012,
      "▁الشمس،": 7013,
      "دا.\n": 7014,
      "▁تسعة": 7015,
      "▁جميعا،": 7016,
      "▁يعتبر": 7017,
      "ويه،": 7018,
      "▁صفوان": 7019,
      "▁الوضع": 7020,
      "▁المشه": 7021,
      "▁متع": 7022,
      "▁كبيرة": 7023,
      "ضر،": 7024,
      "▁صبي": 7025,
      "▁القائم": 7026,
      "▁وبلا": 7027,
      "▁استدل": 7028,
      "▁الطرق": 7029,
      "▁اشتد": 7030,
      "صي،": 7031,
      "طاه": 7032,
      "▁فترك": 7033,
      "▁بهم،": 7034,
      "▁\"ش": 7035,
      "▁ولست": 7036,
      "▁الجزاء": 7037,
      "يل\n": 7038,
      "ماعي": 7039,
      "▁(رجع": 7040,
      "▁الرياح": 7041,
      "▁فمر": 7042,
      "▁الامت": 7043,
      "▁اقامة": 7044,
      "▁فلان،": 7045,
      "راف:": 7046,
      "▁بتقدير": 7047,
      "را:": 7048,
      "▁كانهم": 7049,
      "لاس": 7050,
      "▁خراسان": 7051,
      "▁الغيب": 7052,
      "▁ملكا": 7053,
      "▁سخ": 7054,
      "طح": 7055,
      "▁والقي": 7056,
      "▁فبلغ": 7057,
      "▁بحال": 7058,
      "وله،": 7059,
      "▁والبر": 7060,
      "▁والشع": 7061,
      "▁البخاري:": 7062,
      "▁مانع": 7063,
      "▁باه": 7064,
      "▁رسولا": 7065,
      "▁الخاء": 7066,
      "١٤": 7067,
      "▁داء": 7068,
      "ئين": 7069,
      "▁الاعد": 7070,
      "▁والوجه": 7071,
      "▁واحد.\n": 7072,
      "▁هنا:": 7073,
      "▁وابت": 7074,
      "▁المفا": 7075,
      "▁المسائل": 7076,
      "▁والرجل": 7077,
      "▁الضحاك": 7078,
      "▁مستان": 7079,
      "▁الاوا": 7080,
      "ومنين": 7081,
      "عني": 7082,
      "▁يوصف": 7083,
      "▁فسال": 7084,
      "▁الشجرة": 7085,
      "▁مدي": 7086,
      "كلي": 7087,
      "▁بذي": 7088,
      "▁باللام": 7089,
      "▁يجيز": 7090,
      "▁ظاهرة": 7091,
      "▁البصري،": 7092,
      "رارة": 7093,
      "▁السند": 7094,
      "▁التيم": 7095,
      "▁النكاح": 7096,
      "▁لابد": 7097,
      "▁صري": 7098,
      "▁فوضع": 7099,
      "▁بالفاء": 7100,
      "▁٦٥": 7101,
      "▁التنبيه": 7102,
      "▁التنا": 7103,
      "▁يسكن": 7104,
      "ت.": 7105,
      "▁هجر": 7106,
      "ية)": 7107,
      "▁ائمة": 7108,
      "▁الواقعة": 7109,
      "به.": 7110,
      "▁صحيح،": 7111,
      "▁بالضم:": 7112,
      "▁الرابع:": 7113,
      "▁فاعله": 7114,
      "▁مرات": 7115,
      "▁حزم": 7116,
      "▁اعين": 7117,
      "▁جاري": 7118,
      "▁اوت": 7119,
      "▁اياك": 7120,
      "اني.": 7121,
      "▁ان\n": 7122,
      "▁فاعلم": 7123,
      "▁النجوم": 7124,
      "▁(١).": 7125,
      "بار،": 7126,
      "▁هو،": 7127,
      "▁غيرهم": 7128,
      "▁لالتقاء": 7129,
      "▁امنا": 7130,
      "وقوع": 7131,
      "ادت": 7132,
      "▁قرن": 7133,
      "▁فاعل،": 7134,
      "▁فتحت": 7135,
      "▁النسبة": 7136,
      "▁القبر": 7137,
      "▁....": 7138,
      "▁وقب": 7139,
      "قلت": 7140,
      "▁الذهبي": 7141,
      "▁والقول": 7142,
      "▁العجاج": 7143,
      "▁قاص": 7144,
      "زمة": 7145,
      "▁السامع": 7146,
      "▁السلمي": 7147,
      "▁الحوا": 7148,
      "لم،": 7149,
      "▁يحتج": 7150,
      "▁اساس": 7151,
      "▁رجاء": 7152,
      "دة.": 7153,
      "▁وتلك": 7154,
      "ابلة": 7155,
      "▁عبيد،": 7156,
      "▁الساد": 7157,
      "▁جلد": 7158,
      "▁ودي": 7159,
      "▁اختار": 7160,
      "▁معمول": 7161,
      "▁مام": 7162,
      "▁الحمام": 7163,
      "▁ثور": 7164,
      "يته،": 7165,
      "▁وسا": 7166,
      "منة": 7167,
      "▁والال": 7168,
      "▁الكوفيون": 7169,
      "▁(الي": 7170,
      "▁شانه": 7171,
      "▁ليلا": 7172,
      "▁حياته": 7173,
      "▁فاش": 7174,
      "لاوة": 7175,
      "▁الفرد": 7176,
      "هـ)": 7177,
      "ظروف": 7178,
      "▁عقل": 7179,
      "▁هنالك": 7180,
      "لي\n": 7181,
      "ماس": 7182,
      "يناه": 7183,
      "▁تصل": 7184,
      "▁فكما": 7185,
      "▁المعرف": 7186,
      "▁(رجع)\n": 7187,
      "▁الكمال": 7188,
      "▁فيها.\n": 7189,
      "▁ولها": 7190,
      "▁الزبير،": 7191,
      "▁توهم": 7192,
      "▁القعدة": 7193,
      "▁ودعا": 7194,
      "▁ورق": 7195,
      "▁التفضيل": 7196,
      "▁وعرض": 7197,
      "▁واسماعيل": 7198,
      "▁مخالف": 7199,
      "▁طري": 7200,
      "▁يحرم": 7201,
      "▁منطلق": 7202,
      "▁المبني": 7203,
      "▁ليد": 7204,
      "▁شهادة": 7205,
      "▁حجاج": 7206,
      "ب.": 7207,
      "▁شعبة،": 7208,
      "▁وكر": 7209,
      "▁يتصل": 7210,
      "▁والتق": 7211,
      "▁دريد:": 7212,
      "▁باب:": 7213,
      "طقة": 7214,
      "▁احا": 7215,
      "▁امتي": 7216,
      "▁بعد،": 7217,
      "▁نظرا": 7218,
      "بون": 7219,
      "▁بشير": 7220,
      "▁شواهد": 7221,
      "▁الحسن:": 7222,
      "▁بينهما،": 7223,
      "▁ولدت": 7224,
      "▁بواو": 7225,
      "▁الوزن": 7226,
      "ة\"": 7227,
      "▁وفع": 7228,
      "▁الاعمش": 7229,
      "▁يغني": 7230,
      "ورا،": 7231,
      "▁القصيدة": 7232,
      "▁ارك": 7233,
      "تابع": 7234,
      "▁مطب": 7235,
      "افل": 7236,
      "▁العشاء": 7237,
      "▁فخذ": 7238,
      "▁اراد:": 7239,
      "تين،": 7240,
      "▁بكتاب": 7241,
      "وحي": 7242,
      "▁الحديث:\n": 7243,
      "قتال": 7244,
      "▁تشبه": 7245,
      "▁شبيه": 7246,
      "▁المسجد،": 7247,
      "▁التوبة": 7248,
      "▁الغد": 7249,
      "▁توكيد": 7250,
      "▁المكي": 7251,
      "▁جس": 7252,
      "ائز": 7253,
      "لته،": 7254,
      "غلب": 7255,
      "يلة،": 7256,
      "▁زا": 7257,
      "▁معاوية،": 7258,
      "▁القس": 7259,
      "▁بقاء": 7260,
      "▁السهم": 7261,
      "▁وكي": 7262,
      "▁عفا": 7263,
      "▁وهناك": 7264,
      "اربة": 7265,
      "▁الاشرف": 7266,
      "نصر": 7267,
      "ضيع": 7268,
      "▁فعلم": 7269,
      "▁وعثمان": 7270,
      "▁ذم": 7271,
      "▁رش": 7272,
      "▁كسرة": 7273,
      "تكم": 7274,
      "▁اقب": 7275,
      "▁الحكم،": 7276,
      "▁استغ": 7277,
      "ار\n": 7278,
      "▁طائ": 7279,
      "▁وفض": 7280,
      "▁وجملة:": 7281,
      "▁ويقولون": 7282,
      "ولاد": 7283,
      "▁الفريق": 7284,
      "▁بياض": 7285,
      "▁جوابا": 7286,
      "▁استخ": 7287,
      "▁بسط": 7288,
      "▁صديق": 7289,
      "▁الوح": 7290,
      "▁المشا": 7291,
      "▁المكس": 7292,
      "▁عري": 7293,
      "▁ركعتين": 7294,
      "▁القبلة": 7295,
      "▁المعا": 7296,
      "▁وقوم": 7297,
      "▁ايضا:\n": 7298,
      "شون": 7299,
      "▁ياء،": 7300,
      "حاد": 7301,
      "▁متحرك": 7302,
      "▁القادر": 7303,
      "▁فاء": 7304,
      "▁نهاية": 7305,
      "▁يزيد،": 7306,
      "جاد": 7307,
      "▁الحمار": 7308,
      "▁وشهد": 7309,
      "▁مرة،": 7310,
      "ولية": 7311,
      "▁منسوب": 7312,
      "▁الباقي": 7313,
      "▁العص": 7314,
      "▁غنم": 7315,
      "▁الجلالة": 7316,
      "▁دعوة": 7317,
      "فقا": 7318,
      "▁وحر": 7319,
      "▁والاص": 7320,
      "▁بسكون": 7321,
      "▁البئر": 7322,
      "هج": 7323,
      "▁صبر": 7324,
      "▁سنان": 7325,
      "▁تعبد": 7326,
      "▁لهن": 7327,
      "١٥": 7328,
      "▁الفوا": 7329,
      "▁تاخذ": 7330,
      "▁المقدر": 7331,
      "ته؛": 7332,
      "▁صاحبها": 7333,
      "▁وقاص": 7334,
      "▁كان،": 7335,
      "▁زل": 7336,
      "▁(فع": 7337,
      "▁الاصوات": 7338,
      "▁اعلام": 7339,
      "غيث": 7340,
      "▁جازم": 7341,
      "▁زع": 7342,
      "▁الشافعي،": 7343,
      "▁قمت": 7344,
      "▁عموم": 7345,
      "▁المشركون": 7346,
      "▁النيساب": 7347,
      "اء)": 7348,
      "تيا": 7349,
      "▁التميمي": 7350,
      "▁بحث": 7351,
      "▁[في": 7352,
      "▁سيدنا": 7353,
      "ئنا": 7354,
      "▁الفاس": 7355,
      "▁المتصل": 7356,
      "▁صنف": 7357,
      "▁موضعه": 7358,
      "▁العموم": 7359,
      "▁اللازم": 7360,
      "▁بارض": 7361,
      "▁الغريب": 7362,
      "▁والصواب:": 7363,
      "▁النقل": 7364,
      "▁غرض": 7365,
      "▁هب": 7366,
      "▁عطية": 7367,
      "▁العرش": 7368,
      "▁الانصاري،": 7369,
      "▁فبين": 7370,
      "▁وعلا": 7371,
      "▁(١٤": 7372,
      "▁سليمان،": 7373,
      "▁(٢):": 7374,
      "▁سوق": 7375,
      "▁المائ": 7376,
      "▁فاقبل": 7377,
      "▁٢).": 7378,
      "▁اقول:": 7379,
      "▁وتج": 7380,
      "▁فالجواب": 7381,
      "▁استط": 7382,
      "▁تقتضي": 7383,
      "▁ولاية": 7384,
      "دا.": 7385,
      "▁اصحابنا": 7386,
      "ضحك": 7387,
      "▁سبا": 7388,
      "▁فانظر": 7389,
      "فخ": 7390,
      "▁الغاية": 7391,
      "▁الاسباب": 7392,
      "متع": 7393,
      "▁يفتح": 7394,
      "▁ومست": 7395,
      "فة:": 7396,
      "▁تنبيه": 7397,
      "▁تنك": 7398,
      "▁دور": 7399,
      "▁ركع": 7400,
      "قضي": 7401,
      "▁ثانية": 7402,
      "▁فقول": 7403,
      "كبر": 7404,
      "▁انشده": 7405,
      "ن\"": 7406,
      "ولات": 7407,
      "▁روبة": 7408,
      "▁الزبي": 7409,
      "بت،": 7410,
      "▁مخف": 7411,
      "▁انفا": 7412,
      "▁سنن": 7413,
      "▁\"اي": 7414,
      "▁وافت": 7415,
      "▁المكر": 7416,
      "▁المخل": 7417,
      "▁ماج": 7418,
      "فاه": 7419,
      "▁بالماء": 7420,
      "ول.\n": 7421,
      "▁اليمين": 7422,
      "▁ثبوت": 7423,
      "▁المختار": 7424,
      "ليمان": 7425,
      "▁سيبويه،": 7426,
      "▁ضارب": 7427,
      "▁الوافر": 7428,
      "كو": 7429,
      "فساد": 7430,
      "▁(قال:": 7431,
      "▁لاي": 7432,
      "نسا": 7433,
      "بيه،": 7434,
      "▁يفرق": 7435,
      "▁اكر": 7436,
      "▁التط": 7437,
      "▁البش": 7438,
      "▁تظهر": 7439,
      "قلة": 7440,
      "▁ترتيب": 7441,
      "▁مسد": 7442,
      "▁سلف": 7443,
      "▁الامان": 7444,
      "▁يغير": 7445,
      "▁لكي": 7446,
      "▁تعلي": 7447,
      "▁رات": 7448,
      "▁الحقيقي": 7449,
      "وه.\n": 7450,
      "▁حديث\n": 7451,
      "▁منظ": 7452,
      "ظهار": 7453,
      "▁للط": 7454,
      "▁السماء،": 7455,
      "▁مقدرة": 7456,
      "▁الحنفي": 7457,
      "▁والضمير": 7458,
      "▁الصغ": 7459,
      "▁(غ": 7460,
      "انس": 7461,
      "وقات": 7462,
      "▁\"او": 7463,
      "▁معجمة": 7464,
      "▁والعمل": 7465,
      "▁بعير": 7466,
      "▁الشان": 7467,
      "▁ومررت": 7468,
      "▁عاطفة.": 7469,
      "رك،": 7470,
      "▁قوا": 7471,
      "▁\"ص": 7472,
      "▁الاكبر": 7473,
      "▁يقف": 7474,
      "خلا": 7475,
      "▁الصوم": 7476,
      "▁غيره.\n": 7477,
      "١٨": 7478,
      "▁باذن": 7479,
      "فرا": 7480,
      "▁امين": 7481,
      "▁لرجل": 7482,
      "▁قواعد": 7483,
      "٩.\n": 7484,
      "▁متر": 7485,
      "▁حت": 7486,
      "▁حاد": 7487,
      "جازة": 7488,
      "▁اجزاء": 7489,
      "▁بطريق": 7490,
      "صفه": 7491,
      "تهد": 7492,
      "▁فالله": 7493,
      "▁ابليس": 7494,
      "▁وارد": 7495,
      "▁بالشيء": 7496,
      "▁حوا": 7497,
      "▁بمس": 7498,
      "▁صحاب": 7499,
      "▁الترا": 7500,
      "▁ولله": 7501,
      "▁مجزوم": 7502,
      "▁بحكم": 7503,
      "ناء،": 7504,
      "▁\"\n": 7505,
      "▁خيبر": 7506,
      "▁وسمعت": 7507,
      "▁مقط": 7508,
      "▁هاجر": 7509,
      "▁جاوز": 7510,
      "▁ينقل": 7511,
      "▁بالكسر:": 7512,
      "▁(وق": 7513,
      "▁يقيم": 7514,
      "▁الحاد": 7515,
      "▁الازهري": 7516,
      "ما:": 7517,
      "▁٥)،": 7518,
      "▁والجر": 7519,
      "▁اختلفوا": 7520,
      "▁نض": 7521,
      "▁لعم": 7522,
      "▁الفتنة": 7523,
      "داوة": 7524,
      "وه.": 7525,
      "يل.\n": 7526,
      "▁والوا": 7527,
      "▁بعدما": 7528,
      "ارم": 7529,
      "▁التنو": 7530,
      "▁المعارف": 7531,
      "ليب": 7532,
      "▁انح": 7533,
      "▁غن": 7534,
      "▁يرب": 7535,
      "▁كنان": 7536,
      "▁راوا": 7537,
      "▁فاعل.": 7538,
      "اجم": 7539,
      "▁الرواة": 7540,
      "▁فيها.": 7541,
      "▁الحساب": 7542,
      "طرب": 7543,
      "▁فحينئذ": 7544,
      "▁سياق": 7545,
      "▁المبار": 7546,
      "▁تعلمون": 7547,
      "▁وتارة": 7548,
      "▁البقاء": 7549,
      "▁كثرت": 7550,
      "▁السيوطي": 7551,
      "▁بسن": 7552,
      "▁معج": 7553,
      "▁نجم": 7554,
      "قطة": 7555,
      "▁[الاع": 7556,
      "▁الجمع،": 7557,
      "▁اقرا": 7558,
      "▁تثبت": 7559,
      "صرح": 7560,
      "▁نمير": 7561,
      "▁المقدرة": 7562,
      "▁جمعت": 7563,
      "لاق،": 7564,
      "▁جره": 7565,
      "▁الحقيق": 7566,
      "▁كالا": 7567,
      "▁وجعله": 7568,
      "▁القوم،": 7569,
      "▁السلاح": 7570,
      "دان": 7571,
      "▁السجود": 7572,
      "▁خليل": 7573,
      "▁واسحاق": 7574,
      "ا)": 7575,
      "▁اموالهم": 7576,
      "▁المول": 7577,
      "▁ذري": 7578,
      "▁القديمة": 7579,
      "▁القصد": 7580,
      "▁وارض": 7581,
      "▁لها.\n": 7582,
      "▁فاه": 7583,
      "▁وخص": 7584,
      "بيين": 7585,
      "ود:": 7586,
      "▁بحق": 7587,
      "روا": 7588,
      "▁بالهاء": 7589,
      "▁فاشت": 7590,
      "▁بتق": 7591,
      "▁السحر": 7592,
      "▁(لا)": 7593,
      "ندق": 7594,
      "▁بباب": 7595,
      "شة:": 7596,
      "▁[الك": 7597,
      "▁٦).\n": 7598,
      "و)": 7599,
      "▁وللم": 7600,
      "▁اغت": 7601,
      "▁قريش،": 7602,
      "▁فيكم": 7603,
      "▁المجلس": 7604,
      "▁الجوز": 7605,
      "قامة": 7606,
      "▁والمنا": 7607,
      "▁ولهم": 7608,
      "▁مفعل": 7609,
      "يمان،": 7610,
      "▁انج": 7611,
      "▁ادريس": 7612,
      "▁عمره": 7613,
      "▁يقاتل": 7614,
      "▁يغفر": 7615,
      "يزان": 7616,
      "ني.": 7617,
      "▁ويجمع": 7618,
      "ذ،": 7619,
      "▁للام": 7620,
      "▁الشافع": 7621,
      "▁جناح": 7622,
      "▁الكن": 7623,
      "ثبات": 7624,
      "▁يوس": 7625,
      "▁ويذكر": 7626,
      "تهن": 7627,
      "طبق": 7628,
      "طعن": 7629,
      "▁باف": 7630,
      "▁ان:": 7631,
      "▁فضله": 7632,
      "▁وقفت": 7633,
      "▁٣):": 7634,
      "▁مبت": 7635,
      "نعت": 7636,
      "▁ومنع": 7637,
      "▁يبدو": 7638,
      "ه،\n": 7639,
      "▁بالكسر،": 7640,
      "▁المركب": 7641,
      "▁قرط": 7642,
      "▁لقيت": 7643,
      "▁عنكم": 7644,
      "انا،": 7645,
      "▁المومنون": 7646,
      "▁احم": 7647,
      "▁وشا": 7648,
      "▁يوتي": 7649,
      "ته)": 7650,
      "▁فاعلا": 7651,
      "▁فيع": 7652,
      "▁طلوع": 7653,
      "همة": 7654,
      "▁ادراك": 7655,
      "▁تلقي": 7656,
      "▁قولي": 7657,
      "▁الجزم": 7658,
      "▁طرا": 7659,
      "▁بتح": 7660,
      "▁خض": 7661,
      "▁المنادي": 7662,
      "▁لمعني": 7663,
      "▁الاحو": 7664,
      "▁ينفق": 7665,
      "▁البقر": 7666,
      "▁صوته": 7667,
      "▁وتقدير": 7668,
      "▁باحد": 7669,
      "▁السوء": 7670,
      "▁خالد،": 7671,
      "▁عرب": 7672,
      "▁مفتوح": 7673,
      "▁حذ": 7674,
      "▁الاخلاق": 7675,
      "▁اتينا": 7676,
      "▁الافت": 7677,
      "١٧": 7678,
      "▁بعدها،": 7679,
      "▁طويلة": 7680,
      "فروا": 7681,
      "▁الخفيف": 7682,
      "▁ارق": 7683,
      "ضاه": 7684,
      "▁تث": 7685,
      "▁المنكر": 7686,
      "▁وممن": 7687,
      "سيس": 7688,
      "جارة": 7689,
      "▁الصوف": 7690,
      "▁هذا:": 7691,
      "نا)": 7692,
      "▁مضمر": 7693,
      "▁درس": 7694,
      "▁مجال": 7695,
      "وطا": 7696,
      "▁(وما": 7697,
      "▁وقولهم:": 7698,
      "▁السابع": 7699,
      "١٦": 7700,
      "رجال": 7701,
      "▁الدرد": 7702,
      "▁ذلك\n": 7703,
      "يمة،": 7704,
      "▁الصال": 7705,
      "▁ثابت،": 7706,
      "▁علقمة": 7707,
      "▁المنافقين": 7708,
      "ربي": 7709,
      "▁وظهر": 7710,
      "▁المدح": 7711,
      "▁تحريم": 7712,
      "▁يرض": 7713,
      "▁مرسل": 7714,
      "عبة،": 7715,
      "▁بقيت": 7716,
      "▁البيض": 7717,
      "▁الهيثم": 7718,
      "▁\"علي": 7719,
      "▁هدا": 7720,
      "▁(١٥": 7721,
      "▁العبارة": 7722,
      "▁التد": 7723,
      "▁الثقفي": 7724,
      "▁المجا": 7725,
      "▁الجديد": 7726,
      "▁تابع": 7727,
      "▁بلغني": 7728,
      "▁هيئة": 7729,
      "▁نط": 7730,
      "▁والعين": 7731,
      "▁يصب": 7732,
      "▁يستحق": 7733,
      "▁او:": 7734,
      "▁ينتظر": 7735,
      "▁اخراج": 7736,
      "▁فاحت": 7737,
      "عتم": 7738,
      "سطة": 7739,
      "لت،": 7740,
      "▁(٥)،": 7741,
      "وب\n": 7742,
      "▁الحاضر": 7743,
      "▁الشين": 7744,
      "▁اللغة،": 7745,
      "▁فيست": 7746,
      "▁الصاغ": 7747,
      "▁المحسن": 7748,
      "▁غزا": 7749,
      "▁متا": 7750,
      "▁ساح": 7751,
      "▁دمشق،": 7752,
      "امه": 7753,
      "مته،": 7754,
      "▁تاخير": 7755,
      "به،": 7756,
      "▁مناس": 7757,
      "▁للنا": 7758,
      "مرف": 7759,
      "بيرة": 7760,
      "انة،": 7761,
      "▁الطاع": 7762,
      "▁بعلم": 7763,
      "▁للي": 7764,
      "▁عصفور": 7765,
      "▁تفرق": 7766,
      "ورث": 7767,
      "▁لفعل": 7768,
      "جابة": 7769,
      "داث": 7770,
      "جاة": 7771,
      "▁الله!": 7772,
      "▁المظفر": 7773,
      "▁بجمع": 7774,
      "▁العال": 7775,
      "عام:": 7776,
      "دته": 7777,
      "▁الموحدة": 7778,
      "▁القارئ": 7779,
      "▁الاجل": 7780,
      "حقه": 7781,
      "▁الكون": 7782,
      "▁الدابة": 7783,
      "▁تقتل": 7784,
      "▁السيرا": 7785,
      "▁تراب": 7786,
      "▁ترت": 7787,
      "▁النبي،": 7788,
      "▁الصباح": 7789,
      "▁بالضمة.": 7790,
      "▁اطل": 7791,
      "▁طه": 7792,
      "▁ثواب": 7793,
      "▁جرم": 7794,
      "▁يهت": 7795,
      "▁سعيد:": 7796,
      "▁الادغام": 7797,
      "▁ينطق": 7798,
      "▁٦٧": 7799,
      "▁هذا.\n": 7800,
      "▁دعوت": 7801,
      "▁المنزل": 7802,
      "▁وتف": 7803,
      "▁المعم": 7804,
      "▁ب\n": 7805,
      "١:": 7806,
      "▁(٩)": 7807,
      "▁المعل": 7808,
      "▁حصر": 7809,
      "ظرف": 7810,
      "دي.": 7811,
      "▁متاع": 7812,
      "كات": 7813,
      "▁نظرت": 7814,
      "▁اياس": 7815,
      "▁السائل": 7816,
      "▁مفردا": 7817,
      "▁راح": 7818,
      "▁صدره": 7819,
      "▁الخمسة": 7820,
      "▁يرون": 7821,
      "▁الفات": 7822,
      "▁كاس": 7823,
      "▁كبيرا": 7824,
      "▁البخاري،": 7825,
      "بادر": 7826,
      "▁دينه": 7827,
      "▁كاذ": 7828,
      "▁المف": 7829,
      "متها": 7830,
      "▁عبده": 7831,
      "قته،": 7832,
      "▁جدا،": 7833,
      "امة،": 7834,
      "وي.": 7835,
      "▁الاساس": 7836,
      "بادة": 7837,
      "▁الميلا": 7838,
      "▁فاجتمع": 7839,
      "▁مثال:": 7840,
      "▁فعيل": 7841,
      "افعال": 7842,
      "▁يرمي": 7843,
      "افا": 7844,
      "▁حازم": 7845,
      "له:": 7846,
      "▁الفرنسية": 7847,
      "▁(ام": 7848,
      "▁لاش": 7849,
      "▁كله،": 7850,
      "ياط": 7851,
      "▁مسي": 7852,
      "▁اقسم": 7853,
      "▁عبيدة:": 7854,
      "▁التوحيد": 7855,
      "▁والحي": 7856,
      "وم\n": 7857,
      "▁الحديث.": 7858,
      "▁٦٨": 7859,
      "▁الحاجب": 7860,
      "▁بينما": 7861,
      "▁بئر": 7862,
      "▁مفهوم": 7863,
      "▁والعشرين": 7864,
      "▁فلك": 7865,
      "▁الاستغ": 7866,
      "▁ارايت": 7867,
      "▁ميمون": 7868,
      "▁تاوي": 7869,
      "▁شاة": 7870,
      "▁سكون": 7871,
      "▁قدمنا": 7872,
      "▁الفا،": 7873,
      "▁اتفق": 7874,
      "▁ومص": 7875,
      "▁(س)": 7876,
      "طيئة": 7877,
      "▁معن": 7878,
      "▁الولا": 7879,
      "▁(حتي": 7880,
      "وم:": 7881,
      "▁طائر": 7882,
      "فوظ": 7883,
      "▁جعلنا": 7884,
      "▁يدعون": 7885,
      "▁قالا": 7886,
      "مائر": 7887,
      "▁الاخرة،": 7888,
      "▁وجماعة.\n": 7889,
      "وءة": 7890,
      "لمه": 7891,
      "▁محد": 7892,
      "▁الكافرين": 7893,
      "زون": 7894,
      "▁عمن": 7895,
      "▁عائد": 7896,
      "ج\n": 7897,
      "▁كد": 7898,
      "▁٦٦": 7899,
      "▁طلق": 7900,
      "▁مقول": 7901,
      "ذبح": 7902,
      "▁الرحمة": 7903,
      "▁المحب": 7904,
      "افه": 7905,
      "▁دراسة": 7906,
      "▁المحر": 7907,
      "▁يحضر": 7908,
      "▁تعا": 7909,
      "▁عظيما": 7910,
      "▁بسي": 7911,
      "▁شكر": 7912,
      "▁نسبه": 7913,
      "▁الجهل": 7914,
      "▁ذن": 7915,
      "▁العنب": 7916,
      "ت.\n": 7917,
      "▁روية": 7918,
      "▁لفظة": 7919,
      "▁النصف": 7920,
      "▁قومي": 7921,
      "▁داود:": 7922,
      "▁النيل": 7923,
      "▁خاصة،": 7924,
      "▁اصابه": 7925,
      "▁الموجود": 7926,
      "▁الطائ": 7927,
      "▁سوف": 7928,
      "▁الرضي": 7929,
      "▁بالمن": 7930,
      "▁ساق": 7931,
      "▁رواية:": 7932,
      "▁للز": 7933,
      "▁سقي": 7934,
      "▁و\n": 7935,
      "ائه،": 7936,
      "▁للتعظيم": 7937,
      "▁والات": 7938,
      "▁المشد": 7939,
      "▁رسل": 7940,
      "▁بانهم": 7941,
      "▁ولكني": 7942,
      "▁نوف": 7943,
      "▁الراجز:\n": 7944,
      "▁العود": 7945,
      "▁واسع": 7946,
      "▁الجانب": 7947,
      "▁اصح": 7948,
      "▁فساد": 7949,
      "▁صحبة": 7950,
      "موا": 7951,
      "▁انس،": 7952,
      "▁والانثي": 7953,
      "▁تفت": 7954,
      "ساط": 7955,
      "▁اطراف": 7956,
      "▁[٦]": 7957,
      "▁عاما": 7958,
      "▁الشعبي": 7959,
      "▁اسند": 7960,
      "▁والمص": 7961,
      "▁جعلها": 7962,
      "▁والصلاة": 7963,
      "▁قلا": 7964,
      "▁الجح": 7965,
      "▁ابدال": 7966,
      "▁النون،": 7967,
      "تيجة": 7968,
      "▁لشيء": 7969,
      "زاي": 7970,
      "▁يفي": 7971,
      "▁الرضا": 7972,
      "اء\"": 7973,
      "▁الجرج": 7974,
      "▁فحمل": 7975,
      "▁عوان": 7976,
      "▁ناظر": 7977,
      "صلة": 7978,
      "▁ولعله": 7979,
      "▁بقل": 7980,
      "▁سماه": 7981,
      "يلان": 7982,
      "▁الاحمر": 7983,
      "▁ثلث": 7984,
      "▁الخفي": 7985,
      "▁لذي": 7986,
      "▁تعدي": 7987,
      "▁واقعة": 7988,
      "▁الاخر:": 7989,
      "▁القرب": 7990,
      "▁وامه": 7991,
      "▁المعتل": 7992,
      "▁الصب": 7993,
      "لهم،": 7994,
      "▁العبادة": 7995,
      "▁١،": 7996,
      "▁علوم": 7997,
      "▁المفضل": 7998,
      "▁جـ": 7999,
      "▁فصارت": 8000,
      "▁صحت": 8001,
      "ونه،": 8002,
      "▁الكلبي": 8003,
      "▁وسر": 8004,
      "قوت": 8005,
      "▁\"الك": 8006,
      "▁اظن": 8007,
      "▁الجبار": 8008,
      "▁تختلف": 8009,
      "▁العادة": 8010,
      "جة،": 8011,
      "▁والدليل": 8012,
      "▁ومش": 8013,
      "▁مبلغ": 8014,
      "▁٧٤": 8015,
      "▁الاقوال": 8016,
      "▁غاب": 8017,
      "▁البحت": 8018,
      "▁واحد.": 8019,
      "▁كلها،": 8020,
      "▁القوم:": 8021,
      "ني.\n": 8022,
      "▁كات": 8023,
      "▁مفس": 8024,
      "▁الزائد": 8025,
      "▁الانجلي": 8026,
      "▁(لم": 8027,
      "ولو": 8028,
      "▁وكيع": 8029,
      "▁للاس": 8030,
      "▁المنس": 8031,
      "بايع": 8032,
      "▁عائشة،": 8033,
      "▁ويعرف": 8034,
      "▁يجلس": 8035,
      "▁تزال": 8036,
      "▁داره": 8037,
      "▁الطاء": 8038,
      "▁شب": 8039,
      "▁مركب": 8040,
      "▁عفان": 8041,
      "▁هان": 8042,
      "▁الاسدي": 8043,
      "▁ترب": 8044,
      "جال": 8045,
      "ف\n": 8046,
      "▁اكون": 8047,
      "ية\"": 8048,
      "▁عملا": 8049,
      "رفا": 8050,
      "▁عزيز": 8051,
      "▁الذئب": 8052,
      "▁ثمن": 8053,
      "▁التنزيل": 8054,
      "▁امرنا": 8055,
      "▁معبد": 8056,
      "▁البين": 8057,
      "▁لزيد": 8058,
      "▁المال،": 8059,
      "▁البيع": 8060,
      "▁امامة": 8061,
      "▁للمسلم": 8062,
      "▁قائل:": 8063,
      "▁الزاي": 8064,
      "▁شغ": 8065,
      "▁تغيير": 8066,
      "▁باسناد": 8067,
      "▁ملكه": 8068,
      "ولاء": 8069,
      "▁واحدا،": 8070,
      "▁الفكر": 8071,
      "قدار": 8072,
      "▁بالمعني": 8073,
      "▁وحده،": 8074,
      "قبه": 8075,
      "▁جح": 8076,
      "ية:\n": 8077,
      "فهام،": 8078,
      "هما.": 8079,
      "خان": 8080,
      "▁ربع": 8081,
      "▁هبة": 8082,
      "باق": 8083,
      "▁هار": 8084,
      "▁اليهم،": 8085,
      "مل،": 8086,
      "▁المشرق": 8087,
      "ركه": 8088,
      "وضح": 8089,
      "▁ولع": 8090,
      "▁تغلب": 8091,
      "▁تدا": 8092,
      "▁١٤٠": 8093,
      "▁وقص": 8094,
      "▁الوط": 8095,
      "ئون": 8096,
      "زان": 8097,
      "▁مسح": 8098,
      "▁هوي": 8099,
      "▁جمهور": 8100,
      "▁وتعرب": 8101,
      "▁محرم": 8102,
      "ئها": 8103,
      "▁وافق": 8104,
      "هم؛": 8105,
      "▁الشاة": 8106,
      "▁وعشرون": 8107,
      "▁مكسورة": 8108,
      "▁تحل": 8109,
      "▁الخاصة": 8110,
      "▁قضا": 8111,
      "▁غفر": 8112,
      "▁القرية": 8113,
      "▁الاثار": 8114,
      "▁البطن": 8115,
      "▁الترتيب": 8116,
      "▁الجماع": 8117,
      "▁الحوادث": 8118,
      "▁ضوء": 8119,
      "▁يشمل": 8120,
      "▁ومتي": 8121,
      "ول.": 8122,
      "▁اليوم،": 8123,
      "▁ومث": 8124,
      "▁تاكيد": 8125,
      "ريه": 8126,
      "▁قبائل": 8127,
      "▁الاضاف": 8128,
      "▁الاذان": 8129,
      "▁تبر": 8130,
      "▁لبن": 8131,
      "▁اتصل": 8132,
      "ح)": 8133,
      "▁الجزيرة": 8134,
      "▁التصرف": 8135,
      "▁يقرب": 8136,
      "▁قات": 8137,
      "▁يخص": 8138,
      "١.": 8139,
      "▁(٥)\n": 8140,
      "▁ريا": 8141,
      "▁رفعت": 8142,
      "ث:": 8143,
      "▁واجتمع": 8144,
      "▁فاول": 8145,
      "▁[٥": 8146,
      "▁ترفع": 8147,
      "▁خيل": 8148,
      "▁والباء": 8149,
      "▁موته": 8150,
      "▁عبدا": 8151,
      "▁وبذلك": 8152,
      "▁فامت": 8153,
      "▁٦٩": 8154,
      "▁قاسم": 8155,
      "▁كافر": 8156,
      "▁ساد": 8157,
      "▁كقولهم:": 8158,
      "▁قبول": 8159,
      "▁يعتقد": 8160,
      "▁القائ": 8161,
      "▁للعلم": 8162,
      "▁خوفا": 8163,
      "▁ضربه": 8164,
      "▁والرت": 8165,
      "▁اخره،": 8166,
      "▁يقاس": 8167,
      "▁نطق": 8168,
      "▁اصوات": 8169,
      "▁مسج": 8170,
      "▁زرع": 8171,
      "▁يعبر": 8172,
      "▁اجز": 8173,
      "▁كمثل": 8174,
      "فان": 8175,
      "▁الغير": 8176,
      "▁القبي": 8177,
      "▁ورائ": 8178,
      "▁جهد": 8179,
      "▁فسلم": 8180,
      "▁(٦).\n": 8181,
      "▁نافية": 8182,
      "▁وحق": 8183,
      "▁فاذن": 8184,
      "▁مخالفة": 8185,
      "▁عزل": 8186,
      "▁\"خ": 8187,
      "عتهم": 8188,
      "▁وكت": 8189,
      "▁لقوله:": 8190,
      "▁الساكنين": 8191,
      "▁سرت": 8192,
      "▁وحب": 8193,
      "▁الابل،": 8194,
      "▁يخلق": 8195,
      "ائض": 8196,
      "كم.": 8197,
      "▁واخواتها": 8198,
      "هما:": 8199,
      "سنا": 8200,
      "▁وتست": 8201,
      "▁نبيه": 8202,
      "▁حصول": 8203,
      "غبة": 8204,
      "صبحت": 8205,
      "]-": 8206,
      "▁المخزوم": 8207,
      "▁المصدر،": 8208,
      "▁زالت": 8209,
      "▁مجيء": 8210,
      "▁المائة": 8211,
      "▁تجر": 8212,
      "▁بتلك": 8213,
      "ضعيف": 8214,
      "▁الموحد": 8215,
      "▁والنصاري": 8216,
      "▁وصفا": 8217,
      "▁شجا": 8218,
      "▁الفحل": 8219,
      "▁فيح": 8220,
      "▁وابنه": 8221,
      "الع": 8222,
      "▁تركه": 8223,
      "▁وجميع": 8224,
      "▁دقيق": 8225,
      "▁الصفا": 8226,
      "▁(الح": 8227,
      "قلا": 8228,
      "▁قاد": 8229,
      "▁مالي": 8230,
      "▁يفصل": 8231,
      "▁ظاهره": 8232,
      "▁انبا": 8233,
      "▁٣).": 8234,
      "خاذ": 8235,
      "▁وقطع": 8236,
      "▁٧٢": 8237,
      "▁بالله،": 8238,
      "▁جوان": 8239,
      "راي": 8240,
      "▁المنبر": 8241,
      "▁حساب": 8242,
      "▁تخصيص": 8243,
      "▁الغائبين": 8244,
      "▁تلي": 8245,
      "ت)": 8246,
      "ركة،": 8247,
      "▁سكت": 8248,
      "▁يود": 8249,
      "▁قرينة": 8250,
      "▁العقي": 8251,
      "▁تبلغ": 8252,
      "▁العوام": 8253,
      "▁و\"ا": 8254,
      "▁به\n": 8255,
      "ده.\n": 8256,
      "▁تقدمت": 8257,
      "▁يذ": 8258,
      "ءوس": 8259,
      "▁خلع": 8260,
      "▁(١٦": 8261,
      "▁واذكر": 8262,
      "لامي": 8263,
      "▁الناس.\n": 8264,
      "▁وجمعها": 8265,
      "▁الطائي": 8266,
      "▁وخمسمائة": 8267,
      "▁واظهر": 8268,
      "▁استثناء": 8269,
      "▁فاراد": 8270,
      "٠.\n": 8271,
      "▁ومضي": 8272,
      "▁كالح": 8273,
      "▁العسك": 8274,
      "لمان": 8275,
      "▁(وت": 8276,
      "▁وحج": 8277,
      "فتاح": 8278,
      "▁المني": 8279,
      "▁جاب": 8280,
      "▁الطبيعة": 8281,
      "▁ضمة": 8282,
      "▁وكلاهما": 8283,
      "ذر:": 8284,
      "▁فاقت": 8285,
      "▁الرابعة": 8286,
      "▁الاولي:": 8287,
      "و:": 8288,
      "دب": 8289,
      "▁فوالله": 8290,
      "▁اجود": 8291,
      "▁لقول": 8292,
      "▁عكس": 8293,
      "▁ويجعل": 8294,
      "خر،": 8295,
      "▁بيضاء": 8296,
      "▁مسك": 8297,
      "▁فف": 8298,
      "▁عون": 8299,
      "▁ينقص": 8300,
      "▁التفا": 8301,
      "ثيرا": 8302,
      "▁ركن": 8303,
      "▁والقر": 8304,
      "▁وغيرهم،": 8305,
      "▁بصفة": 8306,
      "▁لبيان": 8307,
      "▁الحري": 8308,
      "▁ثمر": 8309,
      "▁المقدم": 8310,
      "▁نذكر": 8311,
      "ذهبت": 8312,
      "كسر": 8313,
      "▁العشرة": 8314,
      "▁الذا": 8315,
      "احبه": 8316,
      "▁العرض": 8317,
      "▁اكان": 8318,
      "▁النجار": 8319,
      "▁ويظهر": 8320,
      "▁٧٣": 8321,
      "▁بدي": 8322,
      "▁يسقط": 8323,
      "▁اخاف": 8324,
      "ر:": 8325,
      "▁بدرا": 8326,
      "▁تلحق": 8327,
      "▁كسري": 8328,
      "▁وفيما": 8329,
      "▁الحركات": 8330,
      "▁نصي": 8331,
      "▁الخزا": 8332,
      "فته": 8333,
      "بابة": 8334,
      "ليغ": 8335,
      "▁والكتاب": 8336,
      "▁فهما": 8337,
      "▁المسا": 8338,
      "▁(ث": 8339,
      "▁يصرف": 8340,
      "▁مهملة": 8341,
      "ومي": 8342,
      "▁والمصدر": 8343,
      "▁فعند": 8344,
      "▁البراء": 8345,
      "▁جعلوا": 8346,
      "▁فحدث": 8347,
      "▁يركب": 8348,
      "▁اعرض": 8349,
      "الج": 8350,
      "اهدة": 8351,
      "فارق": 8352,
      "رفت": 8353,
      "▁اكن": 8354,
      "بتهم": 8355,
      "▁بتشديد": 8356,
      "▁اللغوية": 8357,
      "هان": 8358,
      "▁وانزل": 8359,
      "▁بالتاء": 8360,
      "▁الغضب": 8361,
      "▁حمار": 8362,
      "لا)": 8363,
      "▁اولياء": 8364,
      "لهما": 8365,
      "قلبة": 8366,
      "ات\n": 8367,
      "ون\"": 8368,
      "▁مسم": 8369,
      "▁وغيره:": 8370,
      "با.\n": 8371,
      "ينا،": 8372,
      "▁لسانه": 8373,
      "▁بنحو": 8374,
      "▁المختلفة": 8375,
      "▁زن": 8376,
      "▁جوز": 8377,
      "▁الحزن": 8378,
      "▁واقبل": 8379,
      "▁سحاب": 8380,
      "افت": 8381,
      "▁فنزلت": 8382,
      "▁كالت": 8383,
      "▁مسب": 8384,
      "▁خم": 8385,
      "▁حملا": 8386,
      "▁اسماعيل،": 8387,
      "▁فوج": 8388,
      "▁الطريقة": 8389,
      "▁وبيان": 8390,
      "▁الدالة": 8391,
      "واهر": 8392,
      "▁وصفه": 8393,
      "▁عيد": 8394,
      "ثوا": 8395,
      "▁الجري": 8396,
      "▁مفا": 8397,
      "▁مرب": 8398,
      "▁تبت": 8399,
      "▁اعاد": 8400,
      "▁فراي": 8401,
      "▁الجمه": 8402,
      "▁الهمزة،": 8403,
      "سبة": 8404,
      "هاب،": 8405,
      "هرا": 8406,
      "▁الضعفاء": 8407,
      "▁الابواب": 8408,
      "▁يكسر": 8409,
      "وه:": 8410,
      "▁زينب": 8411,
      "لاح،": 8412,
      "وح،": 8413,
      "▁اغني": 8414,
      "▁هو.": 8415,
      "▁فصل\n": 8416,
      "صلحة": 8417,
      "▁الصمد": 8418,
      "▁خلفه": 8419,
      "▁والاي": 8420,
      "▁امتناع": 8421,
      "مائدة:": 8422,
      "صار،": 8423,
      "▁(١٩": 8424,
      "خه": 8425,
      "▁لحا": 8426,
      "▁وحتي": 8427,
      "▁ووصل": 8428,
      "▁وبما": 8429,
      "▁استن": 8430,
      "▁اهمله": 8431,
      "▁اهدي": 8432,
      "▁لذا": 8433,
      "▁حال،": 8434,
      "▁تعالي-": 8435,
      "▁ثانيا": 8436,
      "▁(١٧": 8437,
      "▁قتادة،": 8438,
      "▁اصحابه،": 8439,
      "لا\"": 8440,
      "▁صغار": 8441,
      "▁وياتي": 8442,
      "▁تسال": 8443,
      "▁طلع": 8444,
      "▁الاذن": 8445,
      "▁ظرفا": 8446,
      "▁صلوات": 8447,
      "▁الحارث،": 8448,
      "▁معين:": 8449,
      "▁باشا": 8450,
      "▁الاصط": 8451,
      "▁التاسع": 8452,
      "كم.\n": 8453,
      "▁والسي": 8454,
      "▁عات": 8455,
      "▁تتم": 8456,
      "قبض": 8457,
      "▁دال": 8458,
      "▁باش": 8459,
      "▁(قد": 8460,
      "▁توجد": 8461,
      "طها": 8462,
      "▁وقرئ": 8463,
      "▁السواد": 8464,
      "▁لعلي": 8465,
      "كم:": 8466,
      "▁بصيغة": 8467,
      "▁لير": 8468,
      "▁عن\n": 8469,
      "مارة": 8470,
      "▁الحجارة": 8471,
      "▁الكوفي،": 8472,
      "▁الرائ": 8473,
      "▁الارت": 8474,
      "▁للذي": 8475,
      "ساء": 8476,
      "ان؛": 8477,
      "▁بالباء": 8478,
      "▁فاي": 8479,
      "▁عزم": 8480,
      "ة؛": 8481,
      "▁[الانعام:": 8482,
      "▁النساء،": 8483,
      "▁بيتا": 8484,
      "▁اعطاه": 8485,
      "▁لاصحاب": 8486,
      "▁الثانية:": 8487,
      "ركوا": 8488,
      "▁والنهي": 8489,
      "▁المضم": 8490,
      "].": 8491,
      "▁الاعل": 8492,
      "رائض": 8493,
      "ولهم": 8494,
      "▁فيس": 8495,
      "▁الاول.\n": 8496,
      "▁سواه": 8497,
      "▁بالابت": 8498,
      "▁(زيد": 8499,
      "▁تعين": 8500,
      "▁بعينه": 8501,
      "▁روايته": 8502,
      "جات": 8503,
      "▁افا": 8504,
      "▁الناس:": 8505,
      "خاء": 8506,
      "▁وامره": 8507,
      "▁بلسان": 8508,
      "▁مخال": 8509,
      "▁الناس.": 8510,
      "▁التاكيد": 8511,
      "▁يعملون": 8512,
      "▁مصنف": 8513,
      "▁وكثرة": 8514,
      "ناه،": 8515,
      "▁القيا": 8516,
      "▁القواعد": 8517,
      "▁التحقيق": 8518,
      "اليب": 8519,
      "▁ومذهب": 8520,
      "▁الصيام": 8521,
      "▁حامد": 8522,
      "▁عيب": 8523,
      "▁امرت": 8524,
      "▁طبقات": 8525,
      "▁بنيت": 8526,
      "عتين": 8527,
      "▁استشهد": 8528,
      "▁المذكور،": 8529,
      "▁تذهب": 8530,
      "▁وامن": 8531,
      "▁مبالغة": 8532,
      "رار،": 8533,
      "▁منها.\n": 8534,
      "▁مود": 8535,
      "▁والثالث:": 8536,
      "▁تعود": 8537,
      "تل": 8538,
      "▁حبل": 8539,
      "خب": 8540,
      "▁وظاهر": 8541,
      "▁ضمي": 8542,
      "▁والتا": 8543,
      "▁الحوض": 8544,
      "▁خات": 8545,
      "▁الليالي": 8546,
      "▁وثبت": 8547,
      "▁افلا": 8548,
      "▁احياء": 8549,
      "▁بالسي": 8550,
      "كرت": 8551,
      "▁والفاء": 8552,
      "▁الورد": 8553,
      "▁المتوكل": 8554,
      "▁الفرع": 8555,
      "▁تنزل": 8556,
      "▁جالس": 8557,
      "▁والشافعي": 8558,
      "▁الصحيحين": 8559,
      "▁رحيم": 8560,
      "▁ضربا": 8561,
      "▁والكلام": 8562,
      "▁الطبقة": 8563,
      "▁خان": 8564,
      "▁يرضي": 8565,
      "▁شاب": 8566,
      "▁..\n": 8567,
      "فلان": 8568,
      "رابة": 8569,
      "▁ويص": 8570,
      "▁وعين": 8571,
      "▁لال": 8572,
      "▁حنين": 8573,
      "▁الله؟": 8574,
      "▁مها": 8575,
      "▁[الاعراف:": 8576,
      "▁التسهيل": 8577,
      "▁مولده": 8578,
      "▁القم": 8579,
      "شر،": 8580,
      "▁به؛": 8581,
      "▁اتت": 8582,
      "▁عك": 8583,
      "راته": 8584,
      "▁تركيب": 8585,
      "▁تسمية": 8586,
      "▁المحم": 8587,
      "▁١\n": 8588,
      "▁اقدم": 8589,
      "وي\n": 8590,
      "▁فاصبح": 8591,
      "لت:": 8592,
      "وضي": 8593,
      "▁البعد": 8594,
      "▁مند": 8595,
      "▁يغلب": 8596,
      "▁يمدح": 8597,
      "وهي": 8598,
      "ريف،": 8599,
      "▁١٩٦": 8600,
      "▁يكفر": 8601,
      "▁يوثر": 8602,
      "▁الشاعر:": 8603,
      "▁بالضم،": 8604,
      "▁المهاجرين": 8605,
      "▁اعي": 8606,
      "▁الاجر": 8607,
      "لتا": 8608,
      "▁بهاء": 8609,
      "▁والنهار": 8610,
      "▁اليدين": 8611,
      "▁قائمة": 8612,
      "▁(الواو": 8613,
      "ف.\n": 8614,
      "▁التل": 8615,
      "▁موقف": 8616,
      "▁٥-": 8617,
      "▁الشرط،": 8618,
      "▁لله،": 8619,
      "▁ابدا،": 8620,
      "▁٧٥": 8621,
      "▁العجل": 8622,
      "▁الراي:": 8623,
      "▁النقد": 8624,
      "مين": 8625,
      "▁المقرئ": 8626,
      "▁مبنيا": 8627,
      "▁الطائر": 8628,
      "▁احل": 8629,
      "▁حصين": 8630,
      "▁تدع": 8631,
      "▁البرق": 8632,
      "▁ولكنهم": 8633,
      "وقه": 8634,
      "▁كرب": 8635,
      "▁الخطاب،": 8636,
      "▁مخط": 8637,
      "▁ولابي": 8638,
      "▁تقدر": 8639,
      "▁مسعود،": 8640,
      "با.": 8641,
      "▁اخل": 8642,
      "▁نبينا": 8643,
      "لتهم": 8644,
      "▁واصبح": 8645,
      "▁عتي": 8646,
      "را)": 8647,
      "زم،": 8648,
      "▁وذاك": 8649,
      "▁الصيف": 8650,
      "▁والشيخ": 8651,
      "▁المدرسة": 8652,
      "طلح": 8653,
      "▁الموت،": 8654,
      "▁الفتح،": 8655,
      "▁مجازا": 8656,
      "▁خرجوا": 8657,
      "▁قصي": 8658,
      "▁وكثر": 8659,
      "▁لامه": 8660,
      "▁التوفي": 8661,
      "عاية": 8662,
      "▁طاب": 8663,
      "▁اتبا": 8664,
      "▁عندها": 8665,
      "ظلة": 8666,
      "▁٧٠": 8667,
      "فير": 8668,
      "▁العرف": 8669,
      "▁مسلم:": 8670,
      "وسة": 8671,
      "▁عذر": 8672,
      "▁المادة": 8673,
      "▁النظام": 8674,
      "بيهقي": 8675,
      "▁السح": 8676,
      "▁وقا": 8677,
      "▁قديم": 8678,
      "وكب": 8679,
      "▁(١٨": 8680,
      "▁يفس": 8681,
      "▁شروط": 8682,
      "▁دول": 8683,
      "▁والسن": 8684,
      "▁عينيه": 8685,
      "▁فالح": 8686,
      "▁العجلي": 8687,
      "▁قدرت": 8688,
      "ار:": 8689,
      "▁فتع": 8690,
      "▁والكس": 8691,
      "ربما": 8692,
      "خدم": 8693,
      "خ:": 8694,
      "▁الذنب": 8695,
      "▁ويو": 8696,
      "▁راسه،": 8697,
      "▁المدائ": 8698,
      "▁واليوم": 8699,
      "▁سلامة": 8700,
      "▁السيرافي": 8701,
      "▁مجموعة": 8702,
      "▁مصدرا": 8703,
      "▁ظهرت": 8704,
      "با:": 8705,
      "▁كتابة": 8706,
      "▁انتقل": 8707,
      "بوا": 8708,
      "▁بينكم": 8709,
      "▁وحين": 8710,
      "▁الثابت": 8711,
      "نفس": 8712,
      "▁موم": 8713,
      "▁صوم": 8714,
      "▁الياس": 8715,
      "▁بخير": 8716,
      "▁القن": 8717,
      "▁وركب": 8718,
      "▁الساع": 8719,
      "سيب": 8720,
      "▁اعجب": 8721,
      "▁ودفع": 8722,
      "▁بالفتح،": 8723,
      "▁الجند": 8724,
      "▁شيء.\n": 8725,
      "▁اختصاص": 8726,
      "▁والفض": 8727,
      "▁طالب،": 8728,
      "مي:": 8729,
      "▁بيروت": 8730,
      "ثور": 8731,
      "▁بايدي": 8732,
      "▁باج": 8733,
      "▁صغ": 8734,
      "▁نزيل": 8735,
      "▁قافية": 8736,
      "▁الضحي": 8737,
      "▁كلب": 8738,
      "رق،": 8739,
      "▁وسع": 8740,
      "▁تحتها": 8741,
      "▁تقطع": 8742,
      "▁والفرق": 8743,
      "▁الجلد": 8744,
      "تن": 8745,
      "▁مرتين": 8746,
      "▁الندي": 8747,
      "▁اسيد": 8748,
      "▁بلغه": 8749,
      "▁السد": 8750,
      "▁المنق": 8751,
      "▁عنق": 8752,
      "▁رضا": 8753,
      "▁حرج": 8754,
      "▁المسك": 8755,
      "▁عنهم،": 8756,
      "▁محاسن": 8757,
      "▁شهي": 8758,
      "▁ادم،": 8759,
      "▁تمس": 8760,
      "▁فيجب": 8761,
      "ووس": 8762,
      "▁وتل": 8763,
      "▁سيده:": 8764,
      "▁البري": 8765,
      "▁اثنان": 8766,
      "ثمة": 8767,
      "▁لعله": 8768,
      "▁الفقر": 8769,
      "▁الشهادة": 8770,
      "▁غيرها،": 8771,
      "▁الصلوات": 8772,
      "▁دمع": 8773,
      "زيدا": 8774,
      "▁والعد": 8775,
      "▁وفاعله": 8776,
      "▁\"ه": 8777,
      "▁والفتح": 8778,
      "▁ممنوع": 8779,
      "ثاء": 8780,
      "▁\"مع": 8781,
      "▁الذات": 8782,
      "▁مرف": 8783,
      "▁البرب": 8784,
      "س)": 8785,
      "▁وشد": 8786,
      "لي.": 8787,
      "▁قطعت": 8788,
      "▁-ا": 8789,
      "▁النحل": 8790,
      "▁كالع": 8791,
      "مار،": 8792,
      "▁تفرد": 8793,
      "▁الابيض": 8794,
      "▁ومي": 8795,
      "▁وحفظ": 8796,
      "▁وحل": 8797,
      "▁الازدي": 8798,
      "▁ارم": 8799,
      "▁افاد": 8800,
      "▁فوقع": 8801,
      "▁يتح": 8802,
      "▁يونس،": 8803,
      "▁والبي": 8804,
      "ودية": 8805,
      "▁يعذب": 8806,
      "▁نحوه": 8807,
      "▁رايه": 8808,
      "▁جعلته": 8809,
      "▁المصنف:": 8810,
      "▁الصحاح": 8811,
      "▁المفصل": 8812,
      "▁سابق": 8813,
      "ئته": 8814,
      "▁تعني": 8815,
      "▁الشريعة": 8816,
      "▁الضاد": 8817,
      "▁قياسا": 8818,
      "▁الشراب": 8819,
      "▁والفق": 8820,
      "▁[ب": 8821,
      "▁امره،": 8822,
      "▁فتحة": 8823,
      "▁الحبل": 8824,
      "▁القيامة،": 8825,
      "▁والدي": 8826,
      "▁يوسف،": 8827,
      "▁لزوم": 8828,
      "▁ويعلم": 8829,
      "▁دري": 8830,
      "فع،": 8831,
      "▁والقص": 8832,
      "▁الامثال": 8833,
      "ارع": 8834,
      "▁لاس": 8835,
      "▁٧٧": 8836,
      "▁نعرف": 8837,
      "كرون": 8838,
      "▁الاسلامي": 8839,
      "▁الفلك": 8840,
      "▁نافع،": 8841,
      "▁وحضر": 8842,
      "▁ووجد": 8843,
      "▁عليك،": 8844,
      "▁تصحيح": 8845,
      "▁امراء": 8846,
      "▁تضم": 8847,
      "▁طلي": 8848,
      "▁اعتقاد": 8849,
      "▁الاية.\n": 8850,
      "▁الفرات": 8851,
      "▁اذي": 8852,
      "الله": 8853,
      "▁الكلمة،": 8854,
      "▁بالاضافة.": 8855,
      "▁طاع": 8856,
      "▁مطا": 8857,
      "▁الموصل": 8858,
      "نساء": 8859,
      "▁التعليل": 8860,
      "▁سويد": 8861,
      "▁ن\n": 8862,
      "▁التصريح": 8863,
      "ريش": 8864,
      "▁فاق": 8865,
      "▁وثاني": 8866,
      "▁قعد": 8867,
      "▁النفس،": 8868,
      "▁مجي": 8869,
      "تهاد": 8870,
      "▁نادي": 8871,
      "▁الربا": 8872,
      "▁بالامر": 8873,
      "قيق،": 8874,
      "▁كلاما": 8875,
      "قا\n": 8876,
      "▁ذكروا": 8877,
      "▁بكير": 8878,
      "كلة": 8879,
      "طيب": 8880,
      "▁وطا": 8881,
      "٢:": 8882,
      "▁وجدنا": 8883,
      "▁ويه": 8884,
      "▁انطلق": 8885,
      "▁الاديب": 8886,
      "كيدا": 8887,
      "▁اراه": 8888,
      "▁اوفي": 8889,
      "▁فعلوا": 8890,
      "▁لغات": 8891,
      "تابعة": 8892,
      "▁ولئن": 8893,
      "فتحت": 8894,
      "▁فوائد": 8895,
      "▁تقدم.\n": 8896,
      "▁اشكال": 8897,
      "▁يبعد": 8898,
      "▁الاختصاص": 8899,
      "▁الذهن": 8900,
      "▁تثنية": 8901,
      "▁المرك": 8902,
      "▁اليق": 8903,
      "▁حسن،": 8904,
      "بسط": 8905,
      "▁والحمد": 8906,
      "▁محي": 8907,
      "▁(٢).": 8908,
      "▁والتص": 8909,
      "▁الظالمين": 8910,
      "▁بغداد،": 8911,
      "▁ولكل": 8912,
      "▁خصوص": 8913,
      "▁واحتج": 8914,
      "!!": 8915,
      "▁دما": 8916,
      "ابها": 8917,
      "▁وجهه،": 8918,
      "▁الهمد": 8919,
      "اعدا": 8920,
      "▁واحدها": 8921,
      "ده.": 8922,
      "▁عرفة": 8923,
      "▁بماء": 8924,
      "▁ظاهرا": 8925,
      "▁واستمر": 8926,
      "▁بقا": 8927,
      "قصود": 8928,
      "٢٠": 8929,
      "▁٩)": 8930,
      "▁التعليق:": 8931,
      "▁شديدة": 8932,
      "▁طوال": 8933,
      "▁الهواء": 8934,
      "▁الاعراب.\n": 8935,
      "▁اهـ.\n": 8936,
      "▁سلمي": 8937,
      "شو": 8938,
      "▁ستين": 8939,
      "▁لتع": 8940,
      "▁استا": 8941,
      "سي:": 8942,
      "▁نام": 8943,
      "اوية": 8944,
      "▁الجمعة،": 8945,
      "▁المرة": 8946,
      "▁ومل": 8947,
      "▁د\n": 8948,
      "▁غس": 8949,
      "▁الجارية": 8950,
      "▁والرج": 8951,
      "خرا": 8952,
      "▁صلب": 8953,
      "▁لي،": 8954,
      "نائم": 8955,
      "حظ": 8956,
      "▁المنك": 8957,
      "▁تمكن": 8958,
      "▁فريق": 8959,
      "▁اخوك": 8960,
      "▁السائب": 8961,
      "▁ورحمة": 8962,
      "▁الباه": 8963,
      "▁خلط": 8964,
      "يتهم": 8965,
      "▁شكل": 8966,
      "▁صريح": 8967,
      "▁خفت": 8968,
      "▁جنة": 8969,
      "▁صغيرة": 8970,
      "▁سلمان": 8971,
      "▁الالف،": 8972,
      "▁الثانية،": 8973,
      "نهم": 8974,
      "▁فرفع": 8975,
      "▁الاولين": 8976,
      "▁علام": 8977,
      "▁تعرب": 8978,
      "▁للتانيث": 8979,
      "دو": 8980,
      "▁الرجال،": 8981,
      "▁قلعة": 8982,
      "▁فمنهم": 8983,
      "▁قليلة": 8984,
      "▁فقوله": 8985,
      "▁ارجع": 8986,
      "▁يشر": 8987,
      "▁المبا": 8988,
      "▁تنظر": 8989,
      "▁عشر،": 8990,
      "▁\"من\"": 8991,
      "▁[المائدة:": 8992,
      "▁الصحيح،": 8993,
      "▁حمير": 8994,
      "▁الرجوع": 8995,
      "▁الفطر": 8996,
      "▁هرم": 8997,
      "▁النقص": 8998,
      "قاتل": 8999,
      "▁حبا": 9000,
      "▁الشرف": 9001,
      "▁المجاز:": 9002,
      "▁غيره.": 9003,
      "▁محذوفة": 9004,
      "سخ": 9005,
      "▁الحبشة": 9006,
      "▁العاقل": 9007,
      "باب،": 9008,
      "جام": 9009,
      "زاع": 9010,
      "▁المرس": 9011,
      "▁قدره": 9012,
      "▁يثني": 9013,
      "▁٤):": 9014,
      "▁الراعي": 9015,
      "▁العظم": 9016,
      "دفع": 9017,
      "يرها": 9018,
      "▁العقاب": 9019,
      "▁صبا": 9020,
      "▁الضعيف": 9021,
      "▁الشروط": 9022,
      "غمت": 9023,
      "قاه": 9024,
      "▁دنيا": 9025,
      "▁حمر": 9026,
      "طبة": 9027,
      "▁اقصي": 9028,
      "▁واين": 9029,
      "▁عليه\n": 9030,
      "▁يلتفت": 9031,
      "▁درهما": 9032,
      "▁اخص": 9033,
      "▁(وقد": 9034,
      "▁التابعين": 9035,
      "▁الاسن": 9036,
      "▁هلا": 9037,
      "▁خبرها": 9038,
      "▁الخدري": 9039,
      "▁يظلم": 9040,
      "لائق": 9041,
      "▁\"لا\"": 9042,
      "▁بصري": 9043,
      "▁بعم": 9044,
      "▁القطان": 9045,
      "ظار": 9046,
      "▁تبدل": 9047,
      "▁جبر": 9048,
      "▁[٦": 9049,
      "▁السبب:": 9050,
      "فة.": 9051,
      "يعني": 9052,
      "▁مهموز": 9053,
      "٢٥": 9054,
      "▁قبلك": 9055,
      "▁الضعف": 9056,
      "▁البديع": 9057,
      "▁يليق": 9058,
      "بع،": 9059,
      "▁تكاد": 9060,
      "خف": 9061,
      "▁للدلالة": 9062,
      "▁الارض:": 9063,
      "▁يستوي": 9064,
      "▁فصي": 9065,
      "▁عملت": 9066,
      "▁لث": 9067,
      "▁يستدرك": 9068,
      "▁فابي": 9069,
      "▁البيوت": 9070,
      "جلد": 9071,
      "▁والحكم": 9072,
      "▁انثي": 9073,
      "▁شيبة،": 9074,
      "▁تاس": 9075,
      "▁بابه": 9076,
      "▁شعراء": 9077,
      "يم:": 9078,
      "صروا": 9079,
      "صبه": 9080,
      "يتين": 9081,
      "▁اتاني": 9082,
      "لاقه": 9083,
      "▁اوجب": 9084,
      "▁الجراح": 9085,
      "▁طويلا": 9086,
      "▁بالعلم": 9087,
      "▁فحذفت": 9088,
      "شابه": 9089,
      "نيف": 9090,
      "بارا": 9091,
      "صرون": 9092,
      "▁الاصلي": 9093,
      "▁لار": 9094,
      "▁يقم": 9095,
      "▁البرد": 9096,
      "▁منفصل": 9097,
      "▁الخا": 9098,
      "▁دنا": 9099,
      "جرة،": 9100,
      "▁وستمائة": 9101,
      "▁قرر": 9102,
      "▁نحو:\n": 9103,
      "▁(بال": 9104,
      "▁ثقي": 9105,
      "وته،": 9106,
      "▁كسب": 9107,
      "▁بالبيت": 9108,
      "▁البرا": 9109,
      "نهي": 9110,
      "▁اسي": 9111,
      "▁الرمة:\n": 9112,
      "▁وضوء": 9113,
      "▁واجيب": 9114,
      "▁الحنفية": 9115,
      "▁قومك": 9116,
      "▁الذنوب": 9117,
      "▁سعد:": 9118,
      "جون": 9119,
      "وعي": 9120,
      "▁سمعه": 9121,
      "فد": 9122,
      "▁فهر": 9123,
      "تهم،": 9124,
      "▁فنظر": 9125,
      "▁سنة.": 9126,
      "▁مجاهد:": 9127,
      "▁هشام،": 9128,
      "▁ينافي": 9129,
      "▁دليلا": 9130,
      "▁يهد": 9131,
      "▁ثقات": 9132,
      "▁اسلوب": 9133,
      "▁بنفسه،": 9134,
      "▁السيرة": 9135,
      "▁وكلام": 9136,
      "▁المبتدا،": 9137,
      "▁اناس": 9138,
      "▁الكتاب:": 9139,
      "▁وقصد": 9140,
      "▁اخف": 9141,
      "▁الاذي": 9142,
      "▁ثقل": 9143,
      "مات،": 9144,
      "▁والصف": 9145,
      "▁الزيد": 9146,
      "▁لوي": 9147,
      "▁ظفر": 9148,
      "▁مبد": 9149,
      "▁ظهره": 9150,
      "▁فيه\n": 9151,
      "▁احفظ": 9152,
      "▁سمع:": 9153,
      "▁لتح": 9154,
      "▁الجنوب": 9155,
      "▁النعمة": 9156,
      "▁الرزق": 9157,
      "▁العساكر": 9158,
      "عظ": 9159,
      "حة:": 9160,
      "▁والراء": 9161,
      "دن": 9162,
      "▁قتلت": 9163,
      "▁تجوز": 9164,
      "▁عروة،": 9165,
      "▁تمنع": 9166,
      "▁صدقت": 9167,
      "▁\"قال": 9168,
      "▁وبينه": 9169,
      "طابق": 9170,
      "▁نعم.": 9171,
      "▁اورده": 9172,
      "قيد": 9173,
      "كتب": 9174,
      "▁تبقي": 9175,
      "▁الطاعة": 9176,
      "▁خاتم": 9177,
      "▁بابا": 9178,
      "ــــــــــــــــــــــــــــــــــــــــــــــــــــــــــــــــــــــــــــــــــــــــــــــــــــــــــــــــــــــــــــــــ": 9179,
      "جلة": 9180,
      "▁نفسا": 9181,
      "▁المجرد": 9182,
      "▁تتخذ": 9183,
      "▁الخلفاء": 9184,
      "▁والمونث": 9185,
      "▁المصدرية": 9186,
      "▁الافع": 9187,
      "▁سحر": 9188,
      "▁الهمز": 9189,
      "▁صدور": 9190,
      "ني\n": 9191,
      "▁قتادة:": 9192,
      "▁\"هذا": 9193,
      "▁والثلاث": 9194,
      "▁فليت": 9195,
      "▁ورم": 9196,
      "▁المتن": 9197,
      "▁امري": 9198,
      "▁صخر": 9199,
      "▁نواحي": 9200,
      "▁ينه": 9201,
      "▁فيها:": 9202,
      "▁ايوب،": 9203,
      "▁فوجب": 9204,
      "وانين": 9205,
      "▁منها.": 9206,
      "▁الانباري": 9207,
      "▁الاوس": 9208,
      "▁الظرفية": 9209,
      "▁اتصال": 9210,
      "▁\":": 9211,
      "▁يتصور": 9212,
      "▁الكرام": 9213,
      "▁(٣):": 9214,
      "▁ي\n": 9215,
      "▁تاليف": 9216,
      "مرفوضة": 9217,
      "▁الوجه،": 9218,
      "▁بضع": 9219,
      "▁القدرة": 9220,
      "▁الراي:مرفوضة": 9221,
      "▁بظ": 9222,
      "٢٨": 9223,
      "▁الواحد،": 9224,
      "▁وتسمي": 9225,
      "▁الربي": 9226,
      "▁خلقت": 9227,
      "▁بثبوت": 9228,
      "▁وكثير": 9229,
      "▁امسي": 9230,
      "نته": 9231,
      "▁بكرة": 9232,
      "▁لقاء": 9233,
      "▁نقض": 9234,
      "▁رجعت": 9235,
      "▁افصح": 9236,
      "▁الخ،": 9237,
      "▁سيدي": 9238,
      "▁السلطان،": 9239,
      "▁لذ": 9240,
      "غيب": 9241,
      "▁السمر": 9242,
      "ومة،": 9243,
      "▁احسان": 9244,
      "▁محمول": 9245,
      "▁المولي": 9246,
      "▁عليها.\n": 9247,
      "▁اعرابه": 9248,
      "▁تكتب": 9249,
      "شاة": 9250,
      "▁الاخري،": 9251,
      "▁يعرفون": 9252,
      "▁الاربعاء": 9253,
      "▁بكلام": 9254,
      "▁يديه،": 9255,
      "▁قض": 9256,
      "بي.\n": 9257,
      "▁ذكره،": 9258,
      "▁٧٦": 9259,
      "▁واخبرنا": 9260,
      "▁قيمة": 9261,
      "▁الاحسان": 9262,
      "▁الصحيحة": 9263,
      "▁بالحديث": 9264,
      "▁ويز": 9265,
      "٢٤": 9266,
      "فة.\n": 9267,
      "▁فارت": 9268,
      "▁١٩٨": 9269,
      "هره": 9270,
      "▁منهن": 9271,
      "▁والقمر": 9272,
      "▁وهب،": 9273,
      "نة:": 9274,
      "▁صحيحا": 9275,
      "▁بالسيف": 9276,
      "▁مسمي": 9277,
      "▁العزيز،": 9278,
      "▁البحر،": 9279,
      "▁احتمال": 9280,
      "▁\"الث": 9281,
      "الات": 9282,
      "▁المفع": 9283,
      "▁تحتاج": 9284,
      "▁مراعاة": 9285,
      "▁٧٨": 9286,
      "▁الخلق،": 9287,
      "▁الفز": 9288,
      "▁وسال": 9289,
      "▁\"زيد": 9290,
      "▁مكي": 9291,
      "▁فكانوا": 9292,
      "▁دابة": 9293,
      "▁الجاح": 9294,
      "▁الاحم": 9295,
      "▁ضيق": 9296,
      "صلت": 9297,
      "▁الحكومة": 9298,
      "▁عيش": 9299,
      "▁والعا": 9300,
      "▁وعشر": 9301,
      "▁يضل": 9302,
      "طاط": 9303,
      "▁صيغ": 9304,
      "▁تستطيع": 9305,
      "▁لاه": 9306,
      "▁وموسي": 9307,
      "▁مشتق": 9308,
      "طر،": 9309,
      "▁مناز": 9310,
      "▁منازل": 9311,
      "خيص": 9312,
      "عم،": 9313,
      "▁الظاهر،": 9314,
      "▁هاتين": 9315,
      "رائب": 9316,
      "▁وجعلت": 9317,
      "ائية": 9318,
      "▁وناقة": 9319,
      "▁افريق": 9320,
      "▁شمال": 9321,
      "▁القلعة": 9322,
      "▁رضوان": 9323,
      "دعاء": 9324,
      "▁الايمان،": 9325,
      "▁بوج": 9326,
      "▁عشرة،": 9327,
      "▁سنين،": 9328,
      "تار": 9329,
      "▁السالم": 9330,
      "▁عمد": 9331,
      "▁العذ": 9332,
      "▁اسعد": 9333,
      "▁خلقا": 9334,
      "▁اصلي": 9335,
      "▁سور": 9336,
      "▁تحقق": 9337,
      "▁اوضح": 9338,
      "ئتين": 9339,
      "▁بهن": 9340,
      "▁انكار": 9341,
      "▁تسم": 9342,
      "▁الاتيان": 9343,
      "▁صحيحة": 9344,
      "▁وعبيد": 9345,
      "▁ردي": 9346,
      "▁عياش": 9347,
      "▁واتبع": 9348,
      "▁يدر": 9349,
      "▁رمضان،": 9350,
      "▁الوك": 9351,
      "بطة": 9352,
      "▁تنصب": 9353,
      "وساء": 9354,
      "▁حذفه": 9355,
      "▁ركعة": 9356,
      "▁المازني": 9357,
      "▁العادل": 9358,
      "▁ق\n": 9359,
      "▁الركب": 9360,
      "▁رحي": 9361,
      "▁قيم": 9362,
      "▁وتهذيب": 9363,
      "ج.\n": 9364,
      "▁الافضل": 9365,
      "▁الماضي،": 9366,
      "▁بضمير": 9367,
      "▁ما:": 9368,
      "▁اجتمعت": 9369,
      "▁متح": 9370,
      "▁استطاع": 9371,
      "▁القول،": 9372,
      "▁النض": 9373,
      "اصي": 9374,
      "▁الثواب": 9375,
      "▁ختم": 9376,
      "▁ونحوها": 9377,
      "▁الاثبات": 9378,
      "▁المخصوص": 9379,
      "▁تشبيها": 9380,
      "زيه": 9381,
      "▁بذا": 9382,
      "▁يطوف": 9383,
      "▁الحديب": 9384,
      "▁الثناء": 9385,
      "جب،": 9386,
      "▁عصا": 9387,
      "حيف": 9388,
      "▁الباحث": 9389,
      "حدر": 9390,
      "ميا": 9391,
      "▁جاءه": 9392,
      "ولا،": 9393,
      "▁السنن": 9394,
      "▁تقوي": 9395,
      "▁فاسلم": 9396,
      "▁كذلك.\n": 9397,
      "▁شرحه": 9398,
      "٢٣": 9399,
      "▁الاعشي:\n": 9400,
      "شاه": 9401,
      "▁شريح": 9402,
      "▁اخطا": 9403,
      "▁ستر": 9404,
      "ناد،": 9405,
      "▁(وهو": 9406,
      "▁تقت": 9407,
      "غاث": 9408,
      "▁الاربع": 9409,
      "▁المفس": 9410,
      "▁بالذكر": 9411,
      "▁دفن": 9412,
      "▁١٩٥": 9413,
      "فور": 9414,
      "▁طع": 9415,
      "▁طيبة": 9416,
      "▁الهيئة": 9417,
      "فتها": 9418,
      "ولة،": 9419,
      "▁الخضر": 9420,
      "▁تتعلق": 9421,
      "▁فقوله:": 9422,
      "▁بجميع": 9423,
      "▁تاثير": 9424,
      "▁هذا.": 9425,
      "▁يسا": 9426,
      "▁والرتبة:": 9427,
      "▁العسل": 9428,
      "▁المساجد": 9429,
      "▁قائم،": 9430,
      "وهم،": 9431,
      "وتها": 9432,
      "نكير": 9433,
      "▁درهم،": 9434,
      "▁وثلاثمائة": 9435,
      "▁سيرين": 9436,
      "▁شجاع": 9437,
      "شعر": 9438,
      "▁ناد": 9439,
      "▁الارض.": 9440,
      "▁الفساد": 9441,
      "▁والرتبة:-": 9442,
      "▁افي": 9443,
      "▁وجا": 9444,
      "▁ذويب": 9445,
      "ودها": 9446,
      "▁بخمس": 9447,
      "▁السياق": 9448,
      "▁مدين": 9449,
      "▁ضربته": 9450,
      "▁الظروف": 9451,
      "▁العقول": 9452,
      "▁الي\n": 9453,
      "معت": 9454,
      "▁تكلف": 9455,
      "▁لذلك،": 9456,
      "▁وخير": 9457,
      "▁علامات": 9458,
      "▁ونه": 9459,
      "اله،": 9460,
      "▁وجر": 9461,
      "▁ذكرا": 9462,
      "يا\n": 9463,
      "▁[الا": 9464,
      "▁منصوبة": 9465,
      "▁فجر": 9466,
      "خرف": 9467,
      "▁التذكير": 9468,
      "▁اسن": 9469,
      "▁كذبوا": 9470,
      "▁الوتر": 9471,
      "ماسي": 9472,
      "▁المعتز": 9473,
      "▁المغني": 9474,
      "▁الفلس": 9475,
      "▁فرنسا": 9476,
      "▁جديدة": 9477,
      "بيعي": 9478,
      "▁اعمل": 9479,
      "٢٧": 9480,
      "ولون": 9481,
      "عدة،": 9482,
      "▁معان": 9483,
      "▁اليمن،": 9484,
      "▁نداء": 9485,
      "▁\"فع": 9486,
      "▁الضرورة": 9487,
      "▁الخير،": 9488,
      "خصص": 9489,
      "▁والبيت": 9490,
      "▁المسر": 9491,
      "▁الرباعي": 9492,
      "▁\"لم": 9493,
      "▁اضع": 9494,
      "▁وافر": 9495,
      "▁حديد": 9496,
      "▁يبكي": 9497,
      "▁١٩٧": 9498,
      "▁زلت": 9499,
      "▁القلب،": 9500,
      "▁صنعت": 9501,
      "▁\"ام": 9502,
      "▁بعدهم": 9503,
      "▁والاج": 9504,
      "▁الطريق،": 9505,
      "▁باهل": 9506,
      "▁كيسان": 9507,
      "▁العمل،": 9508,
      "▁ينبت": 9509,
      "▁ليعلم": 9510,
      "▁متم": 9511,
      "نيع": 9512,
      "▁واختلفوا": 9513,
      "▁[اب": 9514,
      "▁حزن": 9515,
      "▁جزءا": 9516,
      "▁بالاب": 9517,
      "▁وطائفة": 9518,
      "وس:": 9519,
      "▁كافة": 9520,
      "يل.": 9521,
      "▁[التوبة:": 9522,
      "▁عاج": 9523,
      "▁للث": 9524,
      "▁ففتح": 9525,
      "▁اعتراض": 9526,
      "▁ضعيف،": 9527,
      "ئية": 9528,
      "▁الكثرة": 9529,
      "وة:": 9530,
      "▁يبدا": 9531,
      "▁الزمان،": 9532,
      "▁٧٩": 9533,
      "▁يتحدث": 9534,
      "▁مغل": 9535,
      "▁المرح": 9536,
      "▁معرض": 9537,
      "▁وخلف": 9538,
      "▁بواسطة": 9539,
      "▁اعتمد": 9540,
      "▁تصنع": 9541,
      "▁(هـ)": 9542,
      "▁الدار،": 9543,
      "▁جزيرة": 9544,
      "▁لصاحب": 9545,
      "▁بالاح": 9546,
      "▁اراك": 9547,
      "بش": 9548,
      "صرا": 9549,
      "٢٦": 9550,
      "▁منادي": 9551,
      "▁سلا": 9552,
      "▁-كما": 9553,
      "▁سرق": 9554,
      "▁حاز": 9555,
      "▁لانا": 9556,
      "▁عيون": 9557,
      "▁كيفية": 9558,
      "▁والقياس": 9559,
      "▁استق": 9560,
      "▁يوما،": 9561,
      "▁فيهما،": 9562,
      "▁فالاول": 9563,
      "▁مار": 9564,
      "شرت": 9565,
      "▁ويج": 9566,
      "▁ارباب": 9567,
      "▁ويعقوب": 9568,
      "▁اوحي": 9569,
      "▁فاخت": 9570,
      "▁اللون": 9571,
      "▁وهولاء": 9572,
      "ران": 9573,
      "▁شيء.": 9574,
      "▁اعز": 9575,
      "▁بشار": 9576,
      "▁التابع": 9577,
      "▁وور": 9578,
      "لمس": 9579,
      "ها):": 9580,
      "▁المستع": 9581,
      "▁المورخ": 9582,
      "▁مبنية": 9583,
      "▁للانسان": 9584,
      "▁اعداء": 9585,
      "حل:": 9586,
      "▁القاعدة": 9587,
      "▁يضم": 9588,
      "▁وعق": 9589,
      "▁وقدر": 9590,
      "▁التالي": 9591,
      "▁طار": 9592,
      "▁الاموي": 9593,
      "▁وغيرها،": 9594,
      "▁عنقه": 9595,
      "٢.": 9596,
      "▁حكما": 9597,
      "▁بئس": 9598,
      "▁الجرح": 9599,
      "▁ثقة.\n": 9600,
      "▁العض": 9601,
      "▁تذ": 9602,
      "▁اسمائ": 9603,
      "▁يسجد": 9604,
      "▁ميس": 9605,
      "▁تها": 9606,
      "▁وصد": 9607,
      "▁توضا": 9608,
      "▁ظلموا": 9609,
      "▁٣)\n": 9610,
      "▁خطبة": 9611,
      "▁ذل": 9612,
      "عدوا": 9613,
      "▁والشيء": 9614,
      "▁شتي": 9615,
      "▁العاد": 9616,
      "▁(الع": 9617,
      "▁٦)،": 9618,
      "▁الركوع": 9619,
      "م)": 9620,
      "مرار": 9621,
      "▁العصا": 9622,
      "▁ذبح": 9623,
      "سباب": 9624,
      "▁واستع": 9625,
      "▁طالب:": 9626,
      "▁سقوط": 9627,
      "▁استعارة": 9628,
      "ق)": 9629,
      "▁محض": 9630,
      "▁القدم": 9631,
      "▁كائ": 9632,
      "ساكن": 9633,
      "▁للال": 9634,
      "تها.\n": 9635,
      "▁احو": 9636,
      "▁خفض": 9637,
      "غه": 9638,
      "▁يكذب": 9639,
      "▁منهم:": 9640,
      "▁الانسان،": 9641,
      "تهاء": 9642,
      "علة": 9643,
      "صيب": 9644,
      "▁وزنه": 9645,
      "▁محله": 9646,
[...]
