{
  "version": "1.0",
  "truncation": null,
  "padding": null,
  "added_tokens": [
    {
      "id": 0,
      "content": "[UNK]",
      "single_word": false,
      "lstrip": false,
      "rstrip": false,
      "normalized": false,
      "special": true
    },
    {
      "id": 1,
      "content": "[BOS]",
      "single_word": false,
      "lstrip": false,
      "rstrip": false,
      "normalized": false,
      "special": true
    },
    {
      "id": 2,
      "content": "[EOS]",
      "single_word": false,
      "lstrip": false,
      "rstrip": false,
      "normalized": false,
      "special": true
    },
    {
      "id": 3,
      "content": "[PAD]",
      "single_word": false,
      "lstrip": false,
      "rstrip": false,
      "normalized": false,
      "special": true
    },
    {
      "id": 4,
      "content": "[SEP]",
      "single_word": false,
      "lstrip": false,
      "rstrip": false,
      "normalized": false,
      "special": true
    },
    {
      "id": 5,
      "content": "[MASK]",
      "single_word": false,
      "lstrip": false,
      "rstrip": false,
      "normalized": false,
      "special": true
    }
  ],
  "normalizer": null,
  "pre_tokenizer": {
    "type": "Metaspace",
    "replacement": "▁",
    "prepend_scheme": "always",
    "split": true
  },
  "post_processor": null,
  "decoder": {
    "type": "Metaspace",
    "replacement": "▁",
    "prepend_scheme": "always",
    "split": true
  },
  "model": {
    "type": "BPE",
    "dropout": null,
    "unk_token": "[UNK]",
    "continuing_subword_prefix": null,
    "end_of_word_suffix": null,
    "fuse_unk": false,
    "byte_fallback": false,
    "ignore_merges": false,
    "vocab": {
      "[UNK]": 0,
      "[BOS]": 1,
      "[EOS]": 2,
      "[PAD]": 3,
      "[SEP]": 4,
      "[MASK]": 5,
      "\n": 6,
      "!": 7,
      "\"": 8,
      "(": 9,
      ")": 10,
      "-": 11,
      ".": 12,
      ":": 13,
      ";": 14,
      "[": 15,
      "]": 16,
      "،": 17,
      "؛": 18,
      "؟": 19,
      "ء": 20,
      "آ": 21,
      "أ": 22,
      "إ": 23,
      "ئ": 24,
      "ا": 25,
      "ب": 26,
      "ة": 27,
      "ت": 28,
      "ث": 29,
      "ج": 30,
      "ح": 31,
      "خ": 32,
      "د": 33,
      "ذ": 34,
      "ر": 35,
      "ز": 36,
      "س": 37,
      "ش": 38,
      "ص": 39,
      "ض": 40,
      "ط": 41,
      "ظ": 42,
      "ع": 43,
      "غ": 44,
      "ـ": 45,
      "ف": 46,
      "ق": 47,
      "ك": 48,
      "ل": 49,
      "م": 50,
      "ن": 51,
      "ه": 52,
      "و": 53,
      "ى": 54,
      "ي": 55,
      "٠": 56,
      "١": 57,
      "٢": 58,
      "٣": 59,
      "٤": 60,
      "٥": 61,
      "٦": 62,
      "٧": 63,
      "٨": 64,
      "٩": 65,
      "ٹ": 66,
      "پ": 67,
      "چ": 68,
      "ژ": 69,
      "ک": 70,
      "گ": 71,
      "ں": 72,
      "ھ": 73,
      "ہ": 74,
      "ے": 75,
      "▁": 76,
      "▁ا": 77,
      "▁ال": 78,
      "▁و": 79,
      "▁م": 80,
      "ال": 81,
      "▁ف": 82,
      "▁ب": 83,
      "▁ل": 84,
      "ان": 85,
      "▁ع": 86,
      "▁ي": 87,
      "▁في": 88,
      "لي": 89,
      "ما": 90,
      "▁من": 91,
      "ها": 92,
      "▁ت": 93,
      "▁ق": 94,
      "▁ك": 95,
      "▁الم": 96,
      "لا": 97,
      "▁ان": 98,
      "▁الا": 99,
      "▁وال": 100,
      "..": 101,
      ".\n": 102,
      "ول": 103,
      "را": 104,
      "ين": 105,
      "▁علي": 106,
      "وا": 107,
      "▁(": 108,
      "ذا": 109,
      "▁ح": 110,
      "▁ه": 111,
      "نا": 112,
      "ير": 113,
      "ون": 114,
      "▁وا": 115,
      "عل": 116,
      "▁ن": 117,
      "ري": 118,
      "▁ج": 119,
      "ني": 120,
      "ار": 121,
      "▁\"": 122,
      "هم": 123,
      "▁س": 124,
      "اء": 125,
      "▁لا": 126,
      "▁الي": 127,
      "لك": 128,
      "▁ما": 129,
      "▁..": 130,
      "بي": 131,
      "▁وق": 132,
      "▁بال": 133,
      "▁...": 134,
      "▁الت": 135,
      "رف": 136,
      "ست": 137,
      "▁\n": 138,
      "اب": 139,
      "ية": 140,
      "▁عن": 141,
      "له": 142,
      "يد": 143,
      "▁الع": 144,
      "▁ش": 145,
      "▁الح": 146,
      "▁وه": 147,
      "مع": 148,
      "▁ذ": 149,
      "ام": 150,
      "رب": 151,
      "▁الف": 152,
      "▁او": 153,
      "▁خ": 154,
      "من": 155,
      "▁ص": 156,
      "▁قال": 157,
      "▁اي": 158,
      "▁اب": 159,
      "▁كان": 160,
      "ه،": 161,
      "ة،": 162,
      "دي": 163,
      "رو": 164,
      "لم": 165,
      "▁مع": 166,
      ":\n": 167,
      "▁.": 168,
      "ات": 169,
      "قول": 170,
      "في": 171,
      "▁غ": 172,
      "دا": 173,
      "رج": 174,
      "▁الش": 175,
      "▁الن": 176,
      "سم": 177,
      "كر": 178,
      "▁الق": 179,
      "▁الج": 180,
      "عد": 181,
      "ته": 182,
      "يل": 183,
      "مل": 184,
      "كون": 185,
      "ور": 186,
      "▁د": 187,
      "▁الس": 188,
      "▁ز": 189,
      "▁-": 190,
      "ائ": 191,
      "قد": 192,
      "▁الك": 193,
      "▁وان": 194,
      "▁اذا": 195,
      "▁ث": 196,
      "▁هذا": 197,
      "لام": 198,
      "با": 199,
      "▁وي": 200,
      "▁لان": 201,
      "اف": 202,
      "صل": 203,
      "حو": 204,
      "بر": 205,
      "▁ولا": 206,
      "▁قول": 207,
      "مر": 208,
      "اد": 209,
      "▁بن": 210,
      "وم": 211,
      "قال": 212,
      "▁وهو": 213,
      "▁الذ": 214,
      "▁الخ": 215,
      "حد": 216,
      "▁وت": 217,
      "تي": 218,
      "▁وك": 219,
      "▁لم": 220,
      "▁الب": 221,
      "▁فا": 222,
      "▁لل": 223,
      "▁به": 224,
      "▁اخ": 225,
      "وي": 226,
      "▁ذلك": 227,
      "قي": 228,
      "▁ض": 229,
      "ه:": 230,
      "▁ر": 231,
      "ذه": 232,
      "▁الله": 233,
      "▁وج": 234,
      "مي": 235,
      "رة": 236,
      "اني": 237,
      "▁١": 238,
      "▁هو": 239,
      "فع": 240,
      "▁مح": 241,
      "▁ط": 242,
      "رك": 243,
      "▁الص": 244,
      "لت": 245,
      "هما": 246,
      "بت": 247,
      "▁غير": 248,
      "اع": 249,
      "ود": 250,
      "به": 251,
      "ذلك": 252,
      "▁وم": 253,
      "▁فان": 254,
      "بل": 255,
      "رد": 256,
      "▁فيه": 257,
      "▁الذي": 258,
      "▁وع": 259,
      "فت": 260,
      "كن": 261,
      "▁قد": 262,
      "كم": 263,
      "▁[": 264,
      "وع": 265,
      "يا": 266,
      "▁الد": 267,
      "▁لي": 268,
      "▁ول": 269,
      "▁له": 270,
      "▁تع": 271,
      "▁بعد": 272,
      "▁ومن": 273,
      "▁نحو": 274,
      "فا": 275,
      "▁كما": 276,
      "▁الل": 277,
      "▁وقد": 278,
      "▁الث": 279,
      "بة": 280,
      "اه": 281,
      "▁بع": 282,
      "▁ام": 283,
      "▁يج": 284,
      "لة": 285,
      "▁كل": 286,
      "▁بين": 287,
      "▁يكون": 288,
      "▁اع": 289,
      "رت": 290,
      "▁المع": 291,
      "سي": 292,
      "▁يع": 293,
      "▁وقال": 294,
      "▁ابن": 295,
      "▁مث": 296,
      "مة": 297,
      "▁انه": 298,
      "ها،": 299,
      "ضع": 300,
      "فة": 301,
      "الي": 302,
      "وج": 303,
      "▁زيد": 304,
      ")\n": 305,
      "▁وب": 306,
      "صب": 307,
      "▁مت": 308,
      "▁اح": 309,
      "قل": 310,
      "▁وفي": 311,
      "سن": 312,
      "فس": 313,
      "▁٢": 314,
      "عة": 315,
      "▁ثم": 316,
      "وز": 317,
      "ضي": 318,
      "در": 319,
      "▁والم": 320,
      "وب": 321,
      "ضا": 322,
      "حي": 323,
      "▁التي": 324,
      "يب": 325,
      "▁مو": 326,
      "▁اس": 327,
      "▁ابو": 328,
      "فر": 329,
      "قا": 330,
      "يء": 331,
      "▁الط": 332,
      "قت": 333,
      "▁يت": 334,
      "جا": 335,
      "قة": 336,
      "مد": 337,
      "بد": 338,
      "▁است": 339,
      "▁عليه": 340,
      "ماء": 341,
      "▁ون": 342,
      "▁را": 343,
      "▁النا": 344,
      "سر": 345,
      "فعل": 346,
      "▁هذه": 347,
      "اح": 348,
      "زم": 349,
      "▁فعل": 350,
      "شر": 351,
      "رجل": 352,
      "▁فه": 353,
      "مير": 354,
      "وف": 355,
      "رض": 356,
      "خل": 357,
      "▁وما": 358,
      "▁عند": 359,
      "طل": 360,
      "غير": 361,
      "▁اسم": 362,
      "▁قال:": 363,
      "▁ين": 364,
      "فظ": 365,
      "ضاف": 366,
      "▁وح": 367,
      "وت": 368,
      "يت": 369,
      "صر": 370,
      "عم": 371,
      "راد": 372,
      "علم": 373,
      "راء": 374,
      "▁فت": 375,
      "▁الوا": 376,
      "حت": 377,
      "▁والا": 378,
      "قول:": 379,
      "▁الر": 380,
      "قال:": 381,
      "▁اش": 382,
      "هر": 383,
      "▁الغ": 384,
      "▁بعض": 385,
      "سب": 386,
      "دل": 387,
      "ذف": 388,
      "غة": 389,
      "▁فل": 390,
      "يم": 391,
      "▁ظ": 392,
      "دة": 393,
      "ثر": 394,
      "▁ذكر": 395,
      "وق": 396,
      "▁٣": 397,
      "رفع": 398,
      "كان": 399,
      "▁با": 400,
      "بع": 401,
      "▁مثل": 402,
      "ليل": 403,
      "▁الض": 404,
      "▁الاخ": 405,
      "معني": 406,
      "حا": 407,
      "\"،": 408,
      "▁يا": 409,
      "▁الان": 410,
      ").\n": 411,
      "▁وهي": 412,
      "عت": 413,
      "▁اج": 414,
      "▁المت": 415,
      "▁مج": 416,
      "▁منه": 417,
      "مت": 418,
      "▁اص": 419,
      "تاب": 420,
      "الف": 421,
      "▁بل": 422,
      "عا": 423,
      "سا": 424,
      "وه": 425,
      "▁لانه": 426,
      "لب": 427,
      "ذكر": 428,
      "▁حتي": 429,
      "▁الفعل": 430,
      "▁بها": 431,
      "▁نا": 432,
      "ملة": 433,
      "▁فال": 434,
      "ين،": 435,
      "راب": 436,
      "ر،": 437,
      ")،": 438,
      "▁ابي": 439,
      "حة": 440,
      "الة": 441,
      "▁اي:": 442,
      "▁والت": 443,
      "لاث": 444,
      "خت": 445,
      "صف": 446,
      "▁ايضا": 447,
      "▁فيها": 448,
      "▁نحو:": 449,
      "▁تعالي": 450,
      "▁(ال": 451,
      "▁اليه": 452,
      "سان": 453,
      "▁المص": 454,
      "▁الو": 455,
      "▁هي": 456,
      "▁وس": 457,
      "شد": 458,
      "فعول": 459,
      "▁ولم": 460,
      "▁محل": 461,
      "▁و\"": 462,
      "▁واحد": 463,
      "▁اذ": 464,
      "بني": 465,
      "ره": 466,
      "▁واما": 467,
      "ا،": 468,
      "رق": 469,
      "▁قبل": 470,
      "▁الز": 471,
      "يف": 472,
      "كل": 473,
      "....": 474,
      "▁جمع": 475,
      "▁فلا": 476,
      "هل": 477,
      "▁يق": 478,
      "نت": 479,
      "اج": 480,
      "وس": 481,
      "▁حرف": 482,
      "▁٤": 483,
      "ديث": 484,
      "▁البي": 485,
      "▁ليس": 486,
      "▁الاس": 487,
      "▁وكان": 488,
      "▁قوله": 489,
      "واب": 490,
      "شي": 491,
      "▁كال": 492,
      "قدم": 493,
      "▁لما": 494,
      "▁الاع": 495,
      "ولي": 496,
      "▁ات": 497,
      "وك": 498,
      "قط": 499,
      "مس": 500,
      "▁احد": 501,
      "▁اما": 502,
      "▁كانت": 503,
      "ارة": 504,
      "▁معني": 505,
      "▁يح": 506,
      "تب": 507,
      "▁(١": 508,
      "▁والج": 509,
      "عي": 510,
      "قص": 511,
      "▁الاول": 512,
      "▁عم": 513,
      "▁،": 514,
      "▁قلت": 515,
      "▁\"ال": 516,
      "م،": 517,
      "▁وقول": 518,
      "▁تح": 519,
      "▁لو": 520,
      "▁لها": 521,
      "▁تن": 522,
      "▁المو": 523,
      "روف": 524,
      "▁فهو": 525,
      "شت": 526,
      "ريد": 527,
      "ناء": 528,
      "▁ولي": 529,
      "زة": 530,
      "ان،": 531,
      "تها": 532,
      "▁مص": 533,
      "▁المن": 534,
      "▁الاست": 535,
      "▁العرب": 536,
      "نة": 537,
      "▁الظ": 538,
      "▁اد": 539,
      "ية،": 540,
      "ه.\n": 541,
      "▁وهذا": 542,
      "▁المعني": 543,
      "▁ضمير": 544,
      "▁بمعني": 545,
      "▁.\n": 546,
      "رح": 547,
      "▁اك": 548,
      "▁جاء": 549,
      "▁بان": 550,
      "عر": 551,
      "ثير": 552,
      "▁حي": 553,
      "▁ولك": 554,
      "اء،": 555,
      "▁باب": 556,
      "ورة": 557,
      "▁:": 558,
      "هد": 559,
      "طي": 560,
      "▁عبد": 561,
      "▁تق": 562,
      "يل:": 563,
      "▁وانما": 564,
      "▁ذا": 565,
      "▁الكلام": 566,
      "بتدا": 567,
      "طف": 568,
      "▁بح": 569,
      "▁اله": 570,
      "▁اق": 571,
      "قدير": 572,
      "رس": 573,
      "▁هنا": 574,
      "▁وخ": 575,
      "▁والن": 576,
      "فتح": 577,
      "▁مست": 578,
      "وان": 579,
      "▁وز": 580,
      "▁قوله:": 581,
      "ه.": 582,
      "ظر": 583,
      "▁الفا": 584,
      "▁يست": 585,
      "▁الناس": 586,
      "▁يد": 587,
      "▁الاسم": 588,
      "▁انت": 589,
      "▁فع": 590,
      "▁الواو": 591,
      "ضم": 592,
      "▁مس": 593,
      "اص": 594,
      "ة:": 595,
      "رط": 596,
      "▁تكون": 597,
      "امل": 598,
      "▁منها": 599,
      "مان": 600,
      "اط": 601,
      "▁بد": 602,
      "▁وص": 603,
      "▁شيء": 604,
      "▁يجوز": 605,
      "زي": 606,
      "لف": 607,
      "جر": 608,
      "ب،": 609,
      "▁نفس": 610,
      "لق": 611,
      "وال": 612,
      "مه": 613,
      "لاف": 614,
      "▁كقول": 615,
      "▁فقال": 616,
      "رية": 617,
      "▁٥": 618,
      "▁ولكن": 619,
      "▁بم": 620,
      "ذهب": 621,
      "▁الثاني": 622,
      "ذي": 623,
      "ك،": 624,
      "▁وذلك": 625,
      "ضار": 626,
      "▁والح": 627,
      "▁اخر": 628,
      "خر": 629,
      "▁البيت": 630,
      "▁والع": 631,
      "وة": 632,
      "▁فاذا": 633,
      "جاز": 634,
      "بن": 635,
      "ولا": 636,
      "▁(٢": 637,
      "زيد": 638,
      "ند": 639,
      "علق": 640,
      "زل": 641,
      "لمة": 642,
      "▁للم": 643,
      "ربي": 644,
      "▁رفع": 645,
      "مال": 646,
      "▁حين": 647,
      "▁تج": 648,
      "▁انما": 649,
      "كي": 650,
      "▁خبر": 651,
      "▁حال": 652,
      "رور": 653,
      "▁مبني": 654,
      "▁وش": 655,
      "ويل": 656,
      "اعر": 657,
      "ثني": 658,
      "▁كلام": 659,
      "اس": 660,
      "▁تعالي:": 661,
      "فرد": 662,
      "▁بك": 663,
      "▁يقول": 664,
      "▁المح": 665,
      "ينا": 666,
      "▁حذف": 667,
      "▁موضع": 668,
      "▁لفظ": 669,
      "\".\n": 670,
      "▁اول": 671,
      "صي": 672,
      "▁واذا": 673,
      "▁امر": 674,
      "▁علم": 675,
      "▁الرا": 676,
      "ة.\n": 677,
      "▁لك": 678,
      "ة.": 679,
      "▁قل": 680,
      "▁ضرب": 681,
      "ضرب": 682,
      "▁ثلاث": 683,
      "هم،": 684,
      "):": 685,
      "▁فقد": 686,
      "▁وكذلك": 687,
      "صح": 688,
      "ثل": 689,
      "▁الرجل": 690,
      "رع": 691,
      "▁فاعل": 692,
      "صد": 693,
      "▁مما": 694,
      "▁يقال:": 695,
      "▁رب": 696,
      "تح": 697,
      "كس": 698,
      "▁[ال": 699,
      "▁بي": 700,
      "ق،": 701,
      "▁يخ": 702,
      "فض": 703,
      "▁جعل": 704,
      "▁يعني": 705,
      "ادة": 706,
      "▁جا": 707,
      "▁يس": 708,
      "طا": 709,
      "غي": 710,
      "▁يو": 711,
      "▁يقال": 712,
      "نف": 713,
      "قر": 714,
      "▁رج": 715,
      "ناه": 716,
      "▁انها": 717,
      "نس": 718,
      "د،": 719,
      "هم:": 720,
      "▁قلت:": 721,
      "اتي": 722,
      "▁عد": 723,
      "ك:": 724,
      "قب": 725,
      "▁سب": 726,
      "▁رجل": 727,
      "▁الالف": 728,
      "رات": 729,
      "ثال": 730,
      "ظم": 731,
      "ريف": 732,
      "▁شي": 733,
      "▁عنه": 734,
      "▁٦": 735,
      "▁الاص": 736,
      "▁يش": 737,
      "▁يوم": 738,
      "▁بما": 739,
      "▁هم": 740,
      "▁وجه": 741,
      "▁دون": 742,
      "قه": 743,
      "▁لت": 744,
      "ديد": 745,
      "مام": 746,
      "▁وعلي": 747,
      "]\n": 748,
      "كت": 749,
      "▁كتاب": 750,
      "▁جر": 751,
      "▁سيب": 752,
      "▁اث": 753,
      "▁بني": 754,
      "▁المس": 755,
      "ع،": 756,
      "▁الشاعر": 757,
      "لاء": 758,
      "▁سيبوي": 759,
      "▁للا": 760,
      "▁وليس": 761,
      "▁مال": 762,
      "▁تت": 763,
      "وجه": 764,
      "خذ": 765,
      "لامة": 766,
      "▁الامر": 767,
      "كا": 768,
      "▁ها": 769,
      "جب": 770,
      "▁الام": 771,
      "▁المج": 772,
      "▁التع": 773,
      "▁مفعول": 774,
      "▁منص": 775,
      "▁مخ": 776,
      "رفوع": 777,
      "▁الاصل": 778,
      "▁ود": 779,
      "هب": 780,
      "▁تا": 781,
      "الم": 782,
      "▁يم": 783,
      "▁محمد": 784,
      "وا:": 785,
      "وات": 786,
      "▁(ا": 787,
      "▁(٣": 788,
      "ائل": 789,
      "▁مر": 790,
      "▁رو": 791,
      "طر": 792,
      "▁بت": 793,
      "▁صاح": 794,
      "▁بالا": 795,
      "واء": 796,
      "▁فيما": 797,
      "▁الما": 798,
      "▁عليها": 799,
      "دت": 800,
      "سمي": 801,
      "▁الارض": 802,
      "▁نصب": 803,
      "زا": 804,
      "▁الياء": 805,
      "فعال": 806,
      "▁مق": 807,
      "اهر": 808,
      "▁اللغة": 809,
      "▁يكن": 810,
      "▁حيث": 811,
      "▁حد": 812,
      "▁وغير": 813,
      "▁مش": 814,
      "▁عمرو": 815,
      "▁والخ": 816,
      "▁\"ا": 817,
      "بار": 818,
      "▁ولو": 819,
      "▁اهل": 820,
      "▁تص": 821,
      "حق": 822,
      "بين": 823,
      "ضارع": 824,
      "ي،": 825,
      "▁اف": 826,
      "▁الحال": 827,
      "▁وف": 828,
      "قع": 829,
      "▁المش": 830,
      "▁يك": 831,
      "ده": 832,
      "وص": 833,
      "▁الفاعل": 834,
      "▁تقول:": 835,
      "▁الهم": 836,
      "▁كذلك": 837,
      "\":": 838,
      "▁الشيء": 839,
      "انا": 840,
      "▁الحديث": 841,
      "يرا": 842,
      "▁اللفظ": 843,
      "▁للت": 844,
      "▁انا": 845,
      "راة": 846,
      "▁بالم": 847,
      "▁اراد": 848,
      "▁كثير": 849,
      "واو": 850,
      "بس": 851,
      "▁ومنه": 852,
      "▁فق": 853,
      "انية": 854,
      "يس": 855,
      "وض": 856,
      "▁الخبر": 857,
      "▁بخ": 858,
      "▁زيدا": 859,
      "عمل": 860,
      "▁٧": 861,
      "▁اخت": 862,
      "ذك": 863,
      "مات": 864,
      "▁المست": 865,
      "جل": 866,
      "اذ": 867,
      "▁الاد": 868,
      "نع": 869,
      "▁نس": 870,
      "▁واست": 871,
      "ه\n": 872,
      "هاء": 873,
      "وفي": 874,
      "باب": 875,
      "▁فانه": 876,
      "ماع": 877,
      "بير": 878,
      "لية": 879,
      "▁قب": 880,
      "▁تد": 881,
      "جم": 882,
      "نو": 883,
      "▁اللام": 884,
      "كلم": 885,
      "ريق": 886,
      "▁تس": 887,
      "▁العين": 888,
      "ئة": 889,
      "فق": 890,
      "▁تقدم": 891,
      "ها.": 892,
      "▁تخ": 893,
      "صول": 894,
      "بات": 895,
      "داء": 896,
      "▁فقال:": 897,
      "رم": 898,
      "شا": 899,
      "ذوف": 900,
      "ضافة": 901,
      "▁مرفوع": 902,
      "ركة": 903,
      "ح،": 904,
      "▁فح": 905,
      "لين": 906,
      "▁الكتاب": 907,
      "راه": 908,
      "ها.\n": 909,
      "ئذ": 910,
      "▁جمي": 911,
      "▁لكن": 912,
      "▁كذا": 913,
      "........": 914,
      "▁مد": 915,
      "▁والص": 916,
      "▁كون": 917,
      "▁المخ": 918,
      "▁قائ": 919,
      "▁تقدير": 920,
      "هام": 921,
      "▁حديث": 922,
      "▁يل": 923,
      "▁والس": 924,
      "▁(و": 925,
      "▁الال": 926,
      "حن": 927,
      "بال": 928,
      "▁والش": 929,
      "▁القر": 930,
      "▁اكثر": 931,
      "بيه": 932,
      "▁بمن": 933,
      "جد": 934,
      "▁لانها": 935,
      "▁يريد": 936,
      "▁عين": 937,
      "▁اصل": 938,
      "▁وانشد": 939,
      "▁مبتدا": 940,
      "▁الاعراب": 941,
      "فاعل": 942,
      "▁العربي": 943,
      "ياس": 944,
      "ينة": 945,
      "طع": 946,
      "حل": 947,
      "عب": 948,
      "امة": 949,
      "حم": 950,
      "رفة": 951,
      "زلة": 952,
      "▁يقول:": 953,
      "▁والث": 954,
      "▁الجمع": 955,
      "ديم": 956,
      "▁والك": 957,
      "حر": 958,
      "طن": 959,
      "▁(٤": 960,
      "ئت": 961,
      "▁متعلق": 962,
      "▁تري": 963,
      "ضر": 964,
      "▁فلما": 965,
      "▁وقيل:": 966,
      "ذر": 967,
      "▁الجملة": 968,
      "▁نص": 969,
      "▁الاولي": 970,
      "تل": 971,
      "را،": 972,
      "طلق": 973,
      "▁الاخر": 974,
      "انيث": 975,
      "▁والي": 976,
      "▁سا": 977,
      "▁فما": 978,
      "▁فك": 979,
      "▁ونحو": 980,
      "هن": 981,
      "▁عمر": 982,
      "هي": 983,
      "جز": 984,
      "▁دا": 985,
      "صرف": 986,
      "▁واخ": 987,
      "▁جوا": 988,
      "▁تش": 989,
      "▁ومع": 990,
      "▁فلان": 991,
      "▁صاحب": 992,
      "▁فلم": 993,
      "▁النحو": 994,
      "▁ـ": 995,
      "▁٨": 996,
      "الث": 997,
      "\".": 998,
      "▁العلم": 999,
      "▁سيبويه": 1000,
      "فل": 1001,
      "▁(١)": 1002,
      "▁انك": 1003,
      "صار": 1004,
      "▁واح": 1005,
      "▁النون": 1006,
      "ونث": 1007,
      "▁رس": 1008,
      "جوز": 1009,
      "؟\n": 1010,
      "▁مضاف": 1011,
      "▁العل": 1012,
      "▁صفة": 1013,
      "ال،": 1014,
      "▁بلا": 1015,
      "وح": 1016,
      "ائر": 1017,
      "▁بقول": 1018,
      "قيق": 1019,
      "تين": 1020,
      "وية": 1021,
      "▁فن": 1022,
      "▁الذين": 1023,
      "صا": 1024,
      "ها\n": 1025,
      "تم": 1026,
      "▁كنت": 1027,
      "▁تقول": 1028,
      "▁اه": 1029,
      "▁فكان": 1030,
      "حيح": 1031,
      "ظهر": 1032,
      "لط": 1033,
      "▁به،": 1034,
      "▁الماء": 1035,
      "▁وبين": 1036,
      "▁منصوب": 1037,
      "ائد": 1038,
      "▁يب": 1039,
      "ضل": 1040,
      "▁قوم": 1041,
      "▁حكم": 1042,
      "ري،": 1043,
      "ئا": 1044,
      "▁جار": 1045,
      "جي": 1046,
      "طب": 1047,
      "مار": 1048,
      "▁الضمير": 1049,
      "▁عل": 1050,
      "ها:": 1051,
      "ان:": 1052,
      "ائدة": 1053,
      "نب": 1054,
      "ريح": 1055,
      "اله": 1056,
      "▁لغة": 1057,
      "له،": 1058,
      "▁ياء": 1059,
      "تهي": 1060,
      "فه": 1061,
      "▁يف": 1062,
      "▁بق": 1063,
      "كرة": 1064,
      "▁وغ": 1065,
      "ريب": 1066,
      "▁هل": 1067,
      "▁وث": 1068,
      "▁الثلاث": 1069,
      "▁نظ": 1070,
      "▁المصنف": 1071,
      "▁الاسماء": 1072,
      "▁الشعر": 1073,
      "باس": 1074,
      "ه:\n": 1075,
      "▁بالت": 1076,
      "طاب": 1077,
      "ون:": 1078,
      "▁لن": 1079,
      "سة": 1080,
      "▁ثلاثة": 1081,
      "ما،": 1082,
      "▁مصدر": 1083,
      "غني": 1084,
      "جرور": 1085,
      "ت،": 1086,
      "▁القوم": 1087,
      "بط": 1088,
      "حاب": 1089,
      "▁بش": 1090,
      "▁متصل": 1091,
      "▁ويقال:": 1092,
      "▁فج": 1093,
      "▁حسن": 1094,
      "▁المد": 1095,
      "▁الاش": 1096,
      "بيل": 1097,
      "لاح": 1098,
      "▁عمل": 1099,
      "جة": 1100,
      "▁اللغ": 1101,
      "▁عام": 1102,
      "▁المصدر": 1103,
      "يرة": 1104,
      "▁اعت": 1105,
      "▁وقوله:": 1106,
      "▁لهم": 1107,
      "▁اط": 1108,
      "ي:": 1109,
      "▁الهمزة": 1110,
      "▁ترك": 1111,
      "يز": 1112,
      "▁قيل": 1113,
      "قدر": 1114,
      "▁٩": 1115,
      "▁عشر": 1116,
      "اك": 1117,
      ").": 1118,
      "بو": 1119,
      "▁ارب": 1120,
      "▁الباب": 1121,
      "ير،": 1122,
      "▁عبي": 1123,
      "▁اض": 1124,
      "▁اني": 1125,
      "▁الفتح": 1126,
      "▁تو": 1127,
      "كسر": 1128,
      "تر": 1129,
      "▁دخ": 1130,
      "▁قام": 1131,
      "الا": 1132,
      "▁والق": 1133,
      "وائ": 1134,
      "▁الزم": 1135,
      "يلة": 1136,
      "لا،": 1137,
      "▁بالح": 1138,
      "عين": 1139,
      "▁فمن": 1140,
      "▁صار": 1141,
      "واد": 1142,
      "▁تلك": 1143,
      "▁كث": 1144,
      "▁راي": 1145,
      "▁المفعول": 1146,
      "▁الشي": 1147,
      "ذب": 1148,
      "▁واس": 1149,
      "زع": 1150,
      "ون،": 1151,
      "▁النس": 1152,
      "▁كانه": 1153,
      "▁تم": 1154,
      "▁ويقال": 1155,
      "▁رايت": 1156,
      "حدث": 1157,
      "ارب": 1158,
      "ذو": 1159,
      "▁بـ": 1160,
      "▁بفتح": 1161,
      "▁سنة": 1162,
      "طو": 1163,
      "▁الحرف": 1164,
      "رار": 1165,
      "▁(ان": 1166,
      "▁والله": 1167,
      "▁احدهما": 1168,
      "▁بج": 1169,
      "▁المبتدا": 1170,
      "▁سي": 1171,
      "▁وكل": 1172,
      "جت": 1173,
      "▁الرج": 1174,
      "خص": 1175,
      "):\n": 1176,
      "▁وضع": 1177,
      "▁فاما": 1178,
      "وء": 1179,
      "▁اغ": 1180,
      "▁السا": 1181,
      "▁اشت": 1182,
      "الت": 1183,
      "▁شع": 1184,
      "▁قص": 1185,
      "▁جملة": 1186,
      "▁الشرط": 1187,
      "▁لع": 1188,
      "▁القول": 1189,
      "▁\"ان": 1190,
      "ف،": 1191,
      "ن،": 1192,
      "▁الاح": 1193,
      "س،": 1194,
      "رز": 1195,
      "▁فار": 1196,
      "لو": 1197,
      "▁والد": 1198,
      "▁مكان": 1199,
      "▁والف": 1200,
      "هة": 1201,
      "عيد": 1202,
      "▁والب": 1203,
      "▁فهي": 1204,
      "▁وط": 1205,
      "نين": 1206,
      "▁السكون": 1207,
      "ميم": 1208,
      "▁يص": 1209,
      "▁وير": 1210,
      "▁(٥": 1211,
      "▁جاز": 1212,
      "▁يدل": 1213,
      "▁المضاف": 1214,
      "▁شرح": 1215,
      "عمال": 1216,
      "قيقة": 1217,
      "رائ": 1218,
      "▁زي": 1219,
      "▁بيت": 1220,
      "تا": 1221,
      "▁الطويل": 1222,
      "قاء": 1223,
      "▁الحسن": 1224,
      "▁نفسه": 1225,
      "يش": 1226,
      "▁الفاء": 1227,
      "▁الشاعر:\n": 1228,
      "هور": 1229,
      "▁سمي": 1230,
      "كب": 1231,
      "رجع": 1232,
      "▁خير": 1233,
      "داد": 1234,
      "ضمر": 1235,
      "▁سمع": 1236,
      "▁عرف": 1237,
      "▁لنا": 1238,
      "سل": 1239,
      "▁جل": 1240,
      "▁وصف": 1241,
      "نه": 1242,
      "سه": 1243,
      "▁اخذ": 1244,
      "▁ور": 1245,
      "الب": 1246,
      "▁عليه،": 1247,
      "ين:": 1248,
      "▁الافعال": 1249,
      "▁قيل:": 1250,
      "▁لغ": 1251,
      "عه": 1252,
      "▁فر": 1253,
      "▁ــ": 1254,
      "▁تف": 1255,
      "▁ابا": 1256,
      "كثر": 1257,
      "طق": 1258,
      "▁النصب": 1259,
      "▁الشع": 1260,
      "رابي": 1261,
      "▁بذلك": 1262,
      "▁بالن": 1263,
      "▁بالض": 1264,
      "▁الدين": 1265,
      "▁ذلك،": 1266,
      "وكيد": 1267,
      "▁تحت": 1268,
      "▁مل": 1269,
      "▁ورد": 1270,
      "▁تر": 1271,
      "جاج": 1272,
      "▁الانسان": 1273,
      "▁شيئا": 1274,
      "▁الثالث": 1275,
      "▁فلي": 1276,
      "▁بعدها": 1277,
      "▁بمنزلة": 1278,
      "كرم": 1279,
      "▁مخت": 1280,
      "دق": 1281,
      "▁ذكره": 1282,
      "عدي": 1283,
      "▁منهم": 1284,
      "اهد": 1285,
      "▁كيف": 1286,
      "▁تست": 1287,
      "لاق": 1288,
      "جع": 1289,
      "▁نعم": 1290,
      "▁بس": 1291,
      "▁قر": 1292,
      "قتضي": 1293,
      "راك": 1294,
      "▁خال": 1295,
      "يام": 1296,
      "▁بنا": 1297,
      "وها": 1298,
      "▁الواحد": 1299,
      "▁ماض": 1300,
      "هما،": 1301,
      "ضح": 1302,
      "▁(م": 1303,
      "▁حينئذ": 1304,
      "ظيم": 1305,
      "▁خل": 1306,
      "▁١٠": 1307,
      "▁دي": 1308,
      "▁ار": 1309,
      "▁موا": 1310,
      "▁الكس": 1311,
      "▁الكلمة": 1312,
      "▁حم": 1313,
      "▁مضارع": 1314,
      "▁قولك:": 1315,
      "روي": 1316,
      "▁كم": 1317,
      "ريم": 1318,
      "بية": 1319,
      "▁لح": 1320,
      "ولة": 1321,
      "▁وكذا": 1322,
      "▁تك": 1323,
      "▁الرفع": 1324,
      "▁دل": 1325,
      "▁ذو": 1326,
      "فاء": 1327,
      "▁يحت": 1328,
      "▁فوق": 1329,
      "فهام": 1330,
      "▁عا": 1331,
      "▁واع": 1332,
      "وبا": 1333,
      "▁فس": 1334,
      "▁قولهم:": 1335,
      ")؛": 1336,
      "▁لق": 1337,
      "ارض": 1338,
      "طة": 1339,
      "▁اتي": 1340,
      "▁تل": 1341,
      "▁احسن": 1342,
      "انه": 1343,
      "▁وقع": 1344,
      "▁الحكم": 1345,
      "▁وقوله": 1346,
      "▁البص": 1347,
      "▁يغ": 1348,
      "▁المق": 1349,
      "▁جميع": 1350,
      "▁الجر": 1351,
      "▁التاء": 1352,
      "▁اليوم": 1353,
      "▁((": 1354,
      "▁اعلم": 1355,
      "▁شبه": 1356,
      "▁محذوف": 1357,
      "تمع": 1358,
      "▁وهم": 1359,
      "▁وله": 1360,
      "ات،": 1361,
      "▁غيره": 1362,
      "▁النبي": 1363,
      "نيا": 1364,
      "▁فم": 1365,
      "▁كـ": 1366,
      "▁كلمة": 1367,
      "▁مطل": 1368,
      "▁بعضهم": 1369,
      "▁١٩": 1370,
      "▁بكر": 1371,
      "▁كس": 1372,
      "ته،": 1373,
      "▁مذهب": 1374,
      "▁المراد": 1375,
      "▁ذي": 1376,
      "عام": 1377,
      "▁واق": 1378,
      "ري:": 1379,
      "فضل": 1380,
      "▁نف": 1381,
      "ور،": 1382,
      "▁عق": 1383,
      "كذا": 1384,
      "▁ذهب": 1385,
      "يدة": 1386,
      "▁ويجوز": 1387,
      "كة": 1388,
      "▁قالوا:": 1389,
      "هار": 1390,
      "▁منا": 1391,
      "رام": 1392,
      "▁الساب": 1393,
      "▁وانت": 1394,
      "اض": 1395,
      "دا،": 1396,
      "▁المفرد": 1397,
      "ابت": 1398,
      "▁انهم": 1399,
      "▁فيه،": 1400,
      "▁صف": 1401,
      "▁(٢)": 1402,
      "ياة": 1403,
      "▁المنا": 1404,
      "▁البا": 1405,
      "ية.": 1406,
      "▁انتهي": 1407,
      "▁العد": 1408,
      "▁الرو": 1409,
      "▁نق": 1410,
      "▁يز": 1411,
      "قلب": 1412,
      "▁بغير": 1413,
      "▁دار": 1414,
      "فصل": 1415,
      "▁الوجه": 1416,
      "▁لمن": 1417,
      "▁لام": 1418,
      "▁از": 1419,
      "نا،": 1420,
      "برا": 1421,
      "امر": 1422,
      "باء": 1423,
      "شرة": 1424,
      "▁الملك": 1425,
      "▁رسول": 1426,
      "وجود": 1427,
      "جه": 1428,
      "▁حروف": 1429,
      "▁ومجرور": 1430,
      "غا": 1431,
      "▁فصل": 1432,
      "▁اعراب": 1433,
      "▁التص": 1434,
      "راق": 1435,
      "▁معنا": 1436,
      "▁مالك": 1437,
      "لات": 1438,
      "▁يصح": 1439,
      "▁بص": 1440,
      "▁ير": 1441,
      "▁ــ\n": 1442,
      "▁١١": 1443,
      "خرج": 1444,
      "▁يذكر": 1445,
      "▁جز": 1446,
      "▁دع": 1447,
      "▁ظرف": 1448,
      "▁الحق": 1449,
      "ثي": 1450,
      "ريخ": 1451,
      "▁قط": 1452,
      "ين.\n": 1453,
      "تص": 1454,
      "غل": 1455,
      "▁جواب": 1456,
      "▁المذك": 1457,
      "▁وعلامة": 1458,
      "▁احمد": 1459,
      "ماعة": 1460,
      "▁واو": 1461,
      "▁الليل": 1462,
      "▁حس": 1463,
      "زه": 1464,
      "]:": 1465,
      "▁يقع": 1466,
      "عض": 1467,
      "ار،": 1468,
      "▁وام": 1469,
      "▁عث": 1470,
      "ابة": 1471,
      "بح": 1472,
      "▁حق": 1473,
      "▁وحد": 1474,
      "▁التانيث": 1475,
      "▁معا": 1476,
      "غم": 1477,
      "▁والثاني": 1478,
      "جمع": 1479,
      "▁وقيل": 1480,
      "نية": 1481,
      "علي": 1482,
      "))": 1483,
      "▁اولي": 1484,
      "▁حب": 1485,
      "▁خاص": 1486,
      "▁العربية": 1487,
      "▁الجز": 1488,
      "لائ": 1489,
      "تك": 1490,
      "موع": 1491,
      "▁بكسر": 1492,
      "▁ليست": 1493,
      "▁يمكن": 1494,
      "▁١٣": 1495,
      "▁وين": 1496,
      "نا:": 1497,
      "مول": 1498,
      "سند": 1499,
      "▁الكاف": 1500,
      "▁منهما": 1501,
      "▁باع": 1502,
      "غر": 1503,
      "▁[من": 1504,
      "▁كتب": 1505,
      "▁واش": 1506,
      "▁كلا": 1507,
      "▁البلا": 1508,
      "▁الحروف": 1509,
      "اعة": 1510,
      "▁قبلها": 1511,
      "قوله:": 1512,
      "بق": 1513,
      "▁مقد": 1514,
      "▁عطف": 1515,
      "▁اسما": 1516,
      "ذفت": 1517,
      "▁القسم": 1518,
      "▁شرط": 1519,
      "وجد": 1520,
      "▁له،": 1521,
      "▁يعرف": 1522,
      "▁افعل": 1523,
      "نان": 1524,
      "▁بينهما": 1525,
      "▁\"م": 1526,
      "▁معناه": 1527,
      "▁بدل": 1528,
      "▁واللام": 1529,
      "▁١٢": 1530,
      "لس": 1531,
      "▁سواء": 1532,
      "▁الشيخ": 1533,
      "يه": 1534,
      "ضاء": 1535,
      "▁البر": 1536,
      "▁روا": 1537,
      "▁فقلت": 1538,
      "▁مثل:": 1539,
      "ثله": 1540,
      "▁وجعل": 1541,
      "▁الاف": 1542,
      "▁ياتي": 1543,
      "▁اسماء": 1544,
      "▁القص": 1545,
      "▁...\n": 1546,
      "▁ورب": 1547,
      "▁وذكر": 1548,
      "فيف": 1549,
      "طوف": 1550,
      "▁الهاء": 1551,
      "دع": 1552,
      "▁العامل": 1553,
      "▁الماضي": 1554,
      "▁عبيد": 1555,
      "▁عليهم": 1556,
      "راف": 1557,
      "▁نع": 1558,
      "▁بالع": 1559,
      "اته": 1560,
      "▁تز": 1561,
      "فرق": 1562,
      "بيع": 1563,
      "!\n": 1564,
      "▁حا": 1565,
      "▁الثانية": 1566,
      "▁وزن": 1567,
      "▁خلاف": 1568,
      "▁مثال": 1569,
      "▁وابن": 1570,
      "▁الابل": 1571,
      "▁فاع": 1572,
      "▁بهذا": 1573,
      "ضوع": 1574,
      "م\n": 1575,
      "▁طل": 1576,
      "▁اليها": 1577,
      "▁احت": 1578,
      "▁له:": 1579,
      "منع": 1580,
      "ل،": 1581,
      "ا\n": 1582,
      "ذين": 1583,
      "▁خرج": 1584,
      "طلب": 1585,
      "▁اخري": 1586,
      "▁وقال:": 1587,
      "▁الفراء": 1588,
      "قطع": 1589,
      "▁ورا": 1590,
      "▁هـ": 1591,
      "▁رجلا": 1592,
      "ائي": 1593,
      "ين.": 1594,
      "▁واج": 1595,
      "▁(٦": 1596,
      "▁القا": 1597,
      "▁(ف": 1598,
      "▁وجمع": 1599,
      "▁زيد،": 1600,
      "ونه": 1601,
      "▁يجب": 1602,
      "▁النفس": 1603,
      "▁ذات": 1604,
      "ح:": 1605,
      "▁مقام": 1606,
      "ضب": 1607,
      "▁الصفة": 1608,
      "ورا": 1609,
      "▁الفت": 1610,
      "▁والجمع": 1611,
      "▁يعني:": 1612,
      "▁قبله": 1613,
      "ضة": 1614,
      "▁اللي": 1615,
      "▁مررت": 1616,
      "▁١٤": 1617,
      "اطب": 1618,
      "باع": 1619,
      "▁يجعل": 1620,
      "ابه": 1621,
      "▁وجد": 1622,
      "وجب": 1623,
      "ثلة": 1624,
      "▁عي": 1625,
      "▁ولذلك": 1626,
      "ناس": 1627,
      "ثبت": 1628,
      "▁الاصمع": 1629,
      "▁اليه،": 1630,
      "▁واص": 1631,
      "▁الساكن": 1632,
      "▁الفصل": 1633,
      "▁لله": 1634,
      "قبل": 1635,
      "زن": 1636,
      "وقف": 1637,
      "▁اصله": 1638,
      "▁وعد": 1639,
      "▁وهذه": 1640,
      "▁حمل": 1641,
      "▁القران": 1642,
      "▁بط": 1643,
      "▁فيكون": 1644,
      "▁تب": 1645,
      "اهرة": 1646,
      "رورة": 1647,
      "▁عنها": 1648,
      "سام": 1649,
      "ياء": 1650,
      "▁حل": 1651,
      "وط": 1652,
      "▁يفعل": 1653,
      "▁بخلاف": 1654,
      "راج": 1655,
      "▁ارت": 1656,
      "فسير": 1657,
      "▁قال:\n": 1658,
      "▁در": 1659,
      "▁واي": 1660,
      "وبة": 1661,
      "▁المتكلم": 1662,
      "فص": 1663,
      "▁لقد": 1664,
      "▁والغ": 1665,
      "▁صح": 1666,
      "▁ساكن": 1667,
      "دم": 1668,
      "ظن": 1669,
      "▁عليك": 1670,
      "▁اخره": 1671,
      "▁الدار": 1672,
      "خي": 1673,
      "▁بعده": 1674,
      "س:": 1675,
      "▁التق": 1676,
      "▁عثمان": 1677,
      "▁الاسلام": 1678,
      "زوم": 1679,
      "يل،": 1680,
      "▁عدم": 1681,
      "▁اولا": 1682,
      "▁ملك": 1683,
      "ب:": 1684,
      "▁كله": 1685,
      "▁\"و": 1686,
      "▁يرد": 1687,
      "▁خط": 1688,
      "▁بالكسر": 1689,
      "▁(ما": 1690,
      "▁القياس": 1691,
      "عار": 1692,
      "▁اقت": 1693,
      "راض": 1694,
      "تهم": 1695,
      "▁علامة": 1696,
      "▁التش": 1697,
      "▁خلا": 1698,
      "يات": 1699,
      "الك": 1700,
      "▁الاج": 1701,
      "انة": 1702,
      "اق": 1703,
      "ركب": 1704,
      "▁امت": 1705,
      "▁نفي": 1706,
      "▁معه": 1707,
      "▁ابت": 1708,
      "▁بضم": 1709,
      "ادر": 1710,
      "▁منه،": 1711,
      "فش": 1712,
      "▁الظرف": 1713,
      "▁وصل": 1714,
      "▁الميم": 1715,
      "مائ": 1716,
      "▁حدث": 1717,
      "▁منك": 1718,
      "▁الشمس": 1719,
      "يني": 1720,
      "▁وفيه": 1721,
      "▁الكوفي": 1722,
      "ونا": 1723,
      "▁التن": 1724,
      "▁الاعرابي": 1725,
      "▁قالوا": 1726,
      "صدر": 1727,
      "▁يه": 1728,
      "▁واد": 1729,
      "▁التا": 1730,
      "▁خمس": 1731,
      "داة": 1732,
      "▁واحدة": 1733,
      "ية:": 1734,
      "▁سبق": 1735,
      "▁(ت": 1736,
      "▁(٣)": 1737,
      "▁والذي": 1738,
      "▁فتح": 1739,
      "لاة": 1740,
      "▁منع": 1741,
      "▁فهذا": 1742,
      "▁كقوله": 1743,
      "▁قلب": 1744,
      "▁قري": 1745,
      "▁وبعد": 1746,
      "اء:": 1747,
      "الح": 1748,
      "تبار": 1749,
      "▁يعلم": 1750,
      "تان": 1751,
      "▁خلق": 1752,
      "▁مط": 1753,
      "ية.\n": 1754,
      "▁رد": 1755,
      "مييز": 1756,
      "▁ففي": 1757,
      "▁البصري": 1758,
      "▁فيهما": 1759,
      "▁عما": 1760,
      "▁ضع": 1761,
      "▁ارد": 1762,
      "وذ": 1763,
      "▁قصد": 1764,
      "▁والان": 1765,
      "▁حاج": 1766,
      "دائ": 1767,
      "ضمير": 1768,
      "بلغ": 1769,
      "▁المضارع": 1770,
      "▁الاب": 1771,
      "▁نوع": 1772,
      "▁بالضمة": 1773,
      "صوص": 1774,
      "نوين": 1775,
      "ختلف": 1776,
      "▁مثله": 1777,
      "ط،": 1778,
      "▁اشبه": 1779,
      "ب\n": 1780,
      "▁\"ما": 1781,
      "▁يعت": 1782,
      "وار": 1783,
      "وله": 1784,
      "▁وعن": 1785,
      "▁الدنيا": 1786,
      "▁اصحاب": 1787,
      "▁قليل": 1788,
      "▁وو": 1789,
      "▁يلزم": 1790,
      "▁همزة": 1791,
      "عن": 1792,
      "▁انشد": 1793,
      "را\n": 1794,
      "▁وبال": 1795,
      "▁جري": 1796,
      "▁قاله": 1797,
      "▁التقدير": 1798,
      "▁فلو": 1799,
      "▁ومثله": 1800,
      "▁صوت": 1801,
      "▁بالش": 1802,
      "▁ذاك": 1803,
      "▁الزمان": 1804,
      "▁رح": 1805,
      "صبح": 1806,
      "▁بالفعل": 1807,
      "▁كثيرا": 1808,
      "▁مطلقا": 1809,
      "▁الموضع": 1810,
      "واع": 1811,
      "▁كت": 1812,
      "▁الرح": 1813,
      "صلح": 1814,
      "▁ايا": 1815,
      "▁كانوا": 1816,
      "▁العطف": 1817,
      "▁النفي": 1818,
      "حث": 1819,
      "▁شعر": 1820,
      "▁الضم": 1821,
      "يدا": 1822,
      "▁قوله:\n": 1823,
      "▁\"من": 1824,
      "▁يعمل": 1825,
      "▁(من": 1826,
      "▁فعلي": 1827,
      "▁بناء": 1828,
      "▁زائدة": 1829,
      "▁شديد": 1830,
      "نون": 1831,
      "ت:": 1832,
      "▁ومر": 1833,
      "▁لسان": 1834,
      "▁ماء": 1835,
      "ذل": 1836,
      "▁الجمل": 1837,
      "▁١٥": 1838,
      "د\n": 1839,
      "▁المعاني": 1840,
      "▁والمع": 1841,
      "▁المر": 1842,
      "▁(ج": 1843,
      "فاظ": 1844,
      "ئب": 1845,
      "▁مك": 1846,
      "▁ولما": 1847,
      "▁بر": 1848,
      "▁وتع": 1849,
      "▁مجري": 1850,
      "▁الباء": 1851,
      "▁مصر": 1852,
      "▁عنده": 1853,
      "▁الدهر": 1854,
      "▁العمل": 1855,
      "بعض": 1856,
      "راءة": 1857,
      "▁سبيل": 1858,
      "▁مفت": 1859,
      "▁-\n": 1860,
      "ومة": 1861,
      "▁تغ": 1862,
      "▁معرفة": 1863,
      "▁المومن": 1864,
      "▁فتقول:": 1865,
      "وما": 1866,
      "▁لج": 1867,
      "▁فض": 1868,
      "يع": 1869,
      "▁المقص": 1870,
      "▁بالفتح": 1871,
      "▁النحوي": 1872,
      "▁صد": 1873,
      "وني": 1874,
      "▁وظ": 1875,
      "ز،": 1876,
      "▁السماء": 1877,
      "ته.\n": 1878,
      "▁العرو": 1879,
      "رن": 1880,
      "▁الله،": 1881,
      "▁الصف": 1882,
      "ثرة": 1883,
      "وا،": 1884,
      "▁اية": 1885,
      "م:": 1886,
      "فتحة": 1887,
      "▁ويكون": 1888,
      "▁سعيد": 1889,
      "▁وانه": 1890,
      "ني،": 1891,
      "ثنية": 1892,
      "▁(ب": 1893,
      "▁الموصول": 1894,
      "▁يلي": 1895,
      "▁شاء": 1896,
      "▁مفع": 1897,
      "▁الصرف": 1898,
      "▁لكم": 1899,
      "▁يري": 1900,
      "▁ويت": 1901,
      "▁المل": 1902,
      "▁السب": 1903,
      "▁١٨": 1904,
      "▁يخرج": 1905,
      "▁وجملة": 1906,
      "شرح": 1907,
      "▁يط": 1908,
      "▁صلة": 1909,
      "ريا": 1910,
      "راهيم": 1911,
      "▁للح": 1912,
      "▁والجملة": 1913,
      "ام،": 1914,
      "ضمن": 1915,
      "▁بالواو": 1916,
      "▁شك": 1917,
      "▁(ل": 1918,
      "بغي": 1919,
      "▁مرت": 1920,
      "▁كقولك:": 1921,
      "▁وات": 1922,
      "مكن": 1923,
      "شف": 1924,
      "بدل": 1925,
      "▁تقديره": 1926,
      "قيم": 1927,
      "لوب": 1928,
      "▁اثر": 1929,
      "▁وجود": 1930,
      "▁الكل": 1931,
      "يدي": 1932,
      "▁مرا": 1933,
      "اية": 1934,
      "▁بالس": 1935,
      "ته.": 1936,
      "▁الحي": 1937,
      "▁القلب": 1938,
      "▁الموت": 1939,
      "▁جهة": 1940,
      "بها": 1941,
      "▁واسم": 1942,
      "▁ممن": 1943,
      "▁قولهم": 1944,
      "ثناء": 1945,
      "ان.\n": 1946,
      "▁بلغ": 1947,
      "▁قائم": 1948,
      "ما\n": 1949,
      "▁ظهر": 1950,
      "▁بهم": 1951,
      "▁ولد": 1952,
      "▁ست": 1953,
      "وهم": 1954,
      "بارة": 1955,
      "فار": 1956,
      "▁دخل": 1957,
      "ليم": 1958,
      "▁(ح": 1959,
      "▁المراة": 1960,
      "ان\n": 1961,
      "ختص": 1962,
      "▁الحس": 1963,
      "دي،": 1964,
      "▁وهما": 1965,
      "▁لش": 1966,
      "▁كلها": 1967,
      "▁لس": 1968,
      "▁بغ": 1969,
      "▁قلي": 1970,
      "▁اربعة": 1971,
      "▁مستتر": 1972,
      "▁ديوان": 1973,
      "▁نقول:": 1974,
      "▁صي": 1975,
      "با،": 1976,
      "افة": 1977,
      "▁مشت": 1978,
      "▁والل": 1979,
      "ول،": 1980,
      "قم": 1981,
      "▁كونه": 1982,
      "ولف": 1983,
      "خير": 1984,
      "▁ومما": 1985,
      "باد": 1986,
      "وي،": 1987,
      "▁تكن": 1988,
      "▁يجمع": 1989,
      "▁يدخل": 1990,
      "▁نز": 1991,
      "▁واب": 1992,
      "▁لذلك": 1993,
      "▁ومثل": 1994,
      "▁اذن": 1995,
      "▁كا": 1996,
      "▁(قوله:": 1997,
      "صلة": 1998,
      "يد،": 1999,
      "▁راس": 2000,
      "▁فليس": 2001,
      "▁فص": 2002,
      "▁مفرد": 2003,
      "طيع": 2004,
      "▁احدا": 2005,
      "▁فقط": 2006,
      "▁لب": 2007,
      "▁الاث": 2008,
      "▁تدخل": 2009,
      "ق:": 2010,
      "▁الناظم": 2011,
      "▁وض": 2012,
      "▁الابت": 2013,
      "خا": 2014,
      "▁ايضا:": 2015,
      "▁روي": 2016,
      "▁التح": 2017,
      "▁شئت": 2018,
      "بيب": 2019,
      "ود،": 2020,
      "هنا": 2021,
      "▁حك": 2022,
      "▁والواو": 2023,
      "▁ويقول": 2024,
      "▁جميعا": 2025,
      "نبي": 2026,
      "واه": 2027,
      "▁الفعل،": 2028,
      "▁النوع": 2029,
      "▁قسم": 2030,
      "قيت": 2031,
      "▁الاضافة": 2032,
      "▁ونا": 2033,
      "▁و-": 2034,
      "▁جد": 2035,
      "▁(ع": 2036,
      "▁قدم": 2037,
      "▁المال": 2038,
      "▁بالق": 2039,
      "▁سن": 2040,
      "▁واحد،": 2041,
      "▁والط": 2042,
      "▁ظاهر": 2043,
      "▁الحذف": 2044,
      "▁الاي": 2045,
      "▁الاستفهام": 2046,
      "▁(س": 2047,
      "▁خص": 2048,
      "▁الخليل": 2049,
      "ارج": 2050,
      "▁:\n": 2051,
      "▁مني": 2052,
      "راع": 2053,
      "▁بالج": 2054,
      "رة:": 2055,
      "ق\n": 2056,
      "▁للع": 2057,
      "▁الات": 2058,
      "▁(ك": 2059,
      "▁عندي": 2060,
      "▁نحن": 2061,
      "▁وبعض": 2062,
      "▁طرف": 2063,
      "▁الموا": 2064,
      "▁وجب": 2065,
      "ميع": 2066,
      "▁لابن": 2067,
      "▁١٦": 2068,
      "▁الروا": 2069,
      "▁العق": 2070,
      "▁زيادة": 2071,
      "▁اللا": 2072,
      "▁سم": 2073,
      "▁فصار": 2074,
      "▁الثاني:": 2075,
      "▁متي": 2076,
      "▁الظاهر": 2077,
      "▁الرب": 2078,
      "▁طريق": 2079,
      "▁يسمي": 2080,
      "▁بانه": 2081,
      "▁اللسان": 2082,
      "▁وكانت": 2083,
      "▁١)": 2084,
      "جاب": 2085,
      "▁مجرور": 2086,
      "▁قدر": 2087,
      "لد": 2088,
      "▁لئ": 2089,
      "فاع": 2090,
      "حه": 2091,
      "▁مه": 2092,
      "▁جع": 2093,
      "▁يزيد": 2094,
      "▁\"،": 2095,
      "▁جائ": 2096,
      "▁اخبر": 2097,
      "▁سوي": 2098,
      "▁مثلا": 2099,
      "وين": 2100,
      "▁العام": 2101,
      "▁النحا": 2102,
      "لي،": 2103,
      "لال": 2104,
      "▁كسر": 2105,
      "▁لكان": 2106,
      "بيعة": 2107,
      "ان.": 2108,
      "فية": 2109,
      "▁امن": 2110,
      "]،": 2111,
      "▁قت": 2112,
      "▁فهم": 2113,
      "▁المذكور": 2114,
      "ابل": 2115,
      "▁الحد": 2116,
      "▁(لا": 2117,
      "▁١٧": 2118,
      "▁يوما": 2119,
      "عير": 2120,
      "▁دخول": 2121,
      "▁الصح": 2122,
      "▁الحياة": 2123,
      "اي": 2124,
      "▁ومعني": 2125,
      "▁الاق": 2126,
      "▁فاست": 2127,
      "▁للتع": 2128,
      "ث:": 2129,
      "▁حر": 2130,
      "▁حركة": 2131,
      "انب": 2132,
      "▁الجا": 2133,
      "رب،": 2134,
      "شة": 2135,
      "▁عني": 2136,
      "سيط": 2137,
      "▁لد": 2138,
      "▁يجز": 2139,
      "▁يدي": 2140,
      "▁ظن": 2141,
      "كام": 2142,
      "▁والمعني": 2143,
      "▁اين": 2144,
      "▁والفاعل": 2145,
      "▁مرة": 2146,
      "▁العباس": 2147,
      "▁صدر": 2148,
      "▁ينت": 2149,
      "▁تقديم": 2150,
      "▁نسبة": 2151,
      "برد": 2152,
      "▁و\"ال": 2153,
      "سع": 2154,
      "شق": 2155,
      "▁مغ": 2156,
      "\"؛": 2157,
      "▁ارض": 2158,
      "▁(١)\n": 2159,
      "▁الجواب": 2160,
      "▁عاد": 2161,
      "▁عرض": 2162,
      "▁امراة": 2163,
      "▁العالم": 2164,
      "ظي": 2165,
      "▁يشت": 2166,
      "▁(و)": 2167,
      "لالة": 2168,
      "▁حول": 2169,
      "▁والنون": 2170,
      "▁نج": 2171,
      "▁اجل": 2172,
      "وزن": 2173,
      "ثة": 2174,
      "عدة": 2175,
      "▁وعم": 2176,
      "بيت": 2177,
      "▁نون": 2178,
      "▁مقص": 2179,
      "حاق": 2180,
      "شرط": 2181,
      "▁\"ت": 2182,
      "▁(٧": 2183,
      "▁نظر": 2184,
      "▁مض": 2185,
      "▁بنفس": 2186,
      "▁لكل": 2187,
      "▁الجوه": 2188,
      "حرك": 2189,
      "▁ابراهيم": 2190,
      "ناع": 2191,
      "▁حذفت": 2192,
      "▁تط": 2193,
      "ناد": 2194,
      "▁عط": 2195,
      "▁\"لا": 2196,
      "▁بقوله:": 2197,
      "▁[س": 2198,
      "▁ويروي": 2199,
      "▁غلام": 2200,
      "ضيف": 2201,
      "▁الاية": 2202,
      "▁فالا": 2203,
      "▁جواز": 2204,
      "ه؛": 2205,
      "▁حرك": 2206,
      "................": 2207,
      "▁الادب": 2208,
      "▁النار": 2209,
      "بري": 2210,
      "▁يخل": 2211,
      "▁زمان": 2212,
      "▁مب": 2213,
      "▁بث": 2214,
      "ذن": 2215,
      "▁مونث": 2216,
      "كره": 2217,
      "▁التعريف": 2218,
      "▁عج": 2219,
      "\"\n": 2220,
      "ودا": 2221,
      "▁وانا": 2222,
      "▁\"ل": 2223,
      "▁يقوم": 2224,
      "▁الوصف": 2225,
      "ودة": 2226,
      "▁بالضم": 2227,
      "▁وسي": 2228,
      "▁اهم": 2229,
      "▁والاست": 2230,
      "صور": 2231,
      "صوف": 2232,
      "▁بها،": 2233,
      "▁خلف": 2234,
      "▁ولكنه": 2235,
      "▁استعمال": 2236,
      "▁للك": 2237,
      "ارك": 2238,
      "▁لفظا": 2239,
      "▁بالفتحة": 2240,
      "▁قولك": 2241,
      "▁ويد": 2242,
      "▁بمعني:": 2243,
      "▁وفعل": 2244,
      "▁يعد": 2245,
      "فها": 2246,
      "▁الرس": 2247,
      "▁مضي": 2248,
      "غام": 2249,
      "▁\".\n": 2250,
      "▁الحا": 2251,
      "▁والالف": 2252,
      "▁الفتحة": 2253,
      "▁(٤)": 2254,
      "ض،": 2255,
      "حوال": 2256,
      "▁وعند": 2257,
      "ثا": 2258,
      "راس": 2259,
      "▁بيان": 2260,
      "▁والاصل": 2261,
      "نائ": 2262,
      "باح": 2263,
      "قاق": 2264,
      "ناية": 2265,
      "▁وقت": 2266,
      "▁البناء": 2267,
      "سبب": 2268,
      "▁والياء": 2269,
      "▁الاخفش": 2270,
      "▁المقد": 2271,
      "ناف": 2272,
      "▁قا": 2273,
      "▁الثلاثة": 2274,
      "▁الاعت": 2275,
      "▁المجاز": 2276,
      "▁طلب": 2277,
      "هم.": 2278,
      "▁٢)": 2279,
      "▁عشرة": 2280,
      "وام": 2281,
      "▁الفرس": 2282,
      "▁يحي": 2283,
      "▁ايها": 2284,
      "مرة": 2285,
      "▁الراء": 2286,
      "ه)": 2287,
      "▁ينبغي": 2288,
      "▁نقل": 2289,
      "▁مز": 2290,
      "وغ": 2291,
      "▁نعت": 2292,
      "▁سر": 2293,
      "قتل": 2294,
      "▁السم": 2295,
      "لا\n": 2296,
      "▁نش": 2297,
      "▁باسم": 2298,
      "▁اليك": 2299,
      "▁وربما": 2300,
      "واحد": 2301,
      "▁ايضا،": 2302,
      "ين\n": 2303,
      "▁لغير": 2304,
      "▁تاء": 2305,
      "▁الخط": 2306,
      "▁للن": 2307,
      "قام": 2308,
      "▁امرا": 2309,
      "▁جني": 2310,
      "▁الحاج": 2311,
      "▁ايام": 2312,
      "▁اري": 2313,
      "متنع": 2314,
      "▁لانك": 2315,
      "▁هناك": 2316,
      "▁\"ك": 2317,
      "▁سيد": 2318,
      "▁موصول": 2319,
      "ربة": 2320,
      "▁لعل": 2321,
      "▁بالك": 2322,
      "ابع": 2323,
      "ائب": 2324,
      "▁فانها": 2325,
      "اة": 2326,
      "▁الكسرة": 2327,
      "▁القي": 2328,
      "▁المكان": 2329,
      "▁جنس": 2330,
      "▁الرجال": 2331,
      "▁دخلت": 2332,
      "▁اظ": 2333,
      "حب": 2334,
      "▁تمام": 2335,
      "▁المشبه": 2336,
      "▁التنوين": 2337,
      "▁قطع": 2338,
      "▁المحذوف": 2339,
      "▁هولاء": 2340,
      "فاق": 2341,
      "▁تنا": 2342,
      "وضع": 2343,
      "▁وجاء": 2344,
      "ورد": 2345,
      "▁يضرب": 2346,
      "▁موسي": 2347,
      "▁ثاني": 2348,
      "▁هكذا": 2349,
      "▁الفار": 2350,
      "▁ري": 2351,
      "▁المثل": 2352,
      "▁دائ": 2353,
      "▁مصد": 2354,
      "▁المذكر": 2355,
      "▁الكثير": 2356,
      "ريك": 2357,
      "▁المغ": 2358,
      "▁معل": 2359,
      "كار": 2360,
      "▁شر": 2361,
      "▁(وال": 2362,
      "▁دليل": 2363,
      "هات": 2364,
      "▁الزي": 2365,
      "بوت": 2366,
      "▁الاول،": 2367,
      "عال": 2368,
      "▁وبه": 2369,
      "▁[سورة": 2370,
      "▁\"ف": 2371,
      "هم.\n": 2372,
      "▁طال": 2373,
      "صة": 2374,
      "▁تقع": 2375,
      "حيث": 2376,
      "▁العا": 2377,
      "▁فات": 2378,
      "▁دين": 2379,
      "▁(ه": 2380,
      "▁به.": 2381,
      "افر": 2382,
      "▁تريد": 2383,
      "▁علا": 2384,
      "▁امير": 2385,
      "▁الرابع": 2386,
      "▁نوا": 2387,
      "▁الترك": 2388,
      "▁الجنس": 2389,
      "ولد": 2390,
      "▁ته": 2391,
      "▁بالالف": 2392,
      "▁المثال": 2393,
      "▁يعود": 2394,
      "ع:": 2395,
      "▁[م": 2396,
      "▁ومنها": 2397,
      "يره": 2398,
      "▁للش": 2399,
      "▁زاد": 2400,
      "▁\"ي": 2401,
      "▁٢٠": 2402,
      "صاح": 2403,
      "رسل": 2404,
      "].\n": 2405,
      "▁الحر": 2406,
      "▁خبرا": 2407,
      "سك": 2408,
      "▁ليت": 2409,
      "وم،": 2410,
      "▁السي": 2411,
      "▁به.\n": 2412,
      "جرة": 2413,
      "▁ورجل": 2414,
      "▁الصوت": 2415,
      "ديق": 2416,
      "▁سلم": 2417,
      "▁ذلك.\n": 2418,
      "▁المونث": 2419,
      "ضعف": 2420,
      "▁لابي": 2421,
      "حية": 2422,
      "▁القيس": 2423,
      "جعل": 2424,
      "▁الوج": 2425,
      "بر،": 2426,
      "زيز": 2427,
      "▁كن": 2428,
      "ث،": 2429,
      "▁جم": 2430,
      "▁اردت": 2431,
      "▁وهل": 2432,
      "▁قرا": 2433,
      "▁لدي": 2434,
      "▁قتل": 2435,
      "▁عنه،": 2436,
      "▁وذهب": 2437,
      "▁الاول:": 2438,
      "▁ذكرنا": 2439,
      "خة": 2440,
      "قاد": 2441,
      "وش": 2442,
      "▁فجعل": 2443,
      "▁والفعل": 2444,
      "▁\"ع": 2445,
      "فن": 2446,
      "▁ويع": 2447,
      "ج،": 2448,
      "▁اشد": 2449,
      "▁(ن": 2450,
      "بيان": 2451,
      "▁يقتضي": 2452,
      "▁والز": 2453,
      "▁رف": 2454,
      "▁للج": 2455,
      "صوب": 2456,
      "▁اعمال": 2457,
      "▁يحذف": 2458,
      "▁معطو": 2459,
      "▁الاز": 2460,
      "عارة": 2461,
      "▁ضربت": 2462,
      "دا\n": 2463,
      "▁يجري": 2464,
      "ائم": 2465,
      "▁الكسر": 2466,
      "▁الري": 2467,
      "هاب": 2468,
      "▁طويل": 2469,
      "▁المعني،": 2470,
      "▁يستعمل": 2471,
      "▁رم": 2472,
      "▁المهم": 2473,
      "▁ومثال": 2474,
      "فو": 2475,
      "▁صورة": 2476,
      "▁تدل": 2477,
      "▁جمل": 2478,
      "▁سال": 2479,
      "▁كي": 2480,
      "▁حسب": 2481,
      "▁بحرف": 2482,
      "▁بقي": 2483,
      "ميز": 2484,
      "▁هما": 2485,
      "▁وتن": 2486,
      "شية": 2487,
      "▁باس": 2488,
      "▁الرحمن": 2489,
      "ذيب": 2490,
      "▁الصحيح": 2491,
      "▁البحر": 2492,
      "▁عز": 2493,
      "از": 2494,
      "ختار": 2495,
      "▁وقوع": 2496,
      "▁المرا": 2497,
      "▁فالم": 2498,
      "▁والر": 2499,
      "▁وتقول:": 2500,
      "ونها": 2501,
      "▁٣)": 2502,
      "قق": 2503,
      "▁الالفاظ": 2504,
      "شديد": 2505,
      "▁يظهر": 2506,
      "▁\"ب": 2507,
      "▁بالخ": 2508,
      "▁تفسير": 2509,
      "▁ترج": 2510,
      "▁الحرب": 2511,
      "▁افت": 2512,
      "▁الكامل": 2513,
      "اتب": 2514,
      "▁المسالة": 2515,
      "▁الشار": 2516,
      "سد": 2517,
      "▁واعلم": 2518,
      "▁٢١": 2519,
      "▁شيخ": 2520,
      "▁ولقد": 2521,
      "▁اجت": 2522,
      "▁دريد": 2523,
      "▁لكون": 2524,
      "▁زعم": 2525,
      "▁واحدا": 2526,
      "▁ثعل": 2527,
      "▁لولا": 2528,
      "▁اشار": 2529,
      "▁جن": 2530,
      "▁الفع": 2531,
      "▁حج": 2532,
      "جمة": 2533,
      "ريع": 2534,
      "▁قيس": 2535,
      "روب": 2536,
      "▁ويا": 2537,
      "▁واله": 2538,
      "▁في:": 2539,
      "▁نكرة": 2540,
      "▁الوصل": 2541,
      "▁بالله": 2542,
      "▁معت": 2543,
      "▁الابتداء": 2544,
      "▁المعت": 2545,
      "شاء": 2546,
      "▁بالاضاف": 2547,
      "▁والصواب": 2548,
      "ثم": 2549,
      "▁بفعل": 2550,
      "▁بعضها": 2551,
      "▁ضم": 2552,
      "روع": 2553,
      "▁هذا،": 2554,
      "▁٢٢": 2555,
      "▁رك": 2556,
      "▁يصف": 2557,
      "▁ويح": 2558,
      "▁الارب": 2559,
      "نات": 2560,
      "▁خي": 2561,
      "▁الحركة": 2562,
      "▁(ان)": 2563,
      "▁الفر": 2564,
      "▁سلي": 2565,
      "▁سل": 2566,
      "▁ثبت": 2567,
      "▁نه": 2568,
      "▁اعط": 2569,
      "روج": 2570,
      "سط": 2571,
      "خم": 2572,
      "ف:": 2573,
      "ظل": 2574,
      "▁[١": 2575,
      "▁كثيرة": 2576,
      "▁افعال": 2577,
      "ح\n": 2578,
      "▁مضم": 2579,
      "▁الخلق": 2580,
      "▁مجاز": 2581,
      "ظة": 2582,
      "صير": 2583,
      "يا،": 2584,
      "▁كانها": 2585,
      "هير": 2586,
      "▁صرف": 2587,
      "▁فعلا": 2588,
      "▁عهد": 2589,
      "▁حقيقة": 2590,
      "▁الاشارة": 2591,
      "▁(ي": 2592,
      "▁كلامه": 2593,
      "▁مات": 2594,
      "▁بب": 2595,
      "بة:": 2596,
      "ربت": 2597,
      "▁بدلا": 2598,
      "عو": 2599,
      "▁العلماء": 2600,
      "▁الاشت": 2601,
      "▁٢٣": 2602,
      "▁وتح": 2603,
      "ميت": 2604,
      "▁جعلت": 2605,
      "▁مهم": 2606,
      "▁(١).\n": 2607,
      "▁بدا": 2608,
      "▁السك": 2609,
      "▁عامل": 2610,
      "▁فرا": 2611,
      "▁الحقيقة": 2612,
      "امس": 2613,
      "▁فيها،": 2614,
      "▁كلم": 2615,
      "شام": 2616,
      "▁نصبه": 2617,
      "▁الاط": 2618,
      "▁فب": 2619,
      "▁وحكي": 2620,
      "اتم": 2621,
      "▁مذ": 2622,
      "▁محم": 2623,
      "دين": 2624,
      "ليس": 2625,
      "▁جاءت": 2626,
      "▁الضرب": 2627,
      "-\n": 2628,
      "▁وجوبا": 2629,
      "اني،": 2630,
      "▁التوكيد": 2631,
      "▁وذا": 2632,
      "▁الكلم": 2633,
      "واز": 2634,
      "▁النساء": 2635,
      "▁النسب": 2636,
      "▁ملا": 2637,
      "▁عدا": 2638,
      "▁فرق": 2639,
      "▁مذكر": 2640,
      "▁(٢)\n": 2641,
      "▁موضوع": 2642,
      "ينه": 2643,
      "خش": 2644,
      "ذان": 2645,
      "امي": 2646,
      "▁مف": 2647,
      "▁الناقة": 2648,
      "▁الضمة": 2649,
      "▁الاستاذ": 2650,
      "قض": 2651,
      "قف": 2652,
      "▁وقعت": 2653,
      "▁سعد": 2654,
      "▁النظ": 2655,
      "▁اجتمع": 2656,
      "جاء": 2657,
      "▁ترد": 2658,
      "▁مقدم": 2659,
      "▁ابد": 2660,
      "ور:": 2661,
      "▁عندهم": 2662,
      "ربا": 2663,
      "▁٢٥": 2664,
      "▁بمع": 2665,
      "بيد": 2666,
      "▁العروس": 2667,
      "▁الدال": 2668,
      "ئل": 2669,
      "▁زياد": 2670,
      "▁التشبيه": 2671,
      "▁تعد": 2672,
      "▁\"ه": 2673,
      "▁انفس": 2674,
      "▁ينا": 2675,
      "▁تعلم": 2676,
      "▁ولهذا": 2677,
      "▁تعمل": 2678,
      "اعي": 2679,
      "▁صحيح": 2680,
      "▁باعتبار": 2681,
      "ريقة": 2682,
      "ها؛": 2683,
      "▁حما": 2684,
      "▁اقل": 2685,
      "▁اذا:": 2686,
      "ه\"": 2687,
      "افية": 2688,
      "▁يشبه": 2689,
      "لاب": 2690,
      "▁الحب": 2691,
      "يده": 2692,
      "رر": 2693,
      "،\n": 2694,
      "▁ثالث": 2695,
      "▁احدي": 2696,
      "نك": 2697,
      "▁\"ح": 2698,
      "▁مي": 2699,
      "ينئذ": 2700,
      "▁الاخبار": 2701,
      "ارف": 2702,
      "▁الفرق": 2703,
      "▁واصل": 2704,
      "▁لهذا": 2705,
      "▁المط": 2706,
      "▁فـ": 2707,
      "جن": 2708,
      "ارت": 2709,
      "▁٢٤": 2710,
      "▁الدا": 2711,
      "▁كف": 2712,
      "▁نت": 2713,
      "▁زائد": 2714,
      "▁قياس": 2715,
      "▁كبير": 2716,
      "▁تعريف": 2717,
      "▁وابو": 2718,
      "ا:": 2719,
      "خول": 2720,
      "▁سائر": 2721,
      "▁جعفر": 2722,
      "▁عمرا": 2723,
      "فة.": 2724,
      "▁موقع": 2725,
      "وقع": 2726,
      "▁مكس": 2727,
      "▁السابق": 2728,
      "١،": 2729,
      "▁لط": 2730,
      "وته": 2731,
      "▁(الم": 2732,
      "▁المسند": 2733,
      "▁دم": 2734,
      "▁الاض": 2735,
      "▁الاغ": 2736,
      "▁المخاطب": 2737,
      "▁الجاه": 2738,
      "ياب": 2739,
      "سي،": 2740,
      "▁المشت": 2741,
      "▁الكتب": 2742,
      "وث": 2743,
      "انع": 2744,
      "▁والظ": 2745,
      "▁ولل": 2746,
      "▁والمن": 2747,
      "▁صل": 2748,
      "▁سير": 2749,
      "فسر": 2750,
      "▁انتهي.\n": 2751,
      "فا،": 2752,
      "▁والمراد": 2753,
      "▁وغيره": 2754,
      "▁ساب": 2755,
      "ك.": 2756,
      "▁ابدا": 2757,
      "انها": 2758,
      "▁حالة": 2759,
      "▁\"ن": 2760,
      "▁تجعل": 2761,
      "▁بالاضافة": 2762,
      "▁تحذف": 2763,
      "▁العدد": 2764,
      "▁المه": 2765,
      "▁(الا": 2766,
      "▁والاع": 2767,
      "و،": 2768,
      "▁صحي": 2769,
      "▁(خ": 2770,
      "▁ابل": 2771,
      "▁وفتح": 2772,
      "ش،": 2773,
      "▁يقل": 2774,
      "▁الابي": 2775,
      "▁الواو:": 2776,
      "▁الدي": 2777,
      "▁الثق": 2778,
      "▁الصواب": 2779,
      "▁بشيء": 2780,
      "▁اخرج": 2781,
      "▁المسلم": 2782,
      "▁واض": 2783,
      "▁كالم": 2784,
      "▁شا": 2785,
      "▁العقل": 2786,
      "▁وقل": 2787,
      "▁فقلت:": 2788,
      "١.\n": 2789,
      "▁علينا": 2790,
      "▁معروف": 2791,
      "▁ويست": 2792,
      "▁مفعولا": 2793,
      "▁عوض": 2794,
      "▁\"ان\"": 2795,
      "▁فخ": 2796,
      "مهور": 2797,
      "وكد": 2798,
      "▁مواضع": 2799,
      "▁فد": 2800,
      "شياء": 2801,
      "▁مفر": 2802,
      "▁قبي": 2803,
      "▁كثر": 2804,
      "▁لانهم": 2805,
      "▁الحديث:": 2806,
      "▁اكل": 2807,
      "▁النظر": 2808,
      "▁البدل": 2809,
      "▁معرف": 2810,
      "شبه": 2811,
      "▁الشعراء": 2812,
      "▁؛": 2813,
      "▁الخطاب": 2814,
      "قاب": 2815,
      "▁بهما": 2816,
      "بي،": 2817,
      "▁اللغات": 2818,
      "ائه": 2819,
      "▁انظر": 2820,
      "▁اريد": 2821,
      "▁استعمل": 2822,
      "ونة": 2823,
      "▁سيبويه:": 2824,
      "تيب": 2825,
      "▁حكي": 2826,
      "سيم": 2827,
      "▁(ز": 2828,
      "▁بار": 2829,
      "▁افضل": 2830,
      "▁الكريم": 2831,
      "▁وذ": 2832,
      "▁والاخ": 2833,
      "▁خمسة": 2834,
      "▁يسمع": 2835,
      "▁معد": 2836,
      "▁الخمس": 2837,
      "صدق": 2838,
      "رية،": 2839,
      "▁علمت": 2840,
      "واعد": 2841,
      "▁الطريق": 2842,
      "▁ومنهم": 2843,
      "عدم": 2844,
      "▁واصله": 2845,
      "▁المضمر": 2846,
      "امت": 2847,
      "▁الجن": 2848,
      "▁اجمع": 2849,
      "▁منذ": 2850,
      "بالغة": 2851,
      "ان\"": 2852,
      "صيص": 2853,
      "▁زوج": 2854,
      "▁والمجرور": 2855,
      "▁يحمل": 2856,
      "ويه": 2857,
      "▁يمنع": 2858,
      "▁وزعم": 2859,
      "▁احدهما:": 2860,
      "▁لزم": 2861,
      "▁العم": 2862,
      "▁تاريخ": 2863,
      "▁واحت": 2864,
      "عاء": 2865,
      "▁بالب": 2866,
      "▁والتقدير": 2867,
      "▁ولعل": 2868,
      "▁سميت": 2869,
      "▁الكلام،": 2870,
      "▁سبب": 2871,
      "▁وكسر": 2872,
      "▁المومنين": 2873,
      "▁فحذف": 2874,
      "▁تفعل": 2875,
      "▁واعت": 2876,
      "▁فانما": 2877,
      "▁القد": 2878,
      "▁غيره،": 2879,
      "▁فرع": 2880,
      "ريض": 2881,
      "راط": 2882,
      "▁مسلم": 2883,
      "جري": 2884,
      "▁واف": 2885,
      "▁سما": 2886,
      "روط": 2887,
      "▁الخير": 2888,
      "يق": 2889,
      "▁فضل": 2890,
      "▁ليلة": 2891,
      "▁احب": 2892,
      "▁وسط": 2893,
      "وحة": 2894,
      "▁جديد": 2895,
      "▁الاك": 2896,
      "▁يات": 2897,
      "▁بالف": 2898,
      "▁المك": 2899,
      "با\n": 2900,
      "▁العن": 2901,
      "▁احرف": 2902,
      "▁كتابه": 2903,
      "▁ذك": 2904,
      "▁فتي": 2905,
      "▁تاتي": 2906,
      "▁معاني": 2907,
      "▁النحاة": 2908,
      "▁وروي": 2909,
      "▁وراء": 2910,
      "▁هند": 2911,
      "▁يراد": 2912,
      "▁سوا": 2913,
      "▁المز": 2914,
      "▁اجاز": 2915,
      "▁البعير": 2916,
      "واهد": 2917,
      "▁بطن": 2918,
      "▁يصلح": 2919,
      "▁الخيل": 2920,
      "▁تميم": 2921,
      "▁وخبر": 2922,
      "فك": 2923,
      "▁وضرب": 2924,
      "▁والهاء": 2925,
      "▁ترا": 2926,
      "د:": 2927,
      "▁٤)": 2928,
      "▁جزم": 2929,
      "▁للاست": 2930,
      "اره": 2931,
      "▁٢٦": 2932,
      "▁خلافا": 2933,
      "▁يحتاج": 2934,
      "▁فتقول": 2935,
      "جلي": 2936,
      "ريت": 2937,
      "▁(في": 2938,
      "▁(٢).\n": 2939,
      "▁قائما": 2940,
      "ا.\n": 2941,
      "▁جزء": 2942,
      "▁سمعت": 2943,
      "▁بنو": 2944,
      "▁لازم": 2945,
      "▁٢٧": 2946,
      "▁(وا": 2947,
      "▁\"فعل": 2948,
      "ارث": 2949,
      "▁جماعة": 2950,
      "▁(٥)": 2951,
      "▁معمول": 2952,
      "اغ": 2953,
      "▁بالص": 2954,
      "▁٢٨": 2955,
      "م.\n": 2956,
      "ائع": 2957,
      "الها": 2958,
      "ة\n": 2959,
      "▁الاصمعي": 2960,
      "قا،": 2961,
      "▁تعرف": 2962,
      "▁التخ": 2963,
      "امن": 2964,
      "ته:": 2965,
      "▁وقالوا:": 2966,
      "▁مجموع": 2967,
      "▁مضمر": 2968,
      "▁يحيي": 2969,
      "▁والخبر": 2970,
      "▁معطوفة": 2971,
      "▁الذكر": 2972,
      "▁(ق": 2973,
      "زة،": 2974,
      "ك.\n": 2975,
      "▁خلي": 2976,
      "▁جه": 2977,
      "▁خيرا": 2978,
      "]:\n": 2979,
      "▁بكل": 2980,
      "ابر": 2981,
      "▁وحذف": 2982,
      "▁الاستثناء": 2983,
      "▁بلفظ": 2984,
      "▁سورة": 2985,
      "▁صور": 2986,
      "▁الجماعة": 2987,
      "اخر": 2988,
      "▁الاصمعي:": 2989,
      "▁تبع": 2990,
      "قوله": 2991,
      "▁الكلمات": 2992,
      "▁بهذه": 2993,
      "▁امام": 2994,
      "▁\"في": 2995,
      "٢،": 2996,
      "ذاب": 2997,
      "مر،": 2998,
      "▁ورو": 2999,
      "▁النج": 3000,
      "راح": 3001,
      "▁فرس": 3002,
      "▁(ص": 3003,
      "▁علي:": 3004,
      "▁الحج": 3005,
      "زاء": 3006,
      "▁بقوله": 3007,
      "▁نفسي": 3008,
      "▁انواع": 3009,
      "ذوفة": 3010,
      "▁واكثر": 3011,
      "وخ": 3012,
      "وسط": 3013,
      "▁ظل": 3014,
      "▁عدد": 3015,
      "قها": 3016,
      "▁الفضل": 3017,
      "▁فكيف": 3018,
      "▁قوة": 3019,
      "زيادة": 3020,
      "▁يلت": 3021,
      "▁يتعلق": 3022,
      "حمد": 3023,
      "افعل": 3024,
      "ضت": 3025,
      "▁اضرب": 3026,
      "في،": 3027,
      "▁والض": 3028,
      "▁الريح": 3029,
      "▁وترك": 3030,
      "▁علة": 3031,
      "ين:\n": 3032,
      "تهما": 3033,
      "▁العرب،": 3034,
      "عود": 3035,
      "قيقي": 3036,
      "خلة": 3037,
      "▁الله:": 3038,
      "▁ظاه": 3039,
      "▁اعني": 3040,
      "لطان": 3041,
      "▁هاء": 3042,
      "دلالة": 3043,
      "▁الموصوف": 3044,
      "ركات": 3045,
      "ا.": 3046,
      "▁يرت": 3047,
      "▁ذكرت": 3048,
      "▁يحسن": 3049,
      "▁خف": 3050,
      "صن": 3051,
      "ضعيف": 3052,
      "▁الفتي": 3053,
      "▁عليكم": 3054,
      "ان)": 3055,
      "مي،": 3056,
      "غب": 3057,
      "▁(فعل": 3058,
      "▁الامور": 3059,
      "▁الاصل،": 3060,
      "حتمل": 3061,
      "ليد": 3062,
      "▁اصاب": 3063,
      "▁والنصب": 3064,
      "▁الثلاثي": 3065,
      "اد،": 3066,
      "▁كذلك،": 3067,
      "▁النكرة": 3068,
      "▁يوجد": 3069,
      "▁يض": 3070,
      "▁وفر": 3071,
      "▁اربع": 3072,
      "ناها": 3073,
      "▁قصر": 3074,
      "▁فيه:": 3075,
      "ذات": 3076,
      "▁هشام": 3077,
      "▁تذكر": 3078,
      "▁معطوف": 3079,
      "▁خالد": 3080,
      "قار": 3081,
      "▁جوازا": 3082,
      "▁للخ": 3083,
      "▁القط": 3084,
      "▁لئلا": 3085,
      "▁٣٠": 3086,
      "ولين": 3087,
      "طلع": 3088,
      "▁وسكون": 3089,
      "▁يرجع": 3090,
      "تني": 3091,
      "▁قراءة": 3092,
      "كاية": 3093,
      "▁البلاغة": 3094,
      "▁فانت": 3095,
      "ير:": 3096,
      "▁التر": 3097,
      "▁نب": 3098,
      "▁الاخر:\n": 3099,
      "شم": 3100,
      "▁لقي": 3101,
      "▁الشديد": 3102,
      "كما": 3103,
      "▁التثنية": 3104,
      "▁الازه": 3105,
      "▁عليه.\n": 3106,
      "▁تجد": 3107,
      "▁الكري": 3108,
      "حان": 3109,
      "▁عاط": 3110,
      "▁خطا": 3111,
      "▁ابيات": 3112,
      "ناب": 3113,
      "▁الشاهد": 3114,
      "▁واجاز": 3115,
      "▁الهي": 3116,
      "▁ماذا": 3117,
      "▁انسان": 3118,
      "▁٢٩": 3119,
      "▁يسم": 3120,
      "وقوع": 3121,
      "▁مراد": 3122,
      "▁يقدر": 3123,
      "ئناف": 3124,
      "▁العلة": 3125,
      "▁يجد": 3126,
      "▁الفاظ": 3127,
      "ماد": 3128,
      "▁توكيد": 3129,
      "جاع": 3130,
      "▁بالغ": 3131,
      "▁وتقول": 3132,
      "▁التج": 3133,
      "▁قليلا": 3134,
      "قسم": 3135,
      "▁والثاني:": 3136,
      "▁برجل": 3137,
      "▁اشارة": 3138,
      "▁(٨": 3139,
      "ابن": 3140,
      "▁لاز": 3141,
      "▁ذلك.": 3142,
      "▁وتاج": 3143,
      "▁هن": 3144,
      "▁طول": 3145,
      "▁عصف": 3146,
      "▁عبيدة": 3147,
      "▁٣١": 3148,
      "▁يرفع": 3149,
      "▁شه": 3150,
      "▁لـ": 3151,
      "▁والتاء": 3152,
      "▁النداء": 3153,
      "▁التركيب": 3154,
      "▁وليست": 3155,
      "▁اكت": 3156,
      "جتماع": 3157,
      "▁ثابت": 3158,
      "قياس": 3159,
      "▁الامثلة": 3160,
      "▁كـ\"": 3161,
      "حسن": 3162,
      "▁(ش": 3163,
      "▁التمييز": 3164,
      "▁البيان": 3165,
      "▁الخاص": 3166,
      "▁الطعام": 3167,
      "ئس": 3168,
      "ساس": 3169,
      "كسرة": 3170,
      "▁الطيب": 3171,
      "▁اللغوي": 3172,
      "▁اضافة": 3173,
      "▁(٣)\n": 3174,
      "▁١-": 3175,
      "▁العزيز": 3176,
      "▁يحتمل": 3177,
      "▁ديوانه": 3178,
      "ال\n": 3179,
      "▁حاجة": 3180,
      "وب،": 3181,
      "▁شان": 3182,
      "▁كنا": 3183,
      "▁قالت": 3184,
      "▁بنت": 3185,
      "باه": 3186,
      "▁الواقع": 3187,
      "▁الفعلية": 3188,
      "▁طي": 3189,
      "▁قي": 3190,
      "▁والميم": 3191,
      "▁العين،": 3192,
      "▁\"س": 3193,
      "ري\n": 3194,
      "وا\n": 3195,
      "▁مسالة": 3196,
      "ونس": 3197,
      "▁فعلت": 3198,
      "▁اكرم": 3199,
      "ع\n": 3200,
      "▁جئت": 3201,
      "راء،": 3202,
      "ثق": 3203,
      "▁واغ": 3204,
      "▁مبتدا،": 3205,
      "▁فعل،": 3206,
      "▁حدثنا": 3207,
      "لفة": 3208,
      "ملت": 3209,
      "▁وعل": 3210,
      "زق": 3211,
      "▁جعله": 3212,
      "نم": 3213,
      "هـ": 3214,
      "هاد": 3215,
      "▁اقسام": 3216,
      "صر،": 3217,
      "واتها": 3218,
      "خلص": 3219,
      "▁لاتص": 3220,
      "▁درا": 3221,
      "▁البصريين": 3222,
      "داء،": 3223,
      "▁تحقيق": 3224,
      "▁الامير": 3225,
      "▁يوس": 3226,
      "▁المعروف": 3227,
      "▁وهكذا": 3228,
      "▁ذه": 3229,
      "▁وانشد:\n": 3230,
      "▁كفر": 3231,
      "▁نزل": 3232,
      "▁الطويل،": 3233,
      "▁فقل": 3234,
      "غيير": 3235,
      "▁دفع": 3236,
      "▁الحم": 3237,
      "▁[مفرد": 3238,
      "▁المفت": 3239,
      "▁اللبن": 3240,
      "▁جائز": 3241,
      "▁الاشياء": 3242,
      "▁علما": 3243,
      "▁كثرة": 3244,
      "▁الحك": 3245,
      "▁(ما)": 3246,
      "▁ويل": 3247,
      "ئك": 3248,
      "▁يجيء": 3249,
      "▁بعيد": 3250,
      "▁بلاد": 3251,
      "▁الوقف": 3252,
      "▁الايام": 3253,
      "▁الاخري": 3254,
      "▁ظهور": 3255,
      "▁الجيم": 3256,
      "ساب": 3257,
      "▁واوا": 3258,
      "▁المرء": 3259,
      "▁فيقول": 3260,
      "▁وكيف": 3261,
      "قين": 3262,
      "▁عص": 3263,
      "▁منت": 3264,
      "▁ونحوه": 3265,
      "اء\n": 3266,
      "▁الزيادة": 3267,
      "▁هذين": 3268,
      "طان": 3269,
      "▁عنا": 3270,
      "▁الجار": 3271,
      "▁عامر": 3272,
      "▁\"الا": 3273,
      "▁منها،": 3274,
      "▁عليها،": 3275,
      "▁٢-": 3276,
      "▁الامام": 3277,
      "▁التم": 3278,
      "▁والثال": 3279,
      "▁موجود": 3280,
      "احب": 3281,
      "وفة": 3282,
      "▁المولف": 3283,
      "▁فانك": 3284,
      "▁الذك": 3285,
      "▁مم": 3286,
      "فر،": 3287,
      "▁وجوه": 3288,
      "▁يتعدي": 3289,
      "▁السين": 3290,
      "▁الجوهري": 3291,
      "▁اياه": 3292,
      "▁المقصود": 3293,
      "▁لخ": 3294,
      "▁بزيد": 3295,
      "▁تصغير": 3296,
      "▁والاخر": 3297,
      "▁وجدت": 3298,
      "▁اصب": 3299,
      "▁بعضهم:": 3300,
      "▁يقولون": 3301,
      "▁قرب": 3302,
      "شب": 3303,
      "▁بينه": 3304,
      "▁الخبر،": 3305,
      "▁\"الم": 3306,
      "▁كر": 3307,
      "▁لكنه": 3308,
      "▁ونظ": 3309,
      "▁البسيط": 3310,
      "▁المنصوب": 3311,
      "▁كقولك": 3312,
      "مائة": 3313,
      "▁عربي": 3314,
      "▁صاد": 3315,
      "▁يقولون:": 3316,
      "٢.\n": 3317,
      "▁مرو": 3318,
      "▁وعمرو": 3319,
      "▁عبارة": 3320,
      "▁النعت": 3321,
      "ثقل": 3322,
      "▁تمر": 3323,
      "▁المبرد": 3324,
      "▁رضي": 3325,
      "▁وهنا": 3326,
      "▁مقت": 3327,
      "▁والمفعول": 3328,
      "▁الشر": 3329,
      "▁كع": 3330,
      "برة": 3331,
      "▁زال": 3332,
      "▁لين": 3333,
      "▁مختلف": 3334,
      "اتل": 3335,
      "▁(او": 3336,
      "▁بلي": 3337,
      "▁ونحن": 3338,
      "▁غاية": 3339,
      "▁الغائ": 3340,
      "▁الظاهرة": 3341,
      "خيم": 3342,
      "اء.": 3343,
      "▁يكتب": 3344,
      "فضيل": 3345,
      "▁المعرفة": 3346,
      "▁رواية": 3347,
      "الية": 3348,
      "شع": 3349,
      "ور\n": 3350,
      "نسبة": 3351,
      "▁يتقدم": 3352,
      "▁عرفت": 3353,
      "اتها": 3354,
      "تيار": 3355,
      "▁الفق": 3356,
      "زية": 3357,
      "▁قائل": 3358,
      "▁وايضا": 3359,
      "▁ينصب": 3360,
      "▁غيرها": 3361,
      "▁السيف": 3362,
      "▁مشبه": 3363,
      "▁الفرز": 3364,
      "▁شدة": 3365,
      "ج:": 3366,
      "اكيد": 3367,
      "▁نسب": 3368,
      "عا،": 3369,
      "▁زيدا،": 3370,
      "▁راسه": 3371,
      "كم،": 3372,
      "▁المخت": 3373,
      "▁النف": 3374,
      "وامل": 3375,
      "همزة": 3376,
      "▁(١)،": 3377,
      "▁بشر": 3378,
      "قصد": 3379,
      "تنا": 3380,
      "خوذ": 3381,
      "صاف": 3382,
      "▁عر": 3383,
      "▁فهذه": 3384,
      "فهوم": 3385,
      "▁الغي": 3386,
      "ون.": 3387,
      "رجة": 3388,
      "اء.\n": 3389,
      "▁الفاعل،": 3390,
      "▁خاصة": 3391,
      "▁مادة": 3392,
      "وعة": 3393,
      "▁الصلاة": 3394,
      "ذة": 3395,
      "▁الطرف": 3396,
      "▁لاتصاله": 3397,
      "▁(د": 3398,
      "▁٣٢": 3399,
      "٣،": 3400,
      "قية": 3401,
      "▁المعني:": 3402,
      "▁وجهه": 3403,
      "▁مشي": 3404,
      "▁النحويين": 3405,
      "▁حض": 3406,
      "▁قيا": 3407,
      "▁المرفوع": 3408,
      "▁عينه": 3409,
      "وصف": 3410,
      "▁يتع": 3411,
      "▁وسب": 3412,
      "روح": 3413,
      "▁مثلها": 3414,
      "ل\n": 3415,
      "▁بـ\"": 3416,
      "▁مذك": 3417,
      "▁الوقت": 3418,
      "▁اختلاف": 3419,
      "▁نح": 3420,
      "▁وعليه": 3421,
      "▁الحمد": 3422,
      "▁الناس،": 3423,
      "▁غال": 3424,
      "▁١)\n": 3425,
      "وة،": 3426,
      "▁وفاعل": 3427,
      "لية،": 3428,
      "قعة": 3429,
      "▁وبا": 3430,
      "▁الست": 3431,
      "▁انف": 3432,
      "▁الجزء": 3433,
      "كرة،": 3434,
      "▁جانب": 3435,
      "▁السما": 3436,
      "▁جاءني": 3437,
      "▁الكسائي": 3438,
      "▁القاضي": 3439,
      "▁عض": 3440,
      "▁خب": 3441,
      "▁ذوي": 3442,
      "▁اورد": 3443,
      "▁فكذلك": 3444,
      "كين": 3445,
      "ائق": 3446,
      "ئي": 3447,
      "▁الخي": 3448,
      "▁عباس": 3449,
      "▁\"وال": 3450,
      "▁وشبه": 3451,
      "▁عظيم": 3452,
      "▁فيهم": 3453,
      "▁ند": 3454,
      "▁لص": 3455,
      "صيح": 3456,
      "▁بالد": 3457,
      "دي\n": 3458,
      "▁نجد": 3459,
      "شك": 3460,
      "▁الاسمية": 3461,
      "▁لمع": 3462,
      "▁الشئ": 3463,
      "▁اصول": 3464,
      "▁تنوين": 3465,
      "▁فز": 3466,
      "▁والاح": 3467,
      "▁تسمي": 3468,
      "قة.": 3469,
      "▁واخذ": 3470,
      "▁الموضوع": 3471,
      "▁اداة": 3472,
      "▁قوي": 3473,
      "▁واث": 3474,
      "وه،": 3475,
      "▁اقول": 3476,
      "▁رجال": 3477,
      "▁نفسه،": 3478,
      "▁(٣).\n": 3479,
      "▁فاب": 3480,
      "▁التك": 3481,
      "▁يذهب": 3482,
      "بيها": 3483,
      "▁اثبات": 3484,
      "▁نقله": 3485,
      "ضاع": 3486,
      "ئر": 3487,
      "▁فكل": 3488,
      "▁معها": 3489,
      "▁العي": 3490,
      "▁والذ": 3491,
      "▁يتم": 3492,
      "▁وابي": 3493,
      "▁بحيث": 3494,
      "▁شيئ": 3495,
      "▁طالب": 3496,
      "١\n": 3497,
      "▁تقديره:": 3498,
      "▁وتق": 3499,
      "▁التقدير:": 3500,
      "صال": 3501,
      "عون": 3502,
      "ق.\n": 3503,
      "▁مرك": 3504,
      "▁بدر": 3505,
      "▁عرو": 3506,
      "▁تغير": 3507,
      "▁للس": 3508,
      "طه": 3509,
      "▁غل": 3510,
      "▁والكاف": 3511,
      "▁الخلاف": 3512,
      "▁الدلالة": 3513,
      "▁المعطوف": 3514,
      "شار": 3515,
      "▁عائ": 3516,
      "▁حز": 3517,
      "نعت": 3518,
      "▁فيه.\n": 3519,
      "▁جبل": 3520,
      "▁الهوي": 3521,
      "ز:": 3522,
      "▁عندك": 3523,
      "▁اصلا": 3524,
      "قة،": 3525,
      "بان": 3526,
      "▁قصيدة": 3527,
      "▁صارت": 3528,
      "▁واه": 3529,
      "نوي": 3530,
      "لمي": 3531,
      "▁القت": 3532,
      "فف": 3533,
      "ها)": 3534,
      "▁التاريخ": 3535,
      "▁شاعر": 3536,
      "▁المستثني": 3537,
      "▁الثالث:": 3538,
      "▁بات": 3539,
      "ما\"": 3540,
      "عة،": 3541,
      "▁تصرف": 3542,
      "▁شد": 3543,
      "▁الفرزدق": 3544,
      "▁القائل": 3545,
      "▁الحال،": 3546,
      "▁اصط": 3547,
      "ص،": 3548,
      "▁الرمة": 3549,
      "▁المثني": 3550,
      "▁يقصد": 3551,
      "▁فلذلك": 3552,
      "كتور": 3553,
      "▁فوا": 3554,
      "▁صيغة": 3555,
      "خبر": 3556,
      "▁دلالة": 3557,
      "▁الكبير": 3558,
      "▁اخي": 3559,
      "ن\n": 3560,
      "▁الجنة": 3561,
      "سمية": 3562,
      "▁ادخل": 3563,
      "▁عليه.": 3564,
      "ئه": 3565,
      "خلف": 3566,
      "▁٥)": 3567,
      "▁اوله": 3568,
      "▁بالل": 3569,
      "▁اللحم": 3570,
      "▁الراي": 3571,
      "▁٣٣": 3572,
      "▁يريد:": 3573,
      "▁بوا": 3574,
      "▁منزلة": 3575,
      "▁المتقدم": 3576,
      "▁القب": 3577,
      "▁وزيد": 3578,
      "▁الوز": 3579,
      "▁العظيم": 3580,
      "▁الاستعمال": 3581,
      "▁واط": 3582,
      "قوا": 3583,
      "▁فاس": 3584,
      "شهد": 3585,
      "▁ذلك:": 3586,
      "▁نك": 3587,
      "▁التصغير": 3588,
      "▁ووجه": 3589,
      "▁تكلم": 3590,
      "▁ضرورة": 3591,
      "▁نظير": 3592,
      "▁فيقال:": 3593,
      "▁\"ما\"": 3594,
      "▁الثاني،": 3595,
      "▁ينصرف": 3596,
      "بعث": 3597,
      "▁[٢": 3598,
      "▁عالم": 3599,
      "▁يبقي": 3600,
      "ودي": 3601,
      "▁الاخير": 3602,
      "▁)\n": 3603,
      "▁ولسان": 3604,
      "▁اوا": 3605,
      "اهل": 3606,
      "وري": 3607,
      "والي": 3608,
      "▁ناقص": 3609,
      "▁فالت": 3610,
      "▁سالم": 3611,
      "▁سقط": 3612,
      "وهو": 3613,
      "▁فقال:\n": 3614,
      "▁امرئ": 3615,
      "▁برا": 3616,
      "▁غد": 3617,
      "▁وقالوا": 3618,
      "▁تقدي": 3619,
      "▁بحسب": 3620,
      "▁ورايت": 3621,
      "▁بدليل": 3622,
      "▁الار": 3623,
      "▁لنفس": 3624,
      "له\n": 3625,
      "قل،": 3626,
      "▁الصل": 3627,
      "▁نصر": 3628,
      "▁احي": 3629,
      "▁يقت": 3630,
      "▁انهما": 3631,
      "▁شاذ": 3632,
      "س\n": 3633,
      "نج": 3634,
      "▁فكانه": 3635,
      "▁القرن": 3636,
      "ر\n": 3637,
      "حف": 3638,
      "ات:": 3639,
      "▁بز": 3640,
      "▁العرب:": 3641,
      "▁اخر،": 3642,
      "ماح": 3643,
      "ذكير": 3644,
      "جاوز": 3645,
      "▁الاعرابي:": 3646,
      "▁المب": 3647,
      "▁اجتماع": 3648,
      "▁عب": 3649,
      "▁٣٥": 3650,
      "خلت": 3651,
      "▁الزيد": 3652,
      "▁ليل": 3653,
      "▁الافراد": 3654,
      "▁عسي": 3655,
      "افظ": 3656,
      "▁لها.": 3657,
      "▁مسا": 3658,
      "▁معاوية": 3659,
      "▁حالا": 3660,
      "▁وثلاث": 3661,
      "▁فالج": 3662,
      "▁القاف": 3663,
      "▁ضد": 3664,
      "▁وشرح": 3665,
      "▁تاب": 3666,
      "فهم": 3667,
      "▁اثنين": 3668,
      "▁لعدم": 3669,
      "▁جرير": 3670,
      "▁المبني": 3671,
      "را.\n": 3672,
      "▁نها": 3673,
      "▁عش": 3674,
      "▁حصل": 3675,
      "▁سف": 3676,
      "▁صالح": 3677,
      "▁حجر": 3678,
      "▁متعد": 3679,
      "▁رفعه": 3680,
      "▁واني": 3681,
      "▁الراجز": 3682,
      "▁شخص": 3683,
      "▁استئناف": 3684,
      "▁رقم": 3685,
      "▁الثوب": 3686,
      "▁وتا": 3687,
      "▁واخت": 3688,
      "خال": 3689,
      "ذلي": 3690,
      "▁الاعشي": 3691,
      "يري": 3692,
      "كنت": 3693,
      "ظاهر": 3694,
      "▁يفيد": 3695,
      "▁مبا": 3696,
      "ين)": 3697,
      "▁فاني": 3698,
      "▁بالياء": 3699,
      "▁\"وا": 3700,
      "▁مخرج": 3701,
      "▁الرم": 3702,
      "زو": 3703,
      "▁اختلف": 3704,
      "▁حني": 3705,
      "▁العامة": 3706,
      "▁فرد": 3707,
      "▁والام": 3708,
      "▁بحذف": 3709,
      "▁والاف": 3710,
      "اني:": 3711,
      "▁والاس": 3712,
      "ائن": 3713,
      "طاء": 3714,
      "▁اعل": 3715,
      "▁عندنا": 3716,
      "▁برد": 3717,
      "▁لهما": 3718,
      "▁خد": 3719,
      "▁شم": 3720,
      "▁زهير": 3721,
      "▁الاسد": 3722,
      "▁امثال": 3723,
      "▁اعرف": 3724,
      "طار": 3725,
      "▁ارج": 3726,
      "▁\".": 3727,
      "▁الجم": 3728,
      "قاس": 3729,
      "▁عدة": 3730,
      "▁كلما": 3731,
      "▁٣٤": 3732,
      "▁منس": 3733,
      "▁الاسود": 3734,
      "\":\n": 3735,
      "▁\"ق": 3736,
      "▁الصي": 3737,
      "▁ويس": 3738,
      "▁اضيف": 3739,
      "▁(بو": 3740,
      "▁السنة": 3741,
      "▁فائدة": 3742,
      "▁قلبت": 3743,
      "▁الغرض": 3744,
      "زال": 3745,
      "▁عنهم": 3746,
      "ة)": 3747,
      "▁٣٦": 3748,
      "▁طائ": 3749,
      "ون.\n": 3750,
      "▁لها،": 3751,
      "▁قريب": 3752,
      "رايت": 3753,
      "▁صحة": 3754,
      "▁وكما": 3755,
      "حيط": 3756,
      "▁كلي": 3757,
      "لام،": 3758,
      "▁\"كان": 3759,
      "رير": 3760,
      "▁ونص": 3761,
      "كلف": 3762,
      "▁لالت": 3763,
      "▁عصر": 3764,
      "▁يفهم": 3765,
      "▁وها": 3766,
      "▁العصر": 3767,
      "▁السيد": 3768,
      "▁تلا": 3769,
      "▁سبع": 3770,
      "▁(رجع": 3771,
      "▁محت": 3772,
      "▁الاكثر": 3773,
      "ين\"": 3774,
      "▁امثلة": 3775,
      "جرد": 3776,
      "▁كح": 3777,
      "▁الشبه": 3778,
      "▁القدر": 3779,
      "▁هج": 3780,
      "▁ثوب": 3781,
      "▁الاخت": 3782,
      "▁المشر": 3783,
      "▁زيد:": 3784,
      "▁موج": 3785,
      "▁فسر": 3786,
      "▁والاد": 3787,
      "طويل": 3788,
      "▁قلنا": 3789,
      "▁المنع": 3790,
      "▁صاحبه": 3791,
      "▁اضاف": 3792,
      "▁الحارث": 3793,
      "▁وتكون": 3794,
      "▁حن": 3795,
      "▁عثمان:": 3796,
      "ياق": 3797,
      "▁بينها": 3798,
      "▁منكم": 3799,
      "باري": 3800,
      "▁ادري": 3801,
      "سهيل": 3802,
      "▁اعد": 3803,
      "▁قلنا:": 3804,
      "▁المدينة": 3805,
      "حش": 3806,
      "▁الجبل": 3807,
      "ك\"": 3808,
      "▁يوسف": 3809,
      "معة": 3810,
      "صيل": 3811,
      "▁ثق": 3812,
      "لل": 3813,
      "▁السكيت": 3814,
      "▁فلانا": 3815,
      "▁الجد": 3816,
      "▁اسمه": 3817,
      "▁التعجب": 3818,
      "▁كاد": 3819,
      "روه": 3820,
      "▁شيء،": 3821,
      "▁فقالوا:": 3822,
      "▁(بوشر": 3823,
      "▁فتكون": 3824,
      "▁وتس": 3825,
      "▁شهر": 3826,
      "شاد": 3827,
      "▁وار": 3828,
      "معت": 3829,
      "غال": 3830,
      "بدو": 3831,
      "قبال": 3832,
      "كرر": 3833,
      "حا،": 3834,
      "▁والاسم": 3835,
      "▁ويق": 3836,
      "▁(رجع)\n": 3837,
      "▁الصاد": 3838,
      "▁كاف": 3839,
      "٤،": 3840,
      "▁(٤)\n": 3841,
      "▁قبلها،": 3842,
      "▁الاحت": 3843,
      "▁الراس": 3844,
      "▁يمد": 3845,
      "▁اسد": 3846,
      "▁بالنسبة": 3847,
      "▁ساكنة": 3848,
      "▁سه": 3849,
      "▁سليمان": 3850,
      "▁وته": 3851,
      "بغة": 3852,
      "ك\n": 3853,
      "وره": 3854,
      "▁البحث": 3855,
      "▁الرجل:": 3856,
      "وائد": 3857,
      "٢\n": 3858,
      "▁وسم": 3859,
      "ان:\n": 3860,
      "▁للب": 3861,
      "▁ضعيف": 3862,
      "▁الساد": 3863,
      "▁البد": 3864,
      "ق.": 3865,
      "▁منصوبا": 3866,
      "▁واراد": 3867,
      "▁اليم": 3868,
      "▁ماخوذ": 3869,
      "▁بام": 3870,
      "ور.": 3871,
      "طاع": 3872,
      "▁زمن": 3873,
      "▁من:": 3874,
      "▁شرب": 3875,
      "خد": 3876,
      "▁وتت": 3877,
      "طال": 3878,
      "▁محا": 3879,
      "▁طب": 3880,
      "▁والمت": 3881,
      "▁واشت": 3882,
      "▁معناه:": 3883,
      "▁الصد": 3884,
      "▁صدق": 3885,
      "▁٣-": 3886,
      "▁الواو،": 3887,
      "▁عو": 3888,
      "▁الياء،": 3889,
      "▁السن": 3890,
      "▁ضعف": 3891,
      "▁الاستعارة": 3892,
      "▁المجرور": 3893,
      "▁احوال": 3894,
      "▁الليث:": 3895,
      "برت": 3896,
      "▁في\n": 3897,
      "▁(٢)،": 3898,
      "طلح": 3899,
      "ود\n": 3900,
      "▁الاسم،": 3901,
      "▁للق": 3902,
      "▁نصف": 3903,
      "▁اقرب": 3904,
      "▁الفراء:": 3905,
      "▁وقوله:\n": 3906,
      "▁المث": 3907,
      "▁السير": 3908,
      "▁هد": 3909,
      "▁باح": 3910,
      "▁جان": 3911,
      "▁عدي": 3912,
      "▁اختص": 3913,
      "▁البلاد": 3914,
      "▁عيني": 3915,
      "▁٣٨": 3916,
      "▁اصلها": 3917,
      "▁صغير": 3918,
      "▁ورفع": 3919,
      "▁ظلم": 3920,
      "▁نقص": 3921,
      "م.": 3922,
      "▁٣٧": 3923,
      "▁الاه": 3924,
      "ثيل": 3925,
      "▁لا،": 3926,
      "▁(كان": 3927,
      "▁وامر": 3928,
      "▁واذ": 3929,
      "ة\"": 3930,
      "▁ياخذ": 3931,
      "▁قضي": 3932,
      "▁وقف": 3933,
      "ارق": 3934,
      "▁لاجل": 3935,
      "▁فيه.": 3936,
      "قوب": 3937,
      "▁الشام": 3938,
      "▁السحاب": 3939,
      "▁وعلم": 3940,
      "▁وبر": 3941,
      "▁عال": 3942,
      "يته": 3943,
      "▁فش": 3944,
      "▁الدولة": 3945,
      "▁بعين": 3946,
      "▁كونها": 3947,
      "ومن": 3948,
      "▁يكاد": 3949,
      "▁فجاء": 3950,
      "▁معرب": 3951,
      "قيا": 3952,
      "▁[مفرد]:": 3953,
      "▁انني": 3954,
      "▁كقوله:\n": 3955,
      "را.": 3956,
      "▁توا": 3957,
      "اخ": 3958,
      "لزم": 3959,
      "▁المستقبل": 3960,
      "▁تقل": 3961,
      "وصل": 3962,
      "▁الاخر،": 3963,
      "▁٣٩": 3964,
      "▁الصورة": 3965,
      "▁النهار": 3966,
      "▁غي": 3967,
      "جار": 3968,
      "▁الصغير": 3969,
      "▁٤٠": 3970,
      "▁ثعلب": 3971,
      "▁عقد": 3972,
      "اليف": 3973,
      "▁ربيعة": 3974,
      "كه": 3975,
      "ئن": 3976,
      "▁يثبت": 3977,
      "مامة": 3978,
      "ديع": 3979,
      "ظلم": 3980,
      "▁استفهام": 3981,
      "▁الفارسي": 3982,
      "▁ذكرها": 3983,
      "▁عبا": 3984,
      "شرين": 3985,
      "▁نقول": 3986,
      "▁المصد": 3987,
      "▁واك": 3988,
      "ليا": 3989,
      "تي،": 3990,
      "▁للفعل": 3991,
      "▁لبعض": 3992,
      "▁الصحاح": 3993,
      "غة،": 3994,
      "▁بيد": 3995,
      "▁الوق": 3996,
      "▁والتع": 3997,
      "وت،": 3998,
      "▁فعال": 3999,
      "▁لاست": 4000,
      "▁عمرو،": 4001,
      "راز": 4002,
      "▁فارس": 4003,
      "▁المشهور": 4004,
      "▁جنا": 4005,
      "▁سيف": 4006,
      "▁بسبب": 4007,
      "كسير": 4008,
      "▁صلي": 4009,
      "▁تحمل": 4010,
      "▁بذكر": 4011,
      "▁صغ": 4012,
      "▁ريح": 4013,
      "▁الها": 4014,
      "▁فاد": 4015,
      "▁وتد": 4016,
      "▁يده": 4017,
      "▁)": 4018,
      "رف،": 4019,
      "ظام": 4020,
      "▁الشعر،": 4021,
      "▁الكوفيين": 4022,
      "▁اقوي": 4023,
      "▁امرو": 4024,
      "▁حص": 4025,
      "▁حرفا": 4026,
      "▁يقبل": 4027,
      "▁نائب": 4028,
      "▁كانك": 4029,
      "▁قلوب": 4030,
      "▁ولان": 4031,
      "▁الشارح": 4032,
      "▁سق": 4033,
      "وفا": 4034,
      "▁ولولا": 4035,
      "▁اعطي": 4036,
      "▁تستعمل": 4037,
      "▁ينظر": 4038,
      "▁الخص": 4039,
      "▁ورج": 4040,
      "▁فانا": 4041,
      "▁الحجاز": 4042,
      "▁فيقول:": 4043,
      "▁ونصب": 4044,
      "ضية": 4045,
      "▁تام": 4046,
      "▁خش": 4047,
      "▁الكوفيون": 4048,
      "▁وكم": 4049,
      "▁اللفظ،": 4050,
      "▁جدا": 4051,
      "▁وحسن": 4052,
      "ن:": 4053,
      "ها\"": 4054,
      "زر": 4055,
      "▁شئ": 4056,
      "ضاح": 4057,
      "▁الحجاج": 4058,
      "دي:": 4059,
      "ائف": 4060,
      "وقي": 4061,
      "▁مقدر": 4062,
      "▁والنا": 4063,
      "▁الني": 4064,
      "▁دعا": 4065,
      "▁فعله": 4066,
      "▁يمتنع": 4067,
      "▁مائة": 4068,
      "▁تحرك": 4069,
      "يب،": 4070,
      "▁يروي": 4071,
      "▁معناها": 4072,
      "▁المواضع": 4073,
      "▁رائ": 4074,
      "▁سياتي": 4075,
      "▁لانهما": 4076,
      "▁المطر": 4077,
      "واج": 4078,
      "١٠": 4079,
      "باط": 4080,
      "ناعة": 4081,
      "الته": 4082,
      "▁وانظر": 4083,
      "▁بالضمة.": 4084,
      "▁اعتبار": 4085,
      "▁كانا": 4086,
      "فاف": 4087,
      "٣.\n": 4088,
      "ليل،": 4089,
      "بعه": 4090,
      "▁انس": 4091,
      "▁وبلا": 4092,
      "▁النع": 4093,
      "▁الاصوات": 4094,
      "▁تعلق": 4095,
      "حذوف": 4096,
      "ول\n": 4097,
      "▁احمر": 4098,
      "▁تانيث": 4099,
      "▁وكنت": 4100,
      "▁استئنافية.": 4101,
      "▁الانت": 4102,
      "▁اضمار": 4103,
      "ائص": 4104,
      "▁مجرد": 4105,
      "▁ركب": 4106,
      "▁ومررت": 4107,
      "▁مضافا": 4108,
      "ين؛": 4109,
      "جو": 4110,
      "▁ههنا": 4111,
      "▁فهل": 4112,
      "▁الابيات": 4113,
      "▁المذكورة": 4114,
      "وير": 4115,
      "▁لاح": 4116,
      "▁مول": 4117,
      "▁بواو": 4118,
      "▁باد": 4119,
      "وائل": 4120,
      "▁بعضه": 4121,
      "هر،": 4122,
      "▁عذ": 4123,
      "هود": 4124,
      "▁همز": 4125,
      "▁فيقال": 4126,
      "▁سوء": 4127,
      "▁صنع": 4128,
      "▁يطلق": 4129,
      "كال": 4130,
      "خ،": 4131,
      "▁اليمن": 4132,
      "▁النعم": 4133,
      "▁الخلي": 4134,
      "▁بينهم": 4135,
      "▁ويحتمل": 4136,
      "▁الزمخش": 4137,
      "▁الربيع": 4138,
      "▁مكت": 4139,
      "▁المحل": 4140,
      "▁واحدة،": 4141,
      "▁فله": 4142,
      "▁الرد": 4143,
      "▁جمال": 4144,
      "▁ضارب": 4145,
      "رابه": 4146,
      "▁ربك": 4147,
      "▁وبي": 4148,
      "▁انزل": 4149,
      "▁بنات": 4150,
      "▁(زيد": 4151,
      "قات": 4152,
      "▁متحرك": 4153,
      "▁فيك": 4154,
      "▁محذوف،": 4155,
      "▁عنك": 4156,
      "▁تمييز": 4157,
      "▁افراد": 4158,
      "▁يضاف": 4159,
      "▁لالتقاء": 4160,
      "▁يطلب": 4161,
      "▁لماذا": 4162,
      "▁بري": 4163,
      "املة": 4164,
      "هرت": 4165,
      "▁اتصل": 4166,
      "▁الشرح": 4167,
      "▁الخب": 4168,
      "▁التعبير": 4169,
      "▁اليهم": 4170,
      "▁ني": 4171,
      "دح": 4172,
      "▁حيان": 4173,
      "▁اللهم": 4174,
      "▁وست": 4175,
      "▁الصدر": 4176,
      "مة.": 4177,
      "▁اشياء": 4178,
      "لان": 4179,
      "ار\n": 4180,
      "▁الشباب": 4181,
      "▁قلبي": 4182,
      "▁الهذلي": 4183,
      "▁الملوك": 4184,
      "▁ومنه:": 4185,
      "▁مقل": 4186,
      "▁..................": 4187,
      "مله": 4188,
      "ط:": 4189,
      "سنة": 4190,
      "▁وحده": 4191,
      "▁القراء": 4192,
      "▁(اي": 4193,
      "▁تخرج": 4194,
      "▁تاك": 4195,
      "▁الرك": 4196,
      "سا،": 4197,
      "▁المعتل": 4198,
      "▁ببعض": 4199,
      "▁زائ": 4200,
      "بوع": 4201,
      "بة.": 4202,
      "▁عصفور": 4203,
      "عا\n": 4204,
      "▁السف": 4205,
      "ثت": 4206,
      "▁حظ": 4207,
      "▁ومس": 4208,
      "ينة،": 4209,
      "▁الارض،": 4210,
      "عة:": 4211,
      "▁يبق": 4212,
      "▁وهو:": 4213,
      "▁(٦)": 4214,
      "صيحة": 4215,
      "▁كش": 4216,
      "▁المرت": 4217,
      "ويت": 4218,
      "▁بشرط": 4219,
      "▁الممد": 4220,
      "▁....": 4221,
      "▁التف": 4222,
      "▁ليلي": 4223,
      "▁كسرة": 4224,
      "▁الاعراب،": 4225,
      "▁المضار": 4226,
      "▁الطب": 4227,
      "▁الحاء": 4228,
      "لتها": 4229,
      "▁كريم": 4230,
      "▁واز": 4231,
      "▁كانما": 4232,
      "بة.\n": 4233,
      "▁لست": 4234,
      "▁المصادر": 4235,
      "ياض": 4236,
      "▁لفظه": 4237,
      "▁حكاه": 4238,
      "ص:": 4239,
      "▁اليه.\n": 4240,
      "▁رجع": 4241,
      "▁سد": 4242,
      "داه": 4243,
      "▁الصلة": 4244,
      "ورة،": 4245,
      "▁ايضا.\n": 4246,
      "غض": 4247,
      "▁ولن": 4248,
      "▁اثار": 4249,
      "▁وضم": 4250,
      "▁انتم": 4251,
      "▁ايدي": 4252,
      "▁نبت": 4253,
      "▁يبني": 4254,
      "▁بذ": 4255,
      "▁فاعلا": 4256,
      "▁بحر": 4257,
      "ارس": 4258,
      "▁ورق": 4259,
      "▁واول": 4260,
      "٥،": 4261,
      "▁التقديم": 4262,
      "▁والتقدير:": 4263,
      "▁علماء": 4264,
      "▁بقية": 4265,
      "▁واجب": 4266,
      "مر:": 4267,
      "▁الرسول": 4268,
      "٣]": 4269,
      "▁(يا": 4270,
      "▁بالكسرة": 4271,
      "لين،": 4272,
      "▁سالت": 4273,
      "▁السامع": 4274,
      "به\n": 4275,
      "▁والجار": 4276,
      "▁السلام": 4277,
      "زني": 4278,
      "▁القلوب": 4279,
      "▁جازم": 4280,
      "▁الطير": 4281,
      "▁القيام": 4282,
      "▁اسمها": 4283,
      "▁القاسم": 4284,
      "▁الرجل،": 4285,
      "▁ووا": 4286,
      "▁سري": 4287,
      "▁صب": 4288,
      "▁تما": 4289,
      "نسية": 4290,
      "▁التعلي": 4291,
      "دة،": 4292,
      "انت": 4293,
      "▁غدا": 4294,
      "▁ظننت": 4295,
      "بي:": 4296,
      "اب،": 4297,
      "▁كلامهم": 4298,
      "▁خفي": 4299,
      "▁اقام": 4300,
      "▁وعدم": 4301,
      "لاط": 4302,
      "▁شواهد": 4303,
      "▁احكام": 4304,
      "▁العبد": 4305,
      "▁الشيء:": 4306,
      "▁بالمع": 4307,
      "▁الزمن": 4308,
      "▁لف": 4309,
      "▁الاصول": 4310,
      "خفيف": 4311,
      "▁تجمع": 4312,
      "▁وفيها": 4313,
      "كنا": 4314,
      "له.\n": 4315,
      "▁بتا": 4316,
      "▁البل": 4317,
      "▁موك": 4318,
      "▁تات": 4319,
      "▁المذهب": 4320,
      "▁سع": 4321,
      "▁للد": 4322,
      "▁ويسمي": 4323,
      "ش:": 4324,
      "▁حجة": 4325,
      "▁اقبل": 4326,
      "▁الزجاج": 4327,
      "غت": 4328,
      "▁وتعرب": 4329,
      "▁صال": 4330,
      "▁يبلغ": 4331,
      "وس،": 4332,
      "▁بنفسه": 4333,
      "▁سلام": 4334,
      "▁المهملة": 4335,
      "▁الشخص": 4336,
      "▁وخرج": 4337,
      "▁يودي": 4338,
      "▁الجيش": 4339,
      "الس": 4340,
      "▁النطق": 4341,
      "▁وكون": 4342,
      "▁الاقت": 4343,
      "▁فاعل،": 4344,
      "ير\n": 4345,
      "▁حياة": 4346,
      "▁ذكرناه": 4347,
      "▁شعره": 4348,
      "ئيس": 4349,
      "▁اليس": 4350,
      "▁طعام": 4351,
      "▁النابغة": 4352,
      "▁السوال": 4353,
      "▁تشبيه": 4354,
      "▁الطويل]\n": 4355,
      "▁المتنبي": 4356,
      "▁ضي": 4357,
      "▁اللازم": 4358,
      "▁يفت": 4359,
      "▁ثان": 4360,
      "▁وفا": 4361,
      "▁والاب": 4362,
      "▁ومج": 4363,
      "ون\n": 4364,
      "▁يبين": 4365,
      "▁الرمل": 4366,
      "▁رغ": 4367,
      "الة،": 4368,
      "خيل": 4369,
      "▁الحيوان": 4370,
      "▁عليهما": 4371,
      "▁منه.\n": 4372,
      "▁ياء،": 4373,
      "▁يجيز": 4374,
      "▁دائما": 4375,
      "▁العلوم": 4376,
      "▁ابوه": 4377,
      "راها": 4378,
      "▁المجد": 4379,
      "فيد": 4380,
      "▁يخفي": 4381,
      "▁يزال": 4382,
      "▁حفظ": 4383,
      "▁الحما": 4384,
      "فسد": 4385,
      "▁استعم": 4386,
      "▁خز": 4387,
      "▁الهند": 4388,
      "▁\"يا": 4389,
      "▁غض": 4390,
      "درس": 4391,
      "▁اسحاق": 4392,
      "مة:": 4393,
      "ية\n": 4394,
      "طلا": 4395,
      "▁وخل": 4396,
      "▁رمي": 4397,
      "▁وارت": 4398,
      "ك)": 4399,
      "▁ربما": 4400,
      "▁جره": 4401,
      "▁مجزوم": 4402,
      "ينا\n": 4403,
      "▁مطلق": 4404,
      "▁المقدرة": 4405,
      "▁وكلا": 4406,
      "زيل": 4407,
      "▁تقلب": 4408,
      "▁الفض": 4409,
      "▁عيسي": 4410,
      "▁سيبويه،": 4411,
      "▁تجري": 4412,
      "شو": 4413,
      "فعي": 4414,
      "▁امره": 4415,
      "▁ر\n": 4416,
      "▁قيد": 4417,
      "كير": 4418,
      "بيح": 4419,
      "▁دام": 4420,
      "ات.": 4421,
      "▁اخبار": 4422,
      "▁بعضا": 4423,
      "▁عباد": 4424,
      "▁(٤).\n": 4425,
      "بقرة:": 4426,
      "▁كعب": 4427,
      "ياه": 4428,
      "بقي": 4429,
      "▁ويقولون:": 4430,
      "▁الابد": 4431,
      "▁باللام": 4432,
      "▁(٩": 4433,
      "▁اخذت": 4434,
      "▁المعرف": 4435,
      "قصي": 4436,
      "بره": 4437,
      "▁اعج": 4438,
      "▁الجديد": 4439,
      "فيه": 4440,
      "▁والصواب:": 4441,
      "٣\n": 4442,
      "▁القام": 4443,
      "رة.": 4444,
      "خط": 4445,
      "▁\"زيد": 4446,
      "▁المخاط": 4447,
      "▁مقا": 4448,
      "▁وارب": 4449,
      "▁الاتي": 4450,
      "▁فيجوز": 4451,
      "▁الغائبين": 4452,
      "▁تضرب": 4453,
      "▁فقيل": 4454,
      "▁عدل": 4455,
      "▁وهي:": 4456,
      "▁بدون": 4457,
      "ساء": 4458,
      "▁العلا": 4459,
      "▁للتعظيم": 4460,
      "▁اصبح": 4461,
      "امد": 4462,
      "ثه": 4463,
      "▁واخواتها": 4464,
      "▁الخامس": 4465,
      "▁لكونه": 4466,
      "▁الور": 4467,
      "▁بقوله:\n": 4468,
      "▁بعده،": 4469,
      "فة:": 4470,
      "▁له.\n": 4471,
      "▁والتي": 4472,
      "▁مدح": 4473,
      "▁الغالب": 4474,
      "▁احداهما": 4475,
      "قارب": 4476,
      "وده": 4477,
      "▁السبب": 4478,
      "▁مفردا": 4479,
      "▁الرف": 4480,
      "▁الرواية": 4481,
      "▁نار": 4482,
      "▁بض": 4483,
      "▁زائدة،": 4484,
      "▁له.": 4485,
      "▁(٣)،": 4486,
      "ذاهب": 4487,
      "ن)": 4488,
      "▁يسر": 4489,
      "▁والارض": 4490,
      "▁ان:": 4491,
      "▁فيت": 4492,
      "▁قبيل": 4493,
      "▁وامراة": 4494,
      "▁والمر": 4495,
      "▁مخال": 4496,
      "▁اوج": 4497,
      "▁الملا": 4498,
      "ون)": 4499,
      "ندي": 4500,
      "▁الواحدة": 4501,
      "حدة": 4502,
      "▁سج": 4503,
      "▁يصل": 4504,
      "كر،": 4505,
      "▁مقال": 4506,
      "ناق": 4507,
      "ال:": 4508,
      "هم\n": 4509,
      "▁تقوم": 4510,
      "▁هر": 4511,
      "▁يعطي": 4512,
      "▁اللام،": 4513,
      "▁اعلي": 4514,
      "▁٤١": 4515,
      "▁الامر،": 4516,
      "ارة،": 4517,
      "مة.\n": 4518,
      "▁فاعل.": 4519,
      "▁٤٢": 4520,
      "▁العلمية": 4521,
      "زام": 4522,
      "▁قم": 4523,
      "▁لبس": 4524,
      "▁شجر": 4525,
      "▁نائ": 4526,
      "▁ويروي:": 4527,
      "▁طيب": 4528,
      "▁الجزم": 4529,
      "▁شرف": 4530,
      "ظرف": 4531,
      "▁المتصل": 4532,
      "▁الحديد": 4533,
      "▁للص": 4534,
      "له.": 4535,
      "▁يسب": 4536,
      "▁وزاد": 4537,
      "طم": 4538,
      "ساوي": 4539,
      "▁اخا": 4540,
      "ارئ": 4541,
      "قي،": 4542,
      "▁الوضع": 4543,
      "▁استح": 4544,
      "تها،": 4545,
      "ما)": 4546,
      "▁نبات": 4547,
      "▁صدي": 4548,
      "▁يصير": 4549,
      "واح": 4550,
      "▁التفضيل": 4551,
      "▁الوزن": 4552,
      "▁العهد": 4553,
      "▁مقدرة": 4554,
      "▁فين": 4555,
      "▁الادغام": 4556,
      "▁٢)\n": 4557,
      "▁واخر": 4558,
      "▁لون": 4559,
      "▁الصحي": 4560,
      "▁من\n": 4561,
      "ناول": 4562,
      "يمان": 4563,
      "▁نفسها": 4564,
      "▁الشرق": 4565,
      "▁يختص": 4566,
      "▁الصفات": 4567,
      "▁قريش": 4568,
      "▁تاويل": 4569,
      "▁يتبع": 4570,
      "دها": 4571,
      "▁(من)": 4572,
      "قة.\n": 4573,
      "▁وصح": 4574,
      "▁يونس": 4575,
      "▁اراد:": 4576,
      "▁يجتمع": 4577,
      "▁المعل": 4578,
      "يتها": 4579,
      "هية": 4580,
      "لا\"": 4581,
      "▁بالرفع": 4582,
      "▁مثني": 4583,
      "▁بتقدير": 4584,
      "▁يدرك": 4585,
      "▁قيام": 4586,
      "▁الفن": 4587,
      "▁شمس": 4588,
      "بته": 4589,
      "▁ومت": 4590,
      "▁امس": 4591,
      "▁مدة": 4592,
      "▁غيره:": 4593,
      "ور.\n": 4594,
      "▁الوس": 4595,
      "▁وصار": 4596,
      "▁يحدث": 4597,
      "يا\n": 4598,
      "▁تضمن": 4599,
      "▁٦)": 4600,
      "▁البعض": 4601,
      "▁امه": 4602,
      "▁الجمهور": 4603,
      "▁ابواب": 4604,
      "را:": 4605,
      "▁المعجمة": 4606,
      "عد،": 4607,
      "▁خرجت": 4608,
      "▁لحم": 4609,
      "وابه": 4610,
      "▁الزبير": 4611,
      "بية،": 4612,
      "▁المجرد": 4613,
      "عي،": 4614,
      "ها:\n": 4615,
      "▁لهذه": 4616,
      "▁٤٤": 4617,
      "وطي": 4618,
      "▁يعل": 4619,
      "مسك": 4620,
      "▁غر": 4621,
      "▁الطلب": 4622,
      "▁الاربعة": 4623,
      "بة،": 4624,
      "▁القدي": 4625,
      "▁رايته": 4626,
      "وسي": 4627,
      "▁علق": 4628,
      "▁بالاس": 4629,
      "▁ربي": 4630,
      "▁تخل": 4631,
      "▁الشيب": 4632,
      "غاء": 4633,
      "▁زم": 4634,
      "▁سود": 4635,
      "▁اليه.": 4636,
      "▁ابلغ": 4637,
      "▁هذ": 4638,
      "ديه": 4639,
      "▁العلاء": 4640,
      "▁اسود": 4641,
      "▁ملت": 4642,
      "▁\"ش": 4643,
      "▁الدكتور": 4644,
      "بتها": 4645,
      "سف": 4646,
      "▁يعقوب": 4647,
      "▁فكما": 4648,
      "رجي": 4649,
      "▁النوا": 4650,
      "▁يتصل": 4651,
      "▁ولكنها": 4652,
      "▁تض": 4653,
      "▁اخر:\n": 4654,
      "▁(لا)": 4655,
      "▁النظم": 4656,
      "▁بلد": 4657,
      "▁اجد": 4658,
      "▁شق": 4659,
      "نوا": 4660,
      "▁افاد": 4661,
      "▁وكتب": 4662,
      "▁(اذا": 4663,
      "▁انتهي.": 4664,
      "▁ايضا.": 4665,
      "▁طبع": 4666,
      "▁والاول": 4667,
      "▁انق": 4668,
      "▁الاندل": 4669,
      "▁تقد": 4670,
      "▁وحينئذ": 4671,
      "وتي": 4672,
      "▁واهل": 4673,
      "سيف": 4674,
      "▁بالي": 4675,
      "▁ادم": 4676,
      "▁البلد": 4677,
      "وية،": 4678,
      "ليت": 4679,
      "▁حسان": 4680,
      "سيب": 4681,
      "▁المطل": 4682,
      "▁القديم": 4683,
      "▁اكبر": 4684,
      "▁تعت": 4685,
      "لبس": 4686,
      "▁مجرو": 4687,
      "▁واضح": 4688,
      "▁\"ص": 4689,
      "▁للغ": 4690,
      "▁منفصل": 4691,
      "▁والرا": 4692,
      "▁الخال": 4693,
      "▁نظم": 4694,
      "ليظ": 4695,
      "▁طوي": 4696,
      "يل\n": 4697,
      "▁المصري": 4698,
      "▁غز": 4699,
      "▁الخمر": 4700,
      "▁علي،": 4701,
      "▁الحقيقي": 4702,
      "▁العدو": 4703,
      "تف": 4704,
      "▁بخبر": 4705,
      "▁الرجز": 4706,
      "▁طريقة": 4707,
      "▁التس": 4708,
      "▁ادرك": 4709,
      "▁السيرا": 4710,
      "▁استع": 4711,
      "▁بيض": 4712,
      "٦،": 4713,
      "▁اشعار": 4714,
      "رتها": 4715,
      "▁يجر": 4716,
      "▁الضي": 4717,
      "▁مكة": 4718,
      "▁استغ": 4719,
      "▁امة": 4720,
      "▁الخل": 4721,
      "▁اضط": 4722,
      "▁السلطان": 4723,
      "▁بالنصب": 4724,
      "▁اخوك": 4725,
      "▁مطلقا،": 4726,
      "▁يستطيع": 4727,
      "▁الدليل": 4728,
      "عاة": 4729,
      "ناة": 4730,
      "▁وسياتي": 4731,
      "▁٤٥": 4732,
      "▁مدل": 4733,
      "▁عاطفة.": 4734,
      "▁الله.\n": 4735,
      "قيقة،": 4736,
      "▁فيا": 4737,
      "▁امور": 4738,
      "▁منطلق": 4739,
      "▁٤٣": 4740,
      "▁فخرج": 4741,
      "▁المقدر": 4742,
      "▁سهل": 4743,
      "▁تعرب": 4744,
      "عث": 4745,
      "▁لزيد": 4746,
      "نق": 4747,
      "▁منه.": 4748,
      "▁اذكر": 4749,
      "▁نفسك": 4750,
      "عوا": 4751,
      "ميرا": 4752,
      "▁التراب": 4753,
      "▁الخطا": 4754,
      "▁و\"ا": 4755,
      "▁تبا": 4756,
      "▁الدم": 4757,
      "▁البار": 4758,
      "لاحظ": 4759,
      "▁البت": 4760,
      "زمان": 4761,
      "▁فاء": 4762,
      "▁وجمعه": 4763,
      "وف،": 4764,
      "▁عارض": 4765,
      "▁البق": 4766,
      "ابا": 4767,
      "▁ممد": 4768,
      "▁المنادي": 4769,
      "قيس": 4770,
      "▁رحمه": 4771,
      "▁عظي": 4772,
      "▁٤٧": 4773,
      "▁اعظم": 4774,
      "▁اللبس": 4775,
      "▁اسماع": 4776,
      "▁ارتفع": 4777,
      "▁٤-": 4778,
      "▁الساكنين": 4779,
      "جح": 4780,
      "كلي": 4781,
      "▁يوا": 4782,
      "▁المقام": 4783,
      "▁تمي": 4784,
      "▁راجع": 4785,
      "ديب": 4786,
      "▁عبيد:": 4787,
      "▁وعبد": 4788,
      "سية": 4789,
      "▁لبن": 4790,
      "▁فاح": 4791,
      "▁يتكلم": 4792,
      "▁وتم": 4793,
      "▁فقط،": 4794,
      "]-": 4795,
      "▁يختلف": 4796,
      "▁اولئك": 4797,
      "▁الوجود": 4798,
      "▁الحل": 4799,
      "ماه": 4800,
      "▁وكتاب": 4801,
      "بحث": 4802,
      "▁يقدم": 4803,
      "▁الته": 4804,
      "طور": 4805,
      "ته\n": 4806,
      "قيه": 4807,
      "فيا": 4808,
      "▁حرب": 4809,
      "▁مضار": 4810,
      "عدد": 4811,
      "زت": 4812,
      "▁السماع": 4813,
      "▁درهم": 4814,
      "صص": 4815,
      "▁الاسب": 4816,
      "▁اعرابي": 4817,
      "▁مخل": 4818,
      "▁النص": 4819,
      "▁ضمن": 4820,
      "▁فحينئذ": 4821,
      "▁\"او": 4822,
      "٤\n": 4823,
      "خله": 4824,
      "▁ايضا:\n": 4825,
      "ة؛": 4826,
      "ولت": 4827,
      "▁سار": 4828,
      "طابق": 4829,
      "▁عمرو:": 4830,
      "▁(فع": 4831,
      "▁التسهيل": 4832,
      "▁ابتداء": 4833,
      "▁ذوات": 4834,
      "▁اشهر": 4835,
      "▁ظرفا": 4836,
      "▁[ف": 4837,
      "▁الجوا": 4838,
      "▁[البقرة:": 4839,
      "▁الحركات": 4840,
      "▁الوليد": 4841,
      "▁الشجر": 4842,
      "▁يشترط": 4843,
      "▁فقول": 4844,
      "▁كري": 4845,
      "▁المكس": 4846,
      "▁وانها": 4847,
      "▁فغ": 4848,
      "▁لعم": 4849,
      "ول:": 4850,
      "قن": 4851,
      "▁عجز": 4852,
      "▁غلب": 4853,
      "▁يخلو": 4854,
      "رات،": 4855,
      "ذاء": 4856,
      "▁رواه": 4857,
      "▁التو": 4858,
      "▁كفي": 4859,
      "▁المنت": 4860,
      "▁روح": 4861,
      "▁ضمة": 4862,
      "▁الحلق": 4863,
      "ر:": 4864,
      "▁حاتم": 4865,
      "▁الكاتب": 4866,
      "▁يقاس": 4867,
      "▁يوجب": 4868,
      "▁المحا": 4869,
      "▁ناقة": 4870,
      "▁تفيد": 4871,
      "▁(٥)\n": 4872,
      "▁هو:": 4873,
      "ختلاف": 4874,
      "▁عينا": 4875,
      "▁خارج": 4876,
      "شه": 4877,
      "٤.\n": 4878,
      "ثار": 4879,
      "▁الحدث": 4880,
      "▁الوافر": 4881,
      "شيد": 4882,
      "▁ره": 4883,
      "▁ستة": 4884,
      "▁يكت": 4885,
      "▁الكلب": 4886,
      "▁يدا": 4887,
      "وع،": 4888,
      "حيم": 4889,
      "▁الحسين": 4890,
      "رة.\n": 4891,
      "▁اسباب": 4892,
      "▁-:": 4893,
      "▁الاضاف": 4894,
      "▁العج": 4895,
      "لاك": 4896,
      "▁تعرض": 4897,
      "▁اتبع": 4898,
      "▁الظن": 4899,
      "▁محذوفة": 4900,
      "▁معجم": 4901,
      "▁قلبه": 4902,
      "▁غني": 4903,
      "▁المركب": 4904,
      "▁فقيل:": 4905,
      "▁ورس": 4906,
      "▁وحكم": 4907,
      "▁وسن": 4908,
      "▁وبعضهم": 4909,
      "▁المسلمين": 4910,
      "▁عس": 4911,
      "ثلاث": 4912,
      "▁الزائد": 4913,
      "▁سكن": 4914,
      "انيا": 4915,
      "▁(مع": 4916,
      "▁المسمي": 4917,
      "▁٤٦": 4918,
      "▁بالمد": 4919,
      "جازي": 4920,
      "▁مطر": 4921,
      "▁لتح": 4922,
      "▁نم": 4923,
      "▁٤٨": 4924,
      "▁العربية،": 4925,
      "▁بطل": 4926,
      "▁للرجل": 4927,
      "▁العب": 4928,
      "▁الجلالة": 4929,
      "قاط": 4930,
      "حو:": 4931,
      "ري.": 4932,
      "▁خطاب": 4933,
      "▁(ول": 4934,
      "علة": 4935,
      "▁ده": 4936,
      "▁ومح": 4937,
      "▁اللغوية": 4938,
      "▁بالفاء": 4939,
      "▁معم": 4940,
      "▁الاعلام": 4941,
      "▁داخل": 4942,
      "▁ساعة": 4943,
      "▁خذ": 4944,
      "لائكة": 4945,
      "▁ا.": 4946,
      "▁النسبة": 4947,
      "▁بالاضافة.": 4948,
      "▁جمعا": 4949,
      "▁الدع": 4950,
      "▁تبين": 4951,
      "▁امتنع": 4952,
      "▁عمله": 4953,
      "كرمت": 4954,
      "▁عف": 4955,
      "▁القصيدة": 4956,
      "درسة": 4957,
      "ادة،": 4958,
      "▁مشد": 4959,
      "▁صع": 4960,
      "▁شهد": 4961,
      "▁السر": 4962,
      "▁مزيد": 4963,
      "▁حدثني": 4964,
      "▁نست": 4965,
      "▁سبي": 4966,
      "صاب": 4967,
      "▁بمثل": 4968,
      "▁لز": 4969,
      "▁وتقدم": 4970,
      "درك": 4971,
      "ظا": 4972,
      "▁ولام": 4973,
      "▁اياك": 4974,
      "▁اطلق": 4975,
      "▁(بوشر).\n": 4976,
      "وعا": 4977,
      "▁اهله": 4978,
      "▁وذو": 4979,
      "▁اتخذ": 4980,
      "▁\"ج": 4981,
      "▁القليل": 4982,
      "▁١:": 4983,
      "▁الاعراب.\n": 4984,
      "▁عظم": 4985,
      "▁وقبل": 4986,
      "٠٠": 4987,
      "▁امكن": 4988,
      "طت": 4989,
      "▁هنا،": 4990,
      "ديا": 4991,
      "▁ضار": 4992,
      "روق": 4993,
      "▁للناس": 4994,
      "▁انشده": 4995,
      "▁نور": 4996,
      "▁باخ": 4997,
      "ل:": 4998,
      "▁حقا": 4999,
      "▁والوجه": 5000,
      "▁قالت:": 5001,
      "▁وقال:\n": 5002,
      "ات.\n": 5003,
      "▁جي": 5004,
      "▁فذكر": 5005,
      "حوا": 5006,
      "▁العجاج": 5007,
      "▁فاعله": 5008,
      "▁فمع": 5009,
      "▁العيش": 5010,
      "صحاب": 5011,
      "ادم": 5012,
      "ذم": 5013,
      "▁صرح": 5014,
      "▁الجميع": 5015,
      "▁وكقول": 5016,
      "▁اخري،": 5017,
      "▁نحو:\n": 5018,
      "نا\n": 5019,
      "▁\"لا\"": 5020,
      "▁سكون": 5021,
      "▁جف": 5022,
      "▁وتص": 5023,
      "ري.\n": 5024,
      "▁باي": 5025,
      "▁مرض": 5026,
      "▁الازهري:": 5027,
      "▁متص": 5028,
      "▁يحب": 5029,
      "لتا": 5030,
      "▁والفر": 5031,
      "اتهم": 5032,
      "▁يحصل": 5033,
      "▁القاموس": 5034,
      "مائر": 5035,
      "واك": 5036,
      "ذار": 5037,
      "قلبة": 5038,
      "ريس": 5039,
      "جيء": 5040,
      "▁بضمير": 5041,
      "▁للف": 5042,
      "▁كذب": 5043,
      "صه": 5044,
      "▁الاحوال": 5045,
      "▁منق": 5046,
      "عدت": 5047,
      "هما.\n": 5048,
      "▁ارسل": 5049,
      "▁بكون": 5050,
      "▁منطل": 5051,
      "▁الينا": 5052,
      "▁منز": 5053,
      "▁العبا": 5054,
      "▁القصر": 5055,
      "▁بف": 5056,
      "ماء،": 5057,
      "▁الاثير": 5058,
      "▁عكس": 5059,
      "مرت": 5060,
      "▁سواد": 5061,
      "▁العراق": 5062,
      "▁هاهنا": 5063,
      "▁غلط": 5064,
      "٧،": 5065,
      "لكم": 5066,
      "▁حكاية": 5067,
      "▁لكثرة": 5068,
      "لم،": 5069,
      "▁الصالح": 5070,
      "▁غالبا": 5071,
      "▁ويوم": 5072,
      "▁اهت": 5073,
      "▁فاف": 5074,
      "▁ويك": 5075,
      "▁العلامة": 5076,
      "▁السالم": 5077,
      "▁الماء،": 5078,
      "▁مفتوحة": 5079,
      "فة،": 5080,
      "▁ليكون": 5081,
      "ال.\n": 5082,
      "حك": 5083,
      "▁والمس": 5084,
      "▁\"اي": 5085,
      "▁المبالغة": 5086,
      "▁[خ": 5087,
      "▁(ج)": 5088,
      "▁خبره": 5089,
      "▁يوصف": 5090,
      "▁قبله،": 5091,
      "▁يعرض": 5092,
      "▁الجسم": 5093,
      "▁ينفع": 5094,
      "فاد": 5095,
      "▁شبيه": 5096,
      "قتها": 5097,
      "ليلا": 5098,
      "عرف": 5099,
      "▁الشريف": 5100,
      "▁بانها": 5101,
      "▁تلحق": 5102,
      "▁السابقة": 5103,
      "وا.": 5104,
      "▁الدرا": 5105,
      "▁والصحيح": 5106,
      "▁للان": 5107,
      "▁ياكل": 5108,
      "▁المصدر،": 5109,
      "▁شاع": 5110,
      "▁الراجز:\n": 5111,
      "▁الخز": 5112,
      "▁المدح": 5113,
      "فصيل": 5114,
      "▁اخبرنا": 5115,
      "▁الخفيف": 5116,
      "▁ادب": 5117,
      "▁الاخيرة": 5118,
      "يين": 5119,
      "هج": 5120,
      "▁وفع": 5121,
      "▁عوضا": 5122,
      "▁الحالة": 5123,
      "▁خا": 5124,
      "انية،": 5125,
      "▁الجمال": 5126,
      "▁اللحي": 5127,
      "▁اننا": 5128,
      "▁مفعل": 5129,
      "▁لمعني": 5130,
      "▁وايا": 5131,
      "▁وسا": 5132,
      "▁وقلت": 5133,
      "▁لابد": 5134,
      "▁السيرافي": 5135,
      "▁والمست": 5136,
      "▁لقول": 5137,
      "▁\"من\"": 5138,
      "▁كلمات": 5139,
      "▁عود": 5140,
      "▁توفي": 5141,
      "▁النخل": 5142,
      "▁نافية": 5143,
      "▁كذا،": 5144,
      "▁تخفي": 5145,
      "▁تشت": 5146,
      "▁عت": 5147,
      "▁النك": 5148,
      "احة": 5149,
      "اء\"": 5150,
      "▁مكر": 5151,
      "▁الجمع،": 5152,
      "▁الفرنسية": 5153,
      "ون\"": 5154,
      "مررت": 5155,
      "▁هو.": 5156,
      "٤]": 5157,
      "▁لامر": 5158,
      "▁الانف": 5159,
      "▁التفسير": 5160,
      "▁واقت": 5161,
      "ياط": 5162,
      "غدا": 5163,
      "▁ماله": 5164,
      "▁البح": 5165,
      "▁وضعت": 5166,
      "▁بزيادة": 5167,
      "▁البيت،": 5168,
      "طح": 5169,
      "▁باست": 5170,
      "ريج": 5171,
      "▁بالابت": 5172,
      "▁الصاغ": 5173,
      "▁امنوا": 5174,
      "لة:": 5175,
      "صره": 5176,
      "▁انح": 5177,
      "▁كب": 5178,
      "د.": 5179,
      "▁وحي": 5180,
      "▁والاش": 5181,
      "نا.": 5182,
      "اجم": 5183,
      "طفي": 5184,
      "▁الكريمة": 5185,
      "▁قومه": 5186,
      "تيبة": 5187,
      "▁بير": 5188,
      "▁فعيل": 5189,
      "▁لفعل": 5190,
      "▁ارادة": 5191,
      "▁رسم": 5192,
      "▁انش": 5193,
      "▁تراه": 5194,
      "▁والثانية": 5195,
      "▁والار": 5196,
      "▁السراج": 5197,
      "▁جامع": 5198,
      "▁يسال": 5199,
      "يم،": 5200,
      "▁فط": 5201,
      "▁اسن": 5202,
      "▁كذ": 5203,
      "▁جو": 5204,
      "▁ابيه": 5205,
      "▁المم": 5206,
      "▁الطل": 5207,
      "▁الظرفية": 5208,
      "▁تعدي": 5209,
      "▁النقل": 5210,
      "▁اخو": 5211,
      "▁حبي": 5212,
      "▁جارية": 5213,
      "شير": 5214,
      "▁حقه": 5215,
      "▁للض": 5216,
      "▁ناحية": 5217,
      "فقة": 5218,
      "▁بالاضافة.\n": 5219,
      "▁حذفه": 5220,
      "▁المعد": 5221,
      "▁اظهر": 5222,
      "▁فاخذ": 5223,
      "▁يكثر": 5224,
      "▁الدر": 5225,
      "▁سبعة": 5226,
      "▁الصبا": 5227,
      "▁فالجواب": 5228,
      "▁حضر": 5229,
      "ضه": 5230,
      "▁واقع": 5231,
      "اف،": 5232,
      "▁الخلا": 5233,
      "▁جوابا": 5234,
      "▁القصد": 5235,
      "▁مسائل": 5236,
      "قون": 5237,
      "▁٤٩": 5238,
      "▁لها.\n": 5239,
      "▁مخصوص": 5240,
      "انس": 5241,
      "▁والحق": 5242,
      "▁الغني": 5243,
      "فرة": 5244,
      "وبه": 5245,
      "▁بحال": 5246,
      "▁فتن": 5247,
      "ويا": 5248,
      "صت": 5249,
      "▁احو": 5250,
      "▁احق": 5251,
      "طابقة": 5252,
      "▁غا": 5253,
      "رحم": 5254,
      "▁المعجم": 5255,
      "فهام،": 5256,
      "▁فتحة": 5257,
      "▁متعل": 5258,
      "▁كناية": 5259,
      "▁ومعناه": 5260,
      "▁غريب": 5261,
      "▁البحت": 5262,
      "▁تشبه": 5263,
      "▁ذهبت": 5264,
      "▁السري": 5265,
      "خ:": 5266,
      "▁تركيب": 5267,
      "▁اصبحت": 5268,
      "▁(٤)،": 5269,
      "▁للمفعول": 5270,
      "▁عرق": 5271,
      "▁تارة": 5272,
      "▁جرت": 5273,
      "عان": 5274,
      "▁تقي": 5275,
      "ما.": 5276,
      "▁تلق": 5277,
      "صاري": 5278,
      "▁\"علي": 5279,
      "▁اثبت": 5280,
      "▁المجموع": 5281,
      "▁توهم": 5282,
      "يران": 5283,
      "▁العبارة": 5284,
      "▁بالط": 5285,
      "▁لك،": 5286,
      "▁عليه:": 5287,
      "▁وصفا": 5288,
      "▁قس": 5289,
      "ن\"": 5290,
      "٨،": 5291,
      "راء:": 5292,
      "▁والثالث": 5293,
      "▁رق": 5294,
      "▁راك": 5295,
      "▁نقي": 5296,
      "▁السل": 5297,
      "▁طري": 5298,
      "▁كنتم": 5299,
      "▁وجوب": 5300,
      "▁كقولهم:": 5301,
      "▁والعين": 5302,
      "▁قدمت": 5303,
      "▁ترفع": 5304,
      "▁للمت": 5305,
      "ولات": 5306,
      "▁ضربته": 5307,
      "▁جمعه": 5308,
      "▁جميل": 5309,
      "▁\"الت": 5310,
      "▁لاحد": 5311,
      "▁ماضي": 5312,
      "▁القطع": 5313,
      "▁كره": 5314,
      "▁يمت": 5315,
      "بك": 5316,
      "نز": 5317,
      "▁نشر": 5318,
      "هما:": 5319,
      "خرة": 5320,
      "▁كه": 5321,
      "اهر،": 5322,
      "ع.": 5323,
      "▁للمجه": 5324,
      "مل،": 5325,
      "▁اللغة،": 5326,
      "ي\n": 5327,
      "▁(الك": 5328,
      "▁فعول": 5329,
      "▁خبرها": 5330,
      "▁يلحق": 5331,
      "سته": 5332,
      "▁البعيد": 5333,
      "▁بيننا": 5334,
      "▁النبات": 5335,
      "▁به:": 5336,
      "▁وـ": 5337,
      "▁(وان": 5338,
      "▁وتش": 5339,
      "▁الاولي،": 5340,
      "ربه": 5341,
      "▁احيانا": 5342,
      "▁التنا": 5343,
      "٥\n": 5344,
      "▁المصدرية": 5345,
      "▁او:": 5346,
      "▁وخمس": 5347,
      "▁ميت": 5348,
      "▁متصرف": 5349,
      "دوا": 5350,
      "▁اواخر": 5351,
      "▁المسا": 5352,
      "▁نهي": 5353,
      "▁جيد": 5354,
      "▁ينسب": 5355,
      "ذا\"": 5356,
      "ير.": 5357,
      "وجيه": 5358,
      "▁يغني": 5359,
      "▁يخت": 5360,
      "▁المام": 5361,
      "▁نط": 5362,
      "▁النفوس": 5363,
      "زمة": 5364,
      "▁اليد": 5365,
      "▁موص": 5366,
      "ذوذ": 5367,
      "▁الروح": 5368,
      "لفت": 5369,
      "روا": 5370,
      "▁قوما": 5371,
      "▁عمي": 5372,
      "ئمة": 5373,
      "▁المحدث": 5374,
      "▁شج": 5375,
      "▁المتاخر": 5376,
      "▁معرو": 5377,
      "▁المصنف:": 5378,
      "ما.\n": 5379,
      "▁الاجتماع": 5380,
      "▁ارس": 5381,
      "▁وكانه": 5382,
      "▁سوال": 5383,
      "▁قرينة": 5384,
      "▁منه:": 5385,
      "▁خاف": 5386,
      "ضرة": 5387,
      "روم": 5388,
      "▁قائم،": 5389,
      "▁التنبيه": 5390,
      "▁ومد": 5391,
      "جتمع": 5392,
      "▁والجواب": 5393,
      "▁الزمخشري": 5394,
      "ن.": 5395,
      "▁النجم": 5396,
      "▁تنت": 5397,
      "▁١).\n": 5398,
      "▁خلال": 5399,
      "وقا": 5400,
      "▁صيغ": 5401,
      "▁مدا": 5402,
      "▁مقط": 5403,
      "▁سرت": 5404,
      "راب،": 5405,
      "▁قامت": 5406,
      "▁العوامل": 5407,
      "مانية": 5408,
      "▁الند": 5409,
      "▁الشك": 5410,
      "▁الدعاء": 5411,
      "▁ونقل": 5412,
      "▁مظ": 5413,
      "▁البطن": 5414,
      "▁وتقدير": 5415,
      "▁ابعد": 5416,
      "شيخ": 5417,
      "▁وقولهم:": 5418,
      "▁بالهاء": 5419,
      "▁ونس": 5420,
      "▁للتانيث": 5421,
      "▁مسد": 5422,
      "▁يديه": 5423,
      "▁سائ": 5424,
      "▁غري": 5425,
      "▁وبل": 5426,
      "▁صديق": 5427,
      "عها": 5428,
      "▁بثبوت": 5429,
      "تين،": 5430,
      "▁الاعل": 5431,
      "▁قياسا": 5432,
      "واص": 5433,
      "▁القاهر": 5434,
      "▁الرضي": 5435,
      "▁حملا": 5436,
      "نام": 5437,
      "▁امتناع": 5438,
      "▁بالفتحة.": 5439,
      "▁نطق": 5440,
      "١١": 5441,
      "▁والامر": 5442,
      "▁رجل،": 5443,
      "▁المبتدا،": 5444,
      "▁قدي": 5445,
      "روة": 5446,
      "ير.\n": 5447,
      "▁مجد": 5448,
      "▁الصور": 5449,
      "▁ترت": 5450,
      "▁جسم": 5451,
      "▁ما:": 5452,
      "▁المقت": 5453,
      "لة،": 5454,
      "ائز": 5455,
      "▁عائد": 5456,
      "▁المعارف": 5457,
      "▁وقب": 5458,
      "▁الخفي": 5459,
      "▁موت": 5460,
      "▁اليها،": 5461,
      "لاء،": 5462,
      "▁ضبط": 5463,
      "▁موخر": 5464,
      "▁يبر": 5465,
      "▁العط": 5466,
      "▁شاه": 5467,
      "ء،": 5468,
      "▁\"د": 5469,
      "ضحك": 5470,
      "▁تلي": 5471,
      "▁ويمكن": 5472,
      "▁التاس": 5473,
      "ال.": 5474,
      "▁نسي": 5475,
      "ئة،": 5476,
      "▁لذي": 5477,
      "▁الراب": 5478,
      "▁مقتضي": 5479,
      "▁فانهم": 5480,
      "▁المف": 5481,
      "▁العلي": 5482,
      "اني\n": 5483,
      "▁تعلي": 5484,
      "بتد": 5485,
      "وادث": 5486,
      "▁اسمع": 5487,
      "▁مختلفة": 5488,
      "بيض": 5489,
      "▁وسلم": 5490,
      "▁وهن": 5491,
      "ح.": 5492,
      "▁البك": 5493,
      "▁تعل": 5494,
      "▁للام": 5495,
      "▁حاله": 5496,
      "▁زين": 5497,
      "▁المقال": 5498,
      "▁ولست": 5499,
      "▁روبة": 5500,
      "▁وسر": 5501,
      "▁شذ": 5502,
      "▁سبحان": 5503,
      "▁فيمن": 5504,
      "▁يث": 5505,
      "▁محمود": 5506,
      "▁(ال)": 5507,
      "▁بوجه": 5508,
      "▁المصرية": 5509,
      "بث": 5510,
      "▁قمت": 5511,
      "▁المشار": 5512,
      "▁والجر": 5513,
      "▁الالف،": 5514,
      "حة،": 5515,
      "شرون": 5516,
      "▁كلهم": 5517,
      "اث": 5518,
      "▁مجا": 5519,
      "ناك": 5520,
      "ائها": 5521,
      "▁مفهوم": 5522,
      "▁المتعدي": 5523,
      "▁الكلمة،": 5524,
      "ح.\n": 5525,
      "ففة": 5526,
      "ورها": 5527,
      "٩،": 5528,
      "▁كانهم": 5529,
      "▁الجامع": 5530,
      "▁(اب": 5531,
      "▁بلغت": 5532,
      "▁وعرف": 5533,
      "▁تنصب": 5534,
      "▁صفات": 5535,
      "▁القوة": 5536,
      "▁ابيض": 5537,
      "▁علي\n": 5538,
      "▁حديد": 5539,
      "جات": 5540,
      "لي:": 5541,
      "▁بالكسر،": 5542,
      "▁ظاهرة": 5543,
      "▁بو": 5544,
      "▁اسرع": 5545,
      "ية؛": 5546,
      "رب\n": 5547,
      "ومه": 5548,
      "▁الجبال": 5549,
      "▁بحث": 5550,
      "▁ابدال": 5551,
      "▁لوقوع": 5552,
      "▁ل\n": 5553,
      "▁كاس": 5554,
      "▁يترك": 5555,
      "دة:": 5556,
      "خر،": 5557,
      "▁رت": 5558,
      "▁اهلك": 5559,
      "▁مصدرا": 5560,
      "▁جـ": 5561,
      "ئم": 5562,
      "▁اعلم.\n": 5563,
      "رج،": 5564,
      "▁\"فعل\"": 5565,
      "وم\n": 5566,
      "بيه،": 5567,
      "▁والمح": 5568,
      "▁يفصل": 5569,
      "▁الخام": 5570,
      "ن.\n": 5571,
      "▁(ر": 5572,
      "▁اعم": 5573,
      "▁مذه": 5574,
      "▁يحكم": 5575,
      "▁نري": 5576,
      "▁الاعراب.": 5577,
      "▁مفتوح": 5578,
      "▁الشري": 5579,
      "▁شاهد": 5580,
      "▁داء": 5581,
      "عة.": 5582,
      "▁يقول:\n": 5583,
      "ية:\n": 5584,
      "▁المغني": 5585,
      "▁الامة": 5586,
      "▁اساس": 5587,
      "فاه": 5588,
      "▁والضمير": 5589,
      "▁حسنا": 5590,
      "▁والمش": 5591,
      "▁كرم": 5592,
      "▁المحذوفة": 5593,
      "▁النصب،": 5594,
      "د.\n": 5595,
      "كرت": 5596,
      "▁المي": 5597,
      "▁النهي": 5598,
      "▁ارادوا": 5599,
      "▁شرا": 5600,
      "▁ممت": 5601,
      "▁عبر": 5602,
      "▁تثنية": 5603,
      "▁بجمع": 5604,
      "▁رحم": 5605,
      "فرت": 5606,
      "كو": 5607,
      "▁(وي": 5608,
      "▁واحسن": 5609,
      "▁(علي": 5610,
      "▁الشان": 5611,
      "طوط": 5612,
      "تيا": 5613,
      "▁حبيب": 5614,
      "▁اولاد": 5615,
      "ران": 5616,
      "همز": 5617,
      "▁الظروف": 5618,
      "▁فقالت": 5619,
      "▁جذ": 5620,
      "▁يكسر": 5621,
      "▁سفي": 5622,
      "▁٢:": 5623,
      "▁هلك": 5624,
      "▁[في": 5625,
      "▁تسمع": 5626,
      "قلة": 5627,
      "در،": 5628,
      "لامي": 5629,
      "▁الذهب": 5630,
      "▁القمر": 5631,
      "لا:": 5632,
      "▁تثبت": 5633,
      "▁بعدها،": 5634,
      "▁المسائل": 5635,
      "▁وارد": 5636,
      "▁٢).\n": 5637,
      "▁اسماعيل": 5638,
      "ذاك": 5639,
      "▁الواقعة": 5640,
      "▁انفسهم": 5641,
      "▁\"خ": 5642,
      "▁التنو": 5643,
      "▁دراسة": 5644,
      "▁تاج": 5645,
      "▁جب": 5646,
      "▁ربه": 5647,
      "▁مركب": 5648,
      "▁الحوا": 5649,
      "▁الجمعة": 5650,
      "رورة،": 5651,
      "حات": 5652,
      "▁رفعت": 5653,
      "ابلة": 5654,
      "▁ابنه": 5655,
      "افي": 5656,
      "▁ثياب": 5657,
      "ج\n": 5658,
      "قاع": 5659,
      "▁والمعني:": 5660,
      "▁باط": 5661,
      "▁فام": 5662,
      "▁الاسناد": 5663,
      "▁ملي": 5664,
      "ب.": 5665,
      "▁المقا": 5666,
      "▁واختلف": 5667,
      "وي:": 5668,
      "▁مجلس": 5669,
      "وان،": 5670,
      "▁قلة": 5671,
      "▁قرية": 5672,
      "▁صر": 5673,
      "▁٥٠": 5674,
      "▁\"فع": 5675,
      "▁وحا": 5676,
      "▁مرفوعا": 5677,
      "▁العص": 5678,
      "▁الشيء،": 5679,
      "▁الفائدة": 5680,
      "▁الانجلي": 5681,
      "▁بالان": 5682,
      "احظ": 5683,
      "▁وردت": 5684,
      "▁الجاهلية": 5685,
      "ربية": 5686,
      "▁لغات": 5687,
      "نيت": 5688,
      "▁منزل": 5689,
      "▁مدينة": 5690,
      "▁مهما": 5691,
      "▁\"اب": 5692,
      "▁بصفة": 5693,
      "رون": 5694,
      "لي\n": 5695,
      "▁المفع": 5696,
      "▁فحذفت": 5697,
      "▁تحد": 5698,
      "▁اعرابه": 5699,
      "زان": 5700,
      "▁ولت": 5701,
      "▁الثياب": 5702,
      "▁والمونث": 5703,
      "حقه": 5704,
      "▁والمصدر": 5705,
      "غ،": 5706,
      "▁ممنوع": 5707,
      "▁منظ": 5708,
      "▁مسب": 5709,
      "▁كتبت": 5710,
      "وا.\n": 5711,
      "فذ": 5712,
      "▁نفع": 5713,
      "▁عيش": 5714,
      "▁الصبي": 5715,
      "مدة": 5716,
      "▁بقاء": 5717,
      "▁الرياح": 5718,
      "▁للمع": 5719,
      "▁ازيد": 5720,
      "فسره": 5721,
      "▁منصوبة": 5722,
      "حكم": 5723,
      "٥]": 5724,
      "▁يومن": 5725,
      "وب\n": 5726,
      "▁جمعت": 5727,
      "▁والعرب": 5728,
      "▁اطلاق": 5729,
      "▁حيا": 5730,
      "▁الخمسة": 5731,
      "▁بياض": 5732,
      "▁وغيرها": 5733,
      "▁ناب": 5734,
      "▁خالف": 5735,
      "▁وتخ": 5736,
      "سب،": 5737,
      "صحي": 5738,
      "▁(٥).\n": 5739,
      "▁ووج": 5740,
      "▁الحيا": 5741,
      "▁ويش": 5742,
      "▁وامت": 5743,
      "▁ومست": 5744,
      "▁برج": 5745,
      "▁يقطع": 5746,
      "▁يعيش": 5747,
      "▁الكتابة": 5748,
      "▁تغيير": 5749,
      "صاد": 5750,
      "▁لات": 5751,
      "▁الاصلي": 5752,
      "دية": 5753,
      "▁الندي": 5754,
      "▁بالضم:": 5755,
      "داع": 5756,
      "▁يخالف": 5757,
      "▁والال": 5758,
      "▁الحجر": 5759,
      "▁لعمر": 5760,
      "▁لبيد": 5761,
      "سين": 5762,
      "▁سرا": 5763,
      "▁رسالة": 5764,
      "▁ذلك؛": 5765,
      "▁الحن": 5766,
      "▁(بال": 5767,
      "▁سح": 5768,
      "غمت": 5769,
      "▁نبه": 5770,
      "▁الجاحظ": 5771,
      "▁الخ)": 5772,
      "▁الحمام": 5773,
      "شاف": 5774,
      "▁مقر": 5775,
      "▁الاتص": 5776,
      "▁العدل": 5777,
      "▁مجمع": 5778,
      "حظ": 5779,
      "▁التانيث،": 5780,
      "▁اوائل": 5781,
      "▁والحا": 5782,
      "قا\n": 5783,
      "وسع": 5784,
      "▁هدي": 5785,
      "عدل": 5786,
      "▁تتبع": 5787,
      "▁برو": 5788,
      "▁جاه": 5789,
      "▁يخبر": 5790,
      "ف\n": 5791,
      "▁واقعة": 5792,
      "انون": 5793,
      "▁عظ": 5794,
      "▁تحدث": 5795,
      "▁بالباء": 5796,
      "▁الفرع": 5797,
      "▁سيما": 5798,
      "▁ادني": 5799,
      "▁يعقل": 5800,
      "زوج": 5801,
      "لاما": 5802,
      "س.": 5803,
      "▁لزوم": 5804,
      "٥.\n": 5805,
      "▁المسجد": 5806,
      "قطاع": 5807,
      "▁السياس": 5808,
      "▁وتهذيب": 5809,
      "▁القاهرة": 5810,
      "دون": 5811,
      "قة:": 5812,
      "▁٧)": 5813,
      "▁وتل": 5814,
      "▁الحمار": 5815,
      "▁والكسر": 5816,
      "لاه": 5817,
      "▁الشاف": 5818,
      "▁النها": 5819,
      "▁يحا": 5820,
      "▁الجل": 5821,
      "▁النون،": 5822,
      "▁زه": 5823,
      "▁لئن": 5824,
      "▁لحق": 5825,
      "راعي": 5826,
      "وحا": 5827,
      "▁ينطق": 5828,
      "▁السج": 5829,
      "▁الخارج": 5830,
      "▁متعدي": 5831,
      "▁حمد": 5832,
      "▁الغاية": 5833,
      "▁بمحذوف": 5834,
      "لاع": 5835,
      "ناهم": 5836,
      "▁وقرا": 5837,
      "هما.": 5838,
      "شر،": 5839,
      "▁وحم": 5840,
      "......": 5841,
      "▁مانع": 5842,
      "▁القوا": 5843,
      "▁الغريب": 5844,
      "▁وتر": 5845,
      "▁ودع": 5846,
      "هول": 5847,
      "▁عنها،": 5848,
      "▁الشمال": 5849,
      "▁بعث": 5850,
      "▁مجتمع": 5851,
      "▁الزائدة": 5852,
      "▁معلوم": 5853,
      "لاص": 5854,
      "▁مقدمة": 5855,
      "▁مكسورة": 5856,
      "▁مالا": 5857,
      "قرا": 5858,
      "▁عوا": 5859,
      "▁حذ": 5860,
      "▁اموال": 5861,
      "▁يدعي": 5862,
      "▁واحد.\n": 5863,
      "▁لبني": 5864,
      "▁كمن": 5865,
      "▁ومتي": 5866,
      "▁يحل": 5867,
      "▁موصوف": 5868,
      "اء)": 5869,
      "▁بكم": 5870,
      "▁البط": 5871,
      "▁حرا": 5872,
      "كاكي": 5873,
      "▁اهلها": 5874,
      "خاص": 5875,
      "فعة": 5876,
      "▁المحيط": 5877,
      "▁وحرف": 5878,
      "▁المتوفي": 5879,
      "▁خوف": 5880,
      "رجح": 5881,
      "▁(غ": 5882,
      "▁بعض،": 5883,
      "▁بذي": 5884,
      "▁بالاست": 5885,
      "▁مثال:": 5886,
      "▁الذهن": 5887,
      "▁لها:": 5888,
      "▁المازني": 5889,
      "▁القيامة": 5890,
      "▁للال": 5891,
      "▁اقوال": 5892,
      "▁ضميرا": 5893,
      "▁سك": 5894,
      "▁الشت": 5895,
      "▁اظهار": 5896,
      "▁المض": 5897,
      "▁تعين": 5898,
      "▁ولذا": 5899,
      "▁بنيت": 5900,
      "ثبات": 5901,
      "▁وتج": 5902,
      "▁وفلان": 5903,
      "▁مروان": 5904,
      "▁الصغ": 5905,
      "▁الكسائ": 5906,
      "▁شيخنا": 5907,
      "▁الاشتقاق": 5908,
      "ره\n": 5909,
      "▁بامر": 5910,
      "▁ساع": 5911,
      "ا)": 5912,
      "▁كق": 5913,
      "رفوض": 5914,
      "▁الجر،": 5915,
      "▁اعرب": 5916,
      "▁اطل": 5917,
      "لا.\n": 5918,
      "▁نبي": 5919,
      "▁(٧)": 5920,
      "▁عاص": 5921,
      "▁والاصل:": 5922,
      "▁ينزل": 5923,
      "▁بغداد": 5924,
      "واكب": 5925,
      "▁بالتاء": 5926,
      "▁يضع": 5927,
      "▁التقي": 5928,
      "▁غضب": 5929,
      "▁يدع": 5930,
      "رش": 5931,
      "▁واللام،": 5932,
      "▁تكر": 5933,
      "▁البيض": 5934,
      "فتاح": 5935,
      "▁الثالثة": 5936,
      "ساط": 5937,
      "ب.\n": 5938,
      "هورة": 5939,
      "▁الكر": 5940,
      "▁ويجمع": 5941,
      "شرق": 5942,
      "حتاج": 5943,
      "▁تمت": 5944,
      "▁ص١": 5945,
      "▁المعرب": 5946,
      "ويد": 5947,
      "▁يمين": 5948,
      "▁(ولا": 5949,
      "▁الغا": 5950,
      "١:": 5951,
      "▁رحمة": 5952,
      "▁المقصور": 5953,
      "▁تيم": 5954,
      "▁حت": 5955,
      "▁الطائ": 5956,
      "▁الاعمال": 5957,
      "▁هذا:": 5958,
      "ان؛": 5959,
      "لة.": 5960,
      "▁قطعة": 5961,
      "▁الخد": 5962,
      "▁سبح": 5963,
      "▁اضي": 5964,
      "▁تبدل": 5965,
      "▁و-:": 5966,
      "قته": 5967,
      "▁هز": 5968,
      "▁راج": 5969,
      "داخل": 5970,
      "▁الطبيعة": 5971,
      "▁(فعل)": 5972,
      "▁الرابع:": 5973,
      "▁حوا": 5974,
      "▁هو،": 5975,
      "▁موق": 5976,
      "الي،": 5977,
      "▁البصرة": 5978,
      "▁يعتبر": 5979,
      "ولها": 5980,
      "▁وقفت": 5981,
      "ركة،": 5982,
      "▁الامم": 5983,
      "لا)": 5984,
      "ار:": 5985,
      "▁ملوك": 5986,
      "ئها": 5987,
      "▁عامة": 5988,
      "▁بالتح": 5989,
      "▁اختيار": 5990,
      "▁يحفظ": 5991,
      "▁حكمه": 5992,
      "حط": 5993,
      "▁الحاجة": 5994,
      "▁وغيره،": 5995,
      "▁يومئذ": 5996,
      "▁الرباعي": 5997,
      "▁الجملة،": 5998,
      "▁يشعر": 5999,
      "▁يفر": 6000,
      "لاد": 6001,
      "▁الامثال": 6002,
      "▁معين": 6003,
      "▁النب": 6004,
      "صبه": 6005,
      "▁اتباع": 6006,
      "غناء": 6007,
      "▁والذين": 6008,
      "١؛": 6009,
      "▁وقر": 6010,
      "فتحت": 6011,
      "▁كام": 6012,
      "▁موضعه": 6013,
      "▁المادة": 6014,
      "▁مجيء": 6015,
      "▁ولها": 6016,
      "▁نعم،": 6017,
      "▁كـ:": 6018,
      "▁العض": 6019,
      "▁الهمزة،": 6020,
      "▁الغلام": 6021,
      "▁يصرف": 6022,
      "▁تركت": 6023,
      "بوب": 6024,
      "▁عار": 6025,
      "▁لاع": 6026,
      "ام\n": 6027,
      "باق": 6028,
      "▁الشرط،": 6029,
      "▁بالكسر:": 6030,
      "▁يمدح": 6031,
      "▁الخلف": 6032,
      "▁الحض": 6033,
      "▁عندما": 6034,
      "٦\n": 6035,
      "▁عادة": 6036,
      "▁تظهر": 6037,
      "▁انته": 6038,
      "▁دال": 6039,
      "▁والتا": 6040,
      "▁هنا:": 6041,
      "س.\n": 6042,
      "▁مدي": 6043,
      "▁الخاء": 6044,
      "ك؟": 6045,
      "▁يرب": 6046,
      "▁مختص": 6047,
      "▁امل": 6048,
      "▁والتح": 6049,
      "▁الصبح": 6050,
      "▁فرج": 6051,
      "▁والمضاف": 6052,
      "▁يعرب": 6053,
      "▁كالا": 6054,
      "▁مولف": 6055,
      "▁الهل": 6056,
      "▁المجتمع": 6057,
      "واة": 6058,
      "▁الشاعر:": 6059,
      "▁طائفة": 6060,
      "▁برق": 6061,
      "▁وفيه:": 6062,
      "١)": 6063,
      "▁خرا": 6064,
      "▁الكتاب:": 6065,
      "▁الاختلاف": 6066,
      "▁والو": 6067,
      "١.": 6068,
      "▁اصوات": 6069,
      "▁يلق": 6070,
      "بر\n": 6071,
      "▁سخ": 6072,
      "▁الاخرة": 6073,
      "▁ضل": 6074,
      "▁نسخة": 6075,
      "منة": 6076,
      "▁صري": 6077,
      "▁هوي": 6078,
      "▁فاج": 6079,
      "تصاص": 6080,
      "▁وسمع": 6081,
      "▁ضربا": 6082,
      "لا.": 6083,
      "▁٥-": 6084,
      "▁حلق": 6085,
      "▁الجو": 6086,
      "فون": 6087,
      "كم:": 6088,
      "▁ومنها:": 6089,
      "▁م\n": 6090,
      "يب\n": 6091,
      "ليه": 6092,
      "▁ويم": 6093,
      "▁لقب": 6094,
      "▁السيوطي": 6095,
      "▁وحب": 6096,
      "▁الوح": 6097,
      "▁الهمز": 6098,
      "▁فالاول": 6099,
      "▁[الان": 6100,
      "▁الكتاب،": 6101,
      "▁التاكيد": 6102,
      "▁اعطيت": 6103,
      "▁جلد": 6104,
      "▁ويقولون": 6105,
      "▁بتاويل": 6106,
      "▁والقياس": 6107,
      "▁نكرة،": 6108,
      "▁الشه": 6109,
      "ائط": 6110,
      "▁قواعد": 6111,
      "▁فلك": 6112,
      "ردد": 6113,
      "▁فو": 6114,
      "▁المتحرك": 6115,
      "▁وجمعها": 6116,
      "▁الموكد": 6117,
      "▁جوز": 6118,
      "▁الاسماء،": 6119,
      "▁بسكون": 6120,
      "▁تابع": 6121,
      "عده": 6122,
      "خلق": 6123,
      "▁حش": 6124,
      "▁نكر": 6125,
      "▁التعليل": 6126,
      "▁المشي": 6127,
      "▁القري": 6128,
      "اده": 6129,
      "▁الهواء": 6130,
      "▁العلم،": 6131,
      "▁مبتدا.": 6132,
      "▁الفاء:": 6133,
      "ني:": 6134,
      "▁يدعو": 6135,
      "▁اجود": 6136,
      "وضح": 6137,
      "▁كان،": 6138,
      "▁نصبت": 6139,
      "فلة": 6140,
      "▁فذلك": 6141,
      "▁تفا": 6142,
      "▁طرق": 6143,
      "▁ويدل": 6144,
      "ثرت": 6145,
      "ساع": 6146,
      "ئين": 6147,
      "▁ذن": 6148,
      "▁والرفع": 6149,
      "مي:": 6150,
      "▁سعيد:": 6151,
      "▁ثبوت": 6152,
      "▁نفوس": 6153,
      "ضا،": 6154,
      "▁بالضم،": 6155,
      "▁بالذي": 6156,
      "▁رع": 6157,
      "▁الجزاء": 6158,
      "فة.\n": 6159,
      "▁ادي": 6160,
      "▁ميم": 6161,
      "▁بينا": 6162,
      "▁بابي": 6163,
      "▁نن": 6164,
      "▁مطب": 6165,
      "▁غم": 6166,
      "▁درج": 6167,
      "به.\n": 6168,
      "▁ومعنا": 6169,
      "يرة،": 6170,
      "▁صن": 6171,
      "▁راينا": 6172,
      "▁فكانت": 6173,
      "عة.\n": 6174,
      "▁المشرح:": 6175,
      "▁والدليل": 6176,
      "▁والرجل": 6177,
      "▁شري": 6178,
      "▁كتابا": 6179,
      "▁محذو": 6180,
      "▁الساكنة": 6181,
      "▁استخ": 6182,
      "▁الاختصاص": 6183,
      "ريء": 6184,
      "▁فصارت": 6185,
      "▁مبد": 6186,
      "▁اجعل": 6187,
      "ته؛": 6188,
      "▁طبق": 6189,
      "▁اخذه": 6190,
      "وق،": 6191,
      "▁وسمي": 6192,
      "ية\"": 6193,
      "▁وتك": 6194,
      "▁المختلفة": 6195,
      "▁خم": 6196,
      "▁مطرد": 6197,
      "▁كالح": 6198,
      "▁فلن": 6199,
      "▁دونه": 6200,
      "حيي": 6201,
      "▁ففيه": 6202,
      "▁قبيلة": 6203,
      "٦]": 6204,
      "▁والمص": 6205,
      "▁السبع": 6206,
      "ضارب": 6207,
      "٢)": 6208,
      "▁السادس": 6209,
      "▁وتلك": 6210,
      "▁بها.\n": 6211,
      "▁المطلق": 6212,
      "▁قصة": 6213,
      "▁دريد:": 6214,
      "قله": 6215,
      "▁وشر": 6216,
      "▁يشمل": 6217,
      "حوي": 6218,
      "قوم": 6219,
      "▁ومذهب": 6220,
      "▁الساعة": 6221,
      "▁ملحق": 6222,
      "▁اظن": 6223,
      "▁وكلام": 6224,
      "▁للدلالة": 6225,
      "▁دعاء": 6226,
      "ود:": 6227,
      "▁المخصوص": 6228,
      "▁المفا": 6229,
      "سان،": 6230,
      "▁حاد": 6231,
      "▁ثانية": 6232,
      "هم\"": 6233,
      "▁مرد": 6234,
      "▁بالاسم": 6235,
      "▁المضم": 6236,
      "▁مقب": 6237,
      "▁الطاء": 6238,
      "ضمار": 6239,
      "▁وعي": 6240,
      "ذر:": 6241,
      "▁رز": 6242,
      "▁للمجهول": 6243,
      "▁وتارة": 6244,
      "▁ابناء": 6245,
      "▁والباء": 6246,
      "▁الحبل": 6247,
      "▁اجزاء": 6248,
      "▁الشيطان": 6249,
      "▁والما": 6250,
      "كاة": 6251,
      "▁العمر": 6252,
      "▁بينهما،": 6253,
      "▁الوجوه": 6254,
      "به،": 6255,
      "يدان": 6256,
      "▁فاعرف": 6257,
      "▁النجوم": 6258,
      "▁لصاح": 6259,
      "▁جعلته": 6260,
      "قديم": 6261,
      "نيه": 6262,
      "ت.": 6263,
      "ريات": 6264,
      "ية)": 6265,
      "روض": 6266,
      "▁محد": 6267,
      "▁الجوهري:": 6268,
      "▁العاقل": 6269,
      "▁اقول:": 6270,
      "▁المكت": 6271,
      "▁اخر:": 6272,
      "▁تشبيها": 6273,
      "▁المشد": 6274,
      "▁[ي": 6275,
      "▁التصرف": 6276,
      "▁سوف": 6277,
      "نها": 6278,
      "ضي،": 6279,
      "▁(١).": 6280,
      "▁مخالف": 6281,
      "▁الله.": 6282,
      "▁وشي": 6283,
      "▁الاحي": 6284,
      "▁متع": 6285,
      "٠)": 6286,
      "▁الترتيب": 6287,
      "حاف": 6288,
      "▁وجا": 6289,
      "▁بالث": 6290,
      "▁النقد": 6291,
      "▁وشذ": 6292,
      "▁شار": 6293,
      "دلال": 6294,
      "▁متعلقان": 6295,
      "▁فهما": 6296,
      "▁والتانيث": 6297,
      "▁الميت": 6298,
      "▁الحمل": 6299,
      "▁ذنب": 6300,
      "▁الاثنين": 6301,
      "▁افر": 6302,
      "▁لقيت": 6303,
      "به.": 6304,
      "دال": 6305,
      "رجم": 6306,
      "معي": 6307,
      "▁محي": 6308,
      "▁يعبر": 6309,
      "▁اخره،": 6310,
      "▁ترتيب": 6311,
      "سبة": 6312,
      "▁منادي": 6313,
      "سرح": 6314,
      "▁مبنيا": 6315,
      "▁الصدق": 6316,
      "▁احدها:": 6317,
      "▁الفكر": 6318,
      "▁حصر": 6319,
      "▁شف": 6320,
      "ساكن": 6321,
      "▁الاستع": 6322,
      "▁قار": 6323,
      "▁فلان،": 6324,
      "▁استثناء": 6325,
      "بسط": 6326,
      "▁(٦)\n": 6327,
      "همة": 6328,
      "▁ووضع": 6329,
      "خاطب": 6330,
      "▁القوي": 6331,
      "▁للعلم": 6332,
      "▁قولنا:": 6333,
      "▁يوتي": 6334,
      "▁التد": 6335,
      "٣)": 6336,
      "حي،": 6337,
      "▁ترجع": 6338,
      "▁والمج": 6339,
      "▁الرسالة": 6340,
      "▁حديث\n": 6341,
      "▁معي": 6342,
      "▁ابدل": 6343,
      "هو": 6344,
      "▁الماضي،": 6345,
      "▁قائل:": 6346,
      "رور،": 6347,
      "▁معظم": 6348,
      "▁يذ": 6349,
      "▁القواعد": 6350,
      "▁القديمة": 6351,
      "ع.\n": 6352,
      "فوا": 6353,
      "▁شيئا،": 6354,
      "▁الفصاح": 6355,
      "▁كفروا": 6356,
      "لك،": 6357,
      "٢؛": 6358,
      "▁يزل": 6359,
      "▁الواجب": 6360,
      "▁الكون": 6361,
      "▁حمي": 6362,
      "▁المنفصل": 6363,
      "▁بالمعني": 6364,
      "▁مثله،": 6365,
      "ت\"": 6366,
      "▁علامات": 6367,
      "▁المفصل": 6368,
      "▁الفرد": 6369,
      "▁الاثر": 6370,
      "٥)": 6371,
      "▁والعلم": 6372,
      "▁مرح": 6373,
      "▁كمال": 6374,
      "▁يريدون": 6375,
      "قلت": 6376,
      "▁باج": 6377,
      "▁الفرا": 6378,
      "▁عدو": 6379,
      "▁ص٢": 6380,
      "▁الباب،": 6381,
      "▁لامه": 6382,
      "▁ونعم": 6383,
      "الد": 6384,
      "ضاعف": 6385,
      "▁الانس": 6386,
      "ما:": 6387,
      "▁اكان": 6388,
      "▁حلي": 6389,
      "▁ونحو:": 6390,
      "▁ايمان": 6391,
      "▁ابني": 6392,
      "▁السع": 6393,
      "▁[و": 6394,
      "▁ينكر": 6395,
      "زج": 6396,
      "▁ب\n": 6397,
      "▁(١):": 6398,
      "▁كفا": 6399,
      "▁بالر": 6400,
      "▁فقالوا": 6401,
      "▁يتح": 6402,
      "٠،": 6403,
      "٤)": 6404,
      "▁قومي": 6405,
      "▁مسن": 6406,
      "▁الشج": 6407,
      "▁توجد": 6408,
      "▁جهد": 6409,
      "وبي": 6410,
      "▁جوف": 6411,
      "▁الانكلي": 6412,
      "▁الشهر": 6413,
      "▁التذكير": 6414,
      "▁المشبهة": 6415,
      "▁ذم": 6416,
      "جامع": 6417,
      "▁ملح": 6418,
      "▁المسي": 6419,
      "▁الضرورة": 6420,
      "▁فيع": 6421,
      "ماة": 6422,
      "▁الخش": 6423,
      "ريف،": 6424,
      "حقق": 6425,
      "▁فيح": 6426,
      "▁نض": 6427,
      "▁بها.": 6428,
      "▁الكف": 6429,
      "▁\"افعل": 6430,
      "▁عنه.\n": 6431,
      "▁ضوء": 6432,
      "▁للتعذر": 6433,
      "▁يدفع": 6434,
      "▁التوا": 6435,
      "▁ساد": 6436,
      "▁باق": 6437,
      "▁التاويل": 6438,
      "▁خار": 6439,
      "▁باحد": 6440,
      "▁بالشيء": 6441,
      "▁حذفها": 6442,
      "▁وتوكيد": 6443,
      "▁فاط": 6444,
      "▁يسير": 6445,
      "▁الاحكام": 6446,
      "زاي": 6447,
      "▁تفر": 6448,
      "▁تثني": 6449,
      "▁شباب": 6450,
      "▁خر": 6451,
      "▁تقدم،": 6452,
      "▁مشتق": 6453,
      "▁الليث": 6454,
      "٧\n": 6455,
      "▁اثناء": 6456,
      "▁وبقي": 6457,
      "الع": 6458,
      "▁الاعلي": 6459,
      "▁ادع": 6460,
      "ئنا": 6461,
      "▁القارئ": 6462,
      "▁يثني": 6463,
      "▁خطب": 6464,
      "▁تاكل": 6465,
      "صبة": 6466,
      "▁حرم": 6467,
      "▁لفظة": 6468,
      "▁(ومن": 6469,
      "▁ومل": 6470,
      "▁السريع": 6471,
      "▁اسفل": 6472,
      "شاة": 6473,
      "▁حار": 6474,
      "وصوف": 6475,
      "▁والانثي": 6476,
      "ولية": 6477,
      "▁رابع": 6478,
      "▁مالك:": 6479,
      "▁العموم": 6480,
      "قدام": 6481,
      "▁طائر": 6482,
      "▁باطل": 6483,
      "▁[١]": 6484,
      "▁وذاك": 6485,
      "▁ابدلت": 6486,
      "▁الذئب": 6487,
      "نا.\n": 6488,
      "▁الرمة:\n": 6489,
      "▁حصول": 6490,
      "▁(١):\n": 6491,
      "▁وحمل": 6492,
      "▁[فصيحة": 6493,
      "▁تعالي.\n": 6494,
      "▁معني،": 6495,
      "▁واحدها": 6496,
      "▁تاكيد": 6497,
      "▁وزي": 6498,
      "▁المنس": 6499,
      "▁نخ": 6500,
      "▁زل": 6501,
      "▁منقلبة": 6502,
      "▁الفحل": 6503,
      "▁الوع": 6504,
      "▁المعا": 6505,
      "▁القيس:\n": 6506,
      "▁ب-": 6507,
      "▁شغ": 6508,
      "▁يصدق": 6509,
      "▁غرض": 6510,
      "▁\"مع": 6511,
      "▁وكانوا": 6512,
      "▁وكذلك:": 6513,
      "فاعيل": 6514,
      "▁فعلان": 6515,
      "اليب": 6516,
      "ا\"": 6517,
      "▁يغير": 6518,
      "▁تي": 6519,
      "▁بالز": 6520,
      "▁تقدر": 6521,
      "▁\"الي": 6522,
      "▁٥٢": 6523,
      "▁افصح": 6524,
      "ائية": 6525,
      "نتين": 6526,
      "▁النحوية": 6527,
      "▁الرفع،": 6528,
      "٧]": 6529,
      "▁اخف": 6530,
      "▁كالع": 6531,
      "بارك": 6532,
      "▁منسوب": 6533,
      "سموع": 6534,
      "▁تختلف": 6535,
      "▁فاص": 6536,
      "▁لنفسه": 6537,
      "▁البحتري": 6538,
      "▁امية": 6539,
      "▁واحد.": 6540,
      "▁الخاصة": 6541,
      "▁فدل": 6542,
      "دته": 6543,
      "▁و\"م": 6544,
      "▁والاص": 6545,
      "▁الهد": 6546,
      "▁(٢):": 6547,
      "▁المحقق": 6548,
      "▁يشير": 6549,
      "▁\"هذا": 6550,
      "▁عيب": 6551,
      "▁نظام": 6552,
      "▁سقي": 6553,
      "▁فيصير": 6554,
      "سطة": 6555,
      "▁وحذفت": 6556,
      "▁تث": 6557,
      "له:": 6558,
      "يد\n": 6559,
      "▁[ا": 6560,
      "▁ومنع": 6561,
      "▁وبنو": 6562,
      "▁الانباري": 6563,
      "▁القاعدة": 6564,
      "رود": 6565,
      "▁حري": 6566,
      "▁٥٣": 6567,
      "▁البئر": 6568,
      "▁وصاحب": 6569,
      "▁يلقي": 6570,
      "▁\"لم": 6571,
      "وقة": 6572,
      "▁البديع": 6573,
      "نين،": 6574,
      "▁\"ام": 6575,
      "هادة": 6576,
      "▁حبل": 6577,
      "خذه": 6578,
      "▁اهمله": 6579,
      "▁نافع": 6580,
      "من،": 6581,
      "▁عاش": 6582,
      "▁فرض": 6583,
      "با:": 6584,
      "اته،": 6585,
      "▁تضم": 6586,
      "رك،": 6587,
      "▁حال،": 6588,
      "▁قطعت": 6589,
      "▁الوف": 6590,
      "▁تزاد": 6591,
      "▁يوخذ": 6592,
      "▁اسلم": 6593,
      "▁اشر": 6594,
      "▁صلاة": 6595,
      "▁الاحا": 6596,
      "▁اجر": 6597,
      "▁الكلا": 6598,
      "▁صفة-": 6599,
      "▁لرجل": 6600,
      "▁قولا": 6601,
      "▁والبيت": 6602,
      "▁سماع": 6603,
      "▁عري": 6604,
      "▁\"الذي": 6605,
      "٦.\n": 6606,
      "غاث": 6607,
      "▁نظرت": 6608,
      "سخ": 6609,
      "▁وزنه": 6610,
      "▁تحريك": 6611,
      "▁الظل": 6612,
      "▁يسكن": 6613,
      "▁الولد": 6614,
      "واق": 6615,
      "▁لاج": 6616,
      "▁التحقيق": 6617,
      "▁الظهر": 6618,
      "طلاح": 6619,
      "تهر": 6620,
      "▁درجة": 6621,
      "▁تقتضي": 6622,
      "▁معتل": 6623,
      "▁يمشي": 6624,
      "▁١)،": 6625,
      "▁اطراف": 6626,
      "▁الجلد": 6627,
      "▁الخوا": 6628,
      "▁كد": 6629,
      "▁التاء،": 6630,
      "▁لماذا؟": 6631,
      "▁الصبر": 6632,
      "▁مرج": 6633,
      "▁المرك": 6634,
      "▁سليم": 6635,
      "مي\n": 6636,
      "▁واليه": 6637,
      "▁سلمي": 6638,
      "▁العت": 6639,
      "▁بالفتح،": 6640,
      "▁بقر": 6641,
      "▁نيابة": 6642,
      "ريه": 6643,
      "▁تاخير": 6644,
      "▁استعماله": 6645,
      "▁فتحت": 6646,
      "ئ،": 6647,
      "راث": 6648,
      "▁الهج": 6649,
      "▁جوان": 6650,
      "زمه": 6651,
      "▁واشار": 6652,
      "▁ا-": 6653,
      "▁باف": 6654,
      "▁حام": 6655,
      "▁النوم": 6656,
      "▁مقدار": 6657,
      "▁العائد": 6658,
      "▁مبنية": 6659,
      "بيرا": 6660,
      "قطة": 6661,
      "▁يجوز:": 6662,
      "▁لاي": 6663,
      "▁البسي": 6664,
      "▁اصطلاح": 6665,
      "▁شعب": 6666,
      "▁لبي": 6667,
      "▁حقيقي": 6668,
      "بت،": 6669,
      "قرب": 6670,
      "▁طر": 6671,
      "▁ظاهرا": 6672,
      "▁وكلاهما": 6673,
      "▁الشارح:": 6674,
      "▁الاو": 6675,
      "ول)": 6676,
      "▁البصر": 6677,
      "▁الجي": 6678,
      "▁تعالي،": 6679,
      "▁والصفة": 6680,
      "▁بعينه": 6681,
      "▁كسرت": 6682,
      "▁القياس،": 6683,
      "▁استقر": 6684,
      "▁ريب": 6685,
      "▁(الت": 6686,
      "▁(الا)": 6687,
      "▁يبدو": 6688,
      "راي": 6689,
      "يد:": 6690,
      "▁الثامن": 6691,
      "▁(٥)،": 6692,
      "٢:": 6693,
      "تيه": 6694,
      "▁وجل": 6695,
      "▁معرفة،": 6696,
      "▁الامت": 6697,
      "لة.\n": 6698,
      "▁لشيء": 6699,
      "جاه": 6700,
      "▁والرت": 6701,
      "▁\"\n": 6702,
      "ئات": 6703,
      "▁ودي": 6704,
      "▁يتخذ": 6705,
      "▁سلك": 6706,
      "▁الاخر:": 6707,
      "▁الكرم": 6708,
      "▁[٣": 6709,
      "▁الفاء،": 6710,
      "▁خض": 6711,
      "▁الفقه": 6712,
      "سيرا": 6713,
      "ناء،": 6714,
      "▁و\n": 6715,
      "▁الضاد": 6716,
      "▁تقدمت": 6717,
      "▁وانك": 6718,
      "▁تنبيه": 6719,
      "زلت": 6720,
      "▁شجرة": 6721,
      "▁الموجود": 6722,
      "▁الافت": 6723,
      "▁بيوت": 6724,
      "▁خاصة،": 6725,
      "▁تصحيح": 6726,
      "▁٥١": 6727,
      "▁جما": 6728,
      "▁خلت": 6729,
      "▁عائشة": 6730,
      "ثيرا": 6731,
      "▁بيني": 6732,
      "▁متح": 6733,
      "٧)": 6734,
      "▁المنق": 6735,
      "▁ترجمة": 6736,
      "سنا": 6737,
      "▁الطائر": 6738,
      "▁ونون": 6739,
      "▁مقصور": 6740,
      "▁ثمانية": 6741,
      "▁الدائ": 6742,
      "▁فينا": 6743,
      "▁لا:": 6744,
      "با.\n": 6745,
      "▁قن": 6746,
      "▁الروم": 6747,
      "▁علام": 6748,
      "▁الشين": 6749,
      "اني.\n": 6750,
      "▁ادراك": 6751,
      "ومات": 6752,
      "ض:": 6753,
      "يرها": 6754,
      "▁الدابة": 6755,
      "▁فيجب": 6756,
      "▁النه": 6757,
      "▁الكثرة": 6758,
      "قدمة": 6759,
      "▁ويجعل": 6760,
      "▁مهموز": 6761,
      "▁(لم": 6762,
      "كمة": 6763,
      "▁معني:": 6764,
      "▁البخا": 6765,
      "لب،": 6766,
      "▁الاضمار": 6767,
      "▁عقل": 6768,
      "▁ان\n": 6769,
      "▁شروط": 6770,
      "▁التثني": 6771,
      "▁العرف": 6772,
      "▁ويخ": 6773,
      "▁البعد": 6774,
      "▁الحاجب": 6775,
      "نفس": 6776,
      "▁يظن": 6777,
      "▁خفض": 6778,
      "▁مسعود": 6779,
      "واهر": 6780,
      "▁\"اع": 6781,
      "▁ثل": 6782,
      "مهرة": 6783,
      "▁زع": 6784,
      "▁نساء": 6785,
      "▁معناه،": 6786,
      "▁(ام": 6787,
      "▁جعلوا": 6788,
      "صري": 6789,
      "▁وتست": 6790,
      "▁درهما": 6791,
      "▁بالاع": 6792,
      "٣؛": 6793,
      "▁غالب": 6794,
      "▁وكس": 6795,
      "▁شعري": 6796,
      "▁تلقي": 6797,
      "ذ،": 6798,
      "زم،": 6799,
      "▁وحدها": 6800,
      "▁رض": 6801,
      "▁كقوله:": 6802,
      "▁البصريون": 6803,
      "▁٣).\n": 6804,
      "▁كالت": 6805,
      "▁ثنا": 6806,
      "▁كالش": 6807,
      "الا\n": 6808,
      "▁جهل": 6809,
      "▁٥٩": 6810,
      "▁باله": 6811,
      "▁النز": 6812,
      "الي\n": 6813,
      "▁المفعول،": 6814,
      "▁ورح": 6815,
      "▁خبر،": 6816,
      "▁مراعاة": 6817,
      "▁فوجب": 6818,
      "▁الغير": 6819,
      "▁يشرب": 6820,
      "▁عبيدة:": 6821,
      "٦)": 6822,
      "حة:": 6823,
      "▁الضعيف": 6824,
      "▁فارقة.": 6825,
      "▁صدور": 6826,
      "▁نداء": 6827,
      "▁(افعل": 6828,
      "▁اسر": 6829,
      "▁٥٨": 6830,
      "▁جعلها": 6831,
      "▁ومنا": 6832,
      "▁وقالت": 6833,
      "▁فقالت:": 6834,
      "▁٥٤": 6835,
      "▁قض": 6836,
      "▁ايات": 6837,
      "▁حملت": 6838,
      "▁الافعال،": 6839,
      "▁و:": 6840,
      "جاة": 6841,
      "زين": 6842,
      "▁اسم،": 6843,
      "▁الموص": 6844,
      "صرت": 6845,
      "▁الوت": 6846,
      "▁لوجود": 6847,
      "▁الاعد": 6848,
      "▁والفتح": 6849,
      "▁الشعب": 6850,
      "▁ارا": 6851,
      "▁الضمير،": 6852,
      "▁العوا": 6853,
      "▁واتي": 6854,
      "▁بدي": 6855,
      "هم)": 6856,
      "▁قرن": 6857,
      "غفر": 6858,
      "▁واختار": 6859,
      "فتها": 6860,
      "▁يفتح": 6861,
      "▁الفا،": 6862,
      "▁اشكال": 6863,
      "▁مجموعة": 6864,
      "▁العقد": 6865,
      "▁عامله": 6866,
      "▁اختصاص": 6867,
      "طرب": 6868,
      "▁يستغني": 6869,
      "▁المجاز:": 6870,
      "وهي": 6871,
      "علوم": 6872,
      "▁والاي": 6873,
      "▁مصدرية": 6874,
      "▁الفرج": 6875,
      "▁واحدا،": 6876,
      "▁تمرين": 6877,
      "صم": 6878,
      "▁شعراء": 6879,
      "▁الباحث": 6880,
      "▁وبني": 6881,
      "▁٦٠": 6882,
      "خدام": 6883,
      "▁القائم": 6884,
      "▁خاط": 6885,
      "▁دخولها": 6886,
      "▁السود": 6887,
      "▁طا": 6888,
      "▁شجاع": 6889,
      "▁كامل": 6890,
      "▁شكل": 6891,
      "ات\n": 6892,
      "▁السفر": 6893,
      "صبحت": 6894,
      "▁الوجهين": 6895,
      "▁السام": 6896,
      "▁يرمي": 6897,
      "▁كلاهما": 6898,
      "▁نعلم": 6899,
      "▁\"جاء": 6900,
      "ابط": 6901,
      "▁تزال": 6902,
      "▁رافع": 6903,
      "▁الاعشي:\n": 6904,
      "▁الغائب": 6905,
      "▁بتح": 6906,
      "▁الاسلوب": 6907,
      "▁حبذا": 6908,
      "▁ينتصب": 6909,
      "▁الفاع": 6910,
      "داد،": 6911,
      "مال،": 6912,
      "▁لشبه": 6913,
      "▁وقام": 6914,
      "▁الابواب": 6915,
      "ت.\n": 6916,
      "▁عذاب": 6917,
      "▁تضاف": 6918,
      "▁معه،": 6919,
      "▁يفرق": 6920,
      "▁الحاضر": 6921,
      "ماسي": 6922,
      "▁المعاجم": 6923,
      "▁سابق": 6924,
      "و\"": 6925,
      "▁السمع": 6926,
      "▁اسلوب": 6927,
      "▁مقبل": 6928,
      "مم": 6929,
      "▁كاتب": 6930,
      "▁نو": 6931,
      "▁ابنية": 6932,
      "▁اصلية": 6933,
      "▁تكاد": 6934,
      "فيل": 6935,
      "▁قولي": 6936,
      "▁يدري": 6937,
      "▁تجيء": 6938,
      "▁تعا": 6939,
      "▁فيها.": 6940,
      "جب،": 6941,
      "▁المقر": 6942,
      "صرح": 6943,
      "▁\"ليس": 6944,
      "▁صبر": 6945,
      "▁وهناك": 6946,
      "عته": 6947,
      "▁وبهذا": 6948,
      "▁١،": 6949,
      "▁الوارد": 6950,
      "▁هيئة": 6951,
      "▁(ط": 6952,
      "▁صبا": 6953,
      "▁الفه": 6954,
      "▁يقرا": 6955,
      "▁فذهب": 6956,
      "▁لازمة": 6957,
      "▁امي": 6958,
      "▁الاذ": 6959,
      "▁(وقد": 6960,
      "▁حمار": 6961,
      "▁حمله": 6962,
      "▁مبين": 6963,
      "صل،": 6964,
      "▁ائت": 6965,
      "▁بره": 6966,
      "▁تذ": 6967,
      "▁الايمان": 6968,
      "▁حقيق": 6969,
      "٥؛": 6970,
      "▁نعمة": 6971,
      "▁التمر": 6972,
      "▁الصديق": 6973,
      "▁ربيع": 6974,
      "▁ترب": 6975,
      "▁فاض": 6976,
      "▁مجر": 6977,
      "سر،": 6978,
      "▁فيها.\n": 6979,
      "٨\n": 6980,
      "اعدا": 6981,
      "▁لال": 6982,
      "تهد": 6983,
      "▁مولي": 6984,
      "▁المني": 6985,
      "▁والسلام": 6986,
      "▁الازهري": 6987,
      "اني.": 6988,
      "▁\"وان": 6989,
      "▁اسمية": 6990,
      "▁اعرابها": 6991,
      "▁طاب": 6992,
      "▁فضلا": 6993,
      "▁اتصال": 6994,
      "زب": 6995,
      "▁وقلب": 6996,
      "▁التكسير": 6997,
      "▁تعالي:\n": 6998,
      "٨)": 6999,
      "▁العذ": 7000,
      "▁بالمصدر": 7001,
      "قان": 7002,
      "بي\n": 7003,
      "▁جام": 7004,
      "▁-ب": 7005,
      "▁لدلالة": 7006,
      "▁٥٦": 7007,
      "▁(قد": 7008,
      "با.": 7009,
      "▁الدول": 7010,
      "▁اعلام": 7011,
      "▁شرحه": 7012,
      "لاس": 7013,
      "▁الاله": 7014,
      "غدادي": 7015,
      "▁المزيد": 7016,
      "سيس": 7017,
      "فلان": 7018,
      "قلبت": 7019,
      "▁فالح": 7020,
      "▁يتعين": 7021,
      "لكة": 7022,
      "▁ديار": 7023,
      "▁يقم": 7024,
      "▁يعطف": 7025,
      "▁العشر": 7026,
      "▁ايهم": 7027,
      "▁الغرب": 7028,
      "▁اخوان": 7029,
      "اع،": 7030,
      "▁الوادي": 7031,
      "▁الخليفة": 7032,
      "نادي": 7033,
      "▁يكفي": 7034,
      "▁حنيفة": 7035,
      "▁اخره.\n": 7036,
      "ضيق": 7037,
      "▁٦-": 7038,
      "▁\"كان\"": 7039,
      "٢.": 7040,
      "▁والكلام": 7041,
      "▁رمض": 7042,
      "▁تذهب": 7043,
      "▁شخ": 7044,
      "▁الخ\"": 7045,
      "▁وجاز": 7046,
      "▁فصل\n": 7047,
      "▁يقتل": 7048,
      "▁يبت": 7049,
      "▁العرض": 7050,
      "قيب": 7051,
      "▁النافية": 7052,
      "غلب": 7053,
      "▁كراه": 7054,
      "▁العاص": 7055,
      "▁صحت": 7056,
      "▁الورد": 7057,
      "▁والفرق": 7058,
      "▁الشروط": 7059,
      "▁القراءة": 7060,
      "▁غيره.\n": 7061,
      "▁عيون": 7062,
      "▁اللين": 7063,
      "▁الابدال": 7064,
      "▁ليد": 7065,
      "را)": 7066,
      "▁التالي": 7067,
      "▁ذر": 7068,
      "▁السكاكي": 7069,
      "عبة": 7070,
      "▁عاق": 7071,
      "وون": 7072,
      "▁المسك": 7073,
      "▁ان،": 7074,
      "▁٢)،": 7075,
      "▁للي": 7076,
      "▁وجر": 7077,
      "فصال": 7078,
      "▁العظ": 7079,
      "▁معا،": 7080,
      "▁الاصح": 7081,
      "راب:": 7082,
      "▁بالحرف": 7083,
      "رفت": 7084,
      "▁والوا": 7085,
      "▁يجئ": 7086,
      "▁قليل،": 7087,
      "طئ": 7088,
      "▁الجهل": 7089,
      "▁القوم:": 7090,
      "ه،\n": 7091,
      "▁نهاية": 7092,
      "▁الاكل": 7093,
      "ليب": 7094,
      "▁[الم": 7095,
      "▁الشرع": 7096,
      "▁\"ولا": 7097,
      "▁يرتفع": 7098,
      "اب:": 7099,
      "▁العود": 7100,
      "قيد": 7101,
      "▁المبا": 7102,
      "▁رووس": 7103,
      "▁بالام": 7104,
      "▁صلا": 7105,
      "▁والحرف": 7106,
      "▁زلت": 7107,
      "▁الصيف": 7108,
      "▁وللم": 7109,
      "▁هـ.": 7110,
      "▁المعمول": 7111,
      "غيث": 7112,
      "▁\"ال\"": 7113,
      "▁يقف": 7114,
      "▁هلا": 7115,
      "▁سحاب": 7116,
      "▁الانشاد": 7117,
      "▁مسمي": 7118,
      "▁انكر": 7119,
      "▁مصادر": 7120,
      "كم)": 7121,
      "▁التصريح": 7122,
      "▁تجر": 7123,
      "▁وتسمي": 7124,
      "▁فاعلم": 7125,
      "صيغة": 7126,
      "▁الذه": 7127,
      "▁منها:": 7128,
      "▁الارض:": 7129,
      "▁يصيب": 7130,
      "▁جنب": 7131,
      "▁العذاب": 7132,
      "▁اتيت": 7133,
      "▁الاضافة،": 7134,
      "▁النق": 7135,
      "▁اعربت": 7136,
      "▁واين": 7137,
      "▁طه": 7138,
      "▁ولفظ": 7139,
      "خدم": 7140,
      "▁التنزيل": 7141,
      "▁جال": 7142,
      "▁ناظر": 7143,
      "▁وعاد": 7144,
      "▁٥٥": 7145,
      "▁الذا": 7146,
      "طبق": 7147,
      "فقا": 7148,
      "▁استطاع": 7149,
      "▁يوكد": 7150,
      "▁ودخل": 7151,
      "▁مسر": 7152,
      "▁للط": 7153,
      "▁كثير،": 7154,
      "▁وقوم": 7155,
      "▁فعلية": 7156,
      "▁صاحبها": 7157,
      "فين": 7158,
      "▁..........": 7159,
      "مها": 7160,
      "▁انصرف": 7161,
      "▁سعي": 7162,
      "▁وتشديد": 7163,
      "▁(اح": 7164,
      "▁اسند": 7165,
      "ابهة": 7166,
      "▁السلط": 7167,
      "▁ينقل": 7168,
      "١]": 7169,
      "▁هوا": 7170,
      "اربة": 7171,
      "▁فـ\"": 7172,
      "٩)": 7173,
      "▁ومي": 7174,
      "و)": 7175,
      "▁خروف": 7176,
      "▁خروج": 7177,
      "طعن": 7178,
      "طعام": 7179,
      "▁وتب": 7180,
      "▁اصله:": 7181,
      "▁الجماع": 7182,
      "افت": 7183,
      "٤؛": 7184,
      "واني": 7185,
      "▁وحتي": 7186,
      "فان": 7187,
      "▁والقول": 7188,
      "سا\n": 7189,
      "▁بيع": 7190,
      "▁كثرت": 7191,
      "▁كرا": 7192,
      "كا\n": 7193,
      "▁التمثيل": 7194,
      "▁دور": 7195,
      "اد\n": 7196,
      "▁للاستاذ": 7197,
      "▁شرع": 7198,
      "مه\n": 7199,
      "فته": 7200,
      "▁والبا": 7201,
      "بيين": 7202,
      "▁اخاك": 7203,
      "▁زيدت": 7204,
      "▁الليالي": 7205,
      "▁القبائل": 7206,
      "▁ينشد": 7207,
      "▁الجارية": 7208,
      "▁اشتد": 7209,
      "▁(هـ": 7210,
      "▁لذا": 7211,
      "▁اخص": 7212,
      "▁وجواب": 7213,
      "▁الفلس": 7214,
      "وكب": 7215,
      "▁الليلة": 7216,
      "▁اذهب": 7217,
      "▁الواحد،": 7218,
      "لوا": 7219,
      "زي،": 7220,
      "▁ما،": 7221,
      "▁الاصل:": 7222,
      "▁٥٧": 7223,
      "▁\"بال": 7224,
      "ظهار": 7225,
      "ييس": 7226,
      "▁الزاي": 7227,
      "▁[ت": 7228,
      "▁اجز": 7229,
      "▁حرفين": 7230,
      "▁(٢).": 7231,
      "▁الحديث،": 7232,
      "-م": 7233,
      "▁الذات": 7234,
      "▁ن\n": 7235,
      "▁\"اح": 7236,
      "تابع": 7237,
      "▁لانا": 7238,
      "ول.\n": 7239,
      "ثور": 7240,
      "▁مشهور": 7241,
      "▁عشرين": 7242,
      "▁شيب": 7243,
      "▁(وت": 7244,
      "ار.": 7245,
      "▁عثمان:\n": 7246,
      "▁مطا": 7247,
      "ملوك": 7248,
      "▁الفس": 7249,
      "▁وياء": 7250,
      "▁الفاضل": 7251,
      "▁فقلبت": 7252,
      "▁الباطل": 7253,
      "تيجة": 7254,
      "▁وانتم": 7255,
      "▁مجال": 7256,
      "▁ربنا": 7257,
      "بون": 7258,
      "▁كقولهم": 7259,
      "▁فيه\n": 7260,
      "▁فاعل.\n": 7261,
      "▁الفوا": 7262,
      "شي،": 7263,
      "▁ذويب": 7264,
      "▁ضعي": 7265,
      "▁قراء": 7266,
      "رفا": 7267,
      "▁[الت": 7268,
      "▁الحزن": 7269,
      "ثالث": 7270,
      "▁الناقص": 7271,
      "▁قوا": 7272,
      "▁قدرت": 7273,
      "▁احدها": 7274,
      "ولوا": 7275,
      "ابها": 7276,
      "▁امسي": 7277,
      "▁كذلك.\n": 7278,
      "شاط": 7279,
      "▁احم": 7280,
      "عتها": 7281,
      "▁تفرق": 7282,
      "▁جاوز": 7283,
      "▁لض": 7284,
      "▁سبحانه": 7285,
      "▁تصح": 7286,
      "▁اسناد": 7287,
      "▁مناف": 7288,
      "▁يجا": 7289,
      "▁لجاز": 7290,
      "▁\"ول": 7291,
      "▁والعامل": 7292,
      "▁مائ": 7293,
      "▁السواد": 7294,
      "▁اتاني": 7295,
      "▁لاخ": 7296,
      "▁وعمل": 7297,
      "▁تكتب": 7298,
      "▁وافعل": 7299,
      "▁العكس": 7300,
      "▁اوجه": 7301,
      "▁٣)،": 7302,
      "رب:": 7303,
      "▁بعدما": 7304,
      "جوا": 7305,
      "حها": 7306,
      "▁بسم": 7307,
      "▁اخبرني": 7308,
      "▁ولكني": 7309,
      "▁ذاهب": 7310,
      "▁كلاما": 7311,
      "▁ناد": 7312,
      "▁عملت": 7313,
      "مته": 7314,
      "▁الزوج": 7315,
      "▁فكتب": 7316,
      "▁اعتراض": 7317,
      "▁لث": 7318,
      "▁كشف": 7319,
      "▁وحق": 7320,
      "▁الكذب": 7321,
      "يلة،": 7322,
      "صان": 7323,
      "▁طويلة": 7324,
      "▁فاعت": 7325,
      "▁تاخر": 7326,
      "▁الكناية": 7327,
      "▁البش": 7328,
      "▁ومش": 7329,
      "▁\"ضرب": 7330,
      "ربما": 7331,
      "▁الاتباع": 7332,
      "▁به؛": 7333,
      "▁تاثير": 7334,
      "▁المعني.\n": 7335,
      "رفه": 7336,
      "▁معان": 7337,
      "▁الاخذ": 7338,
      "▁مضموم": 7339,
      "▁محاسن": 7340,
      "حون": 7341,
      "▁التام": 7342,
      "▁داود": 7343,
      "▁قتيبة": 7344,
      "▁تقبل": 7345,
      "ليلة": 7346,
      "▁-في": 7347,
      "▁اعتمد": 7348,
      "▁مكانه": 7349,
      "دو": 7350,
      "▁لكي": 7351,
      "▁ودا": 7352,
      "▁استعارة": 7353,
      "▁الادبية": 7354,
      "▁النعمان": 7355,
      "▁الاثبات": 7356,
      "▁برفع": 7357,
      "▁وعشرين": 7358,
      "▁تعني": 7359,
      "▁ورك": 7360,
      "جان": 7361,
      "▁ثلاثي": 7362,
      "▁الجرج": 7363,
      "شعر": 7364,
      "▁مقول": 7365,
      "▁صفة،": 7366,
      "▁اكرمت": 7367,
      "▁وفيما": 7368,
      "حيف": 7369,
      "▁الشا": 7370,
      "ت)": 7371,
      "وكل": 7372,
      "ماس": 7373,
      "▁عشر،": 7374,
      "▁واستدل": 7375,
      "▁يتصور": 7376,
      "▁والشع": 7377,
      "واء،": 7378,
      "▁هـ.\n": 7379,
      "▁الملائكة": 7380,
      "بر:": 7381,
      "▁والتص": 7382,
      "▁-كما": 7383,
      "▁احا": 7384,
      "▁محض": 7385,
      "تدي": 7386,
      "▁الطي": 7387,
      "▁وهب": 7388,
      "▁هذا.\n": 7389,
      "▁تلت": 7390,
      "▁اليون": 7391,
      "رص": 7392,
      "يته،": 7393,
      "▁زالت": 7394,
      "▁بكلام": 7395,
      "▁الرائ": 7396,
      "▁جرد": 7397,
      "▁ووزن": 7398,
      "▁وبئس": 7399,
      "فعل\"": 7400,
      "▁الراعي": 7401,
      "▁(الف": 7402,
      "▁اوس": 7403,
      "▁فرح": 7404,
      "▁وخص": 7405,
      "▁المضارعة": 7406,
      "▁ونحوها": 7407,
      "▁الاعلال": 7408,
      "▁الكميت": 7409,
      "▁اقسم": 7410,
      "الج": 7411,
      "▁ويجب": 7412,
      "▁ثني": 7413,
      "▁التصريف": 7414,
      "▁عذا": 7415,
      "▁الراي:": 7416,
      "▁منقول": 7417,
      "▁السبيل": 7418,
      "▁البلي": 7419,
      "ركم": 7420,
      "▁ثقل": 7421,
      "▁ادغام": 7422,
      "▁جزمه": 7423,
      "▁احد،": 7424,
      "▁بقيت": 7425,
      "▁فيست": 7426,
      "الوا": 7427,
      "▁وعا": 7428,
      "▁كتبه": 7429,
      "سلم": 7430,
      "▁الابل،": 7431,
      "▁وصلت": 7432,
      "▁راه": 7433,
      "▁ادوات": 7434,
      "▁مسل": 7435,
      "▁بالمن": 7436,
      "▁الاول.\n": 7437,
      "▁يتصرف": 7438,
      "بياء": 7439,
      "▁نقد": 7440,
      "عية": 7441,
      "فعلن": 7442,
      "▁والقر": 7443,
      "▁كثيرة،": 7444,
      "الم،": 7445,
      "▁تصل": 7446,
      "▁دمشق": 7447,
      "وا\"": 7448,
      "٩]": 7449,
      "▁يضم": 7450,
      "▁الدني": 7451,
      "▁يشاء": 7452,
      "بته،": 7453,
      "▁ومص": 7454,
      "▁نسخ": 7455,
      "اب\n": 7456,
      "▁الصيغة": 7457,
      "▁باه": 7458,
      "▁\"و\"": 7459,
      "▁الباقي": 7460,
      "يل.\n": 7461,
      "▁المنطق": 7462,
      "▁ضربه": 7463,
      "افا": 7464,
      "▁اقر": 7465,
      "لتين": 7466,
      "▁الرغ": 7467,
      "▁اختار": 7468,
      "▁تقديمه": 7469,
      "▁الحديث:\n": 7470,
      "▁ماضيا": 7471,
      "▁عنه.": 7472,
      "▁ويظهر": 7473,
      "تي\"": 7474,
      "▁ووصف": 7475,
      "▁الدار،": 7476,
      "▁فالع": 7477,
      "▁قليلة": 7478,
      "▁القصة": 7479,
      "شبيه": 7480,
      "▁تفت": 7481,
      "وانين": 7482,
      "▁سببا": 7483,
      "▁المفسر": 7484,
      "ميص": 7485,
      "▁حدود": 7486,
      "▁التل": 7487,
      "هما\n": 7488,
      "▁بالليل": 7489,
      "▁نعتا": 7490,
      "▁\"وي": 7491,
      "افل": 7492,
      "▁العروض": 7493,
      "دعي": 7494,
      "▁انفا": 7495,
      "جموع": 7496,
      "▁النسخ": 7497,
      "▁(هذا": 7498,
      "▁النثر": 7499,
      "▁البع": 7500,
      "▁تسعة": 7501,
      "سبه": 7502,
      "▁حات": 7503,
      "▁اللح": 7504,
      "▁بعد،": 7505,
      "▁الاتصال": 7506,
      "▁بالضمة.\n": 7507,
      "▁محمدا": 7508,
      "▁جاد": 7509,
      "▁جهن": 7510,
      "▁صالحا": 7511,
      "جاد": 7512,
      "▁الحمي": 7513,
      "ركت": 7514,
      "خصص": 7515,
      "▁حقي": 7516,
      "▁القتل": 7517,
      "▁وعز": 7518,
      "ولاء": 7519,
      "ثاء": 7520,
      "يان": 7521,
      "▁الشاة": 7522,
      "▁رات": 7523,
      "▁قبح": 7524,
      "▁السابع": 7525,
      "▁الاما": 7526,
      "▁العش": 7527,
      "▁فامر": 7528,
      "▁الوحش": 7529,
      "▁التعليق:": 7530,
      "▁صغر": 7531,
      "▁٦٥": 7532,
      "▁وثاني": 7533,
      "▁رايه": 7534,
      "▁لهن": 7535,
      "صب،": 7536,
      "لائل": 7537,
      "▁تبر": 7538,
      "▁بالنا": 7539,
      "▁النقص": 7540,
      "▁موجب": 7541,
      "▁اوضح": 7542,
      "▁٦٢": 7543,
      "جام": 7544,
      "▁صحيحا": 7545,
      "▁مرب": 7546,
      "▁ويب": 7547,
      "▁تاخذ": 7548,
      "▁سئل": 7549,
      "▁شتي": 7550,
      "▁الطائي": 7551,
      "▁اتفق": 7552,
      "▁اصحابنا": 7553,
      "▁[ب": 7554,
      "▁بمصر": 7555,
      "▁سفر": 7556,
      "▁ورم": 7557,
      "▁قاص": 7558,
      "▁قف": 7559,
      "▁سياق": 7560,
      "▁يقضي": 7561,
      "▁الكرام": 7562,
      "▁التفا": 7563,
      "تن": 7564,
      "خلا": 7565,
      "▁مجز": 7566,
      "▁فساد": 7567,
      "▁ردي": 7568,
      "ركا": 7569,
      "▁فضرب": 7570,
      "▁مري": 7571,
      "▁(فا": 7572,
      "▁سواه": 7573,
      "عريف": 7574,
      "▁\"غ": 7575,
      "▁(الح": 7576,
      "٨]": 7577,
      "▁ونع": 7578,
      "▁والكتاب": 7579,
      "▁الارت": 7580,
      "ابس": 7581,
      "▁حياته": 7582,
      "▁للاع": 7583,
      "٩\n": 7584,
      "▁برب": 7585,
      "▁قرات": 7586,
      "▁يصنع": 7587,
      "▁تبقي": 7588,
      "مني": 7589,
      "▁ضيق": 7590,
      "▁قريبا": 7591,
      "▁(الي": 7592,
      "▁لاب": 7593,
      "▁معجمة": 7594,
      "▁\"اذا": 7595,
      "▁بكر:": 7596,
      "▁والراء": 7597,
      "▁الحلم": 7598,
      "رجمة": 7599,
      "▁اعمل": 7600,
      "▁والثالث:": 7601,
      "▁الاسن": 7602,
      "ي.": 7603,
      "▁ادخلت": 7604,
      "▁التب": 7605,
      "▁راح": 7606,
      "دخل": 7607,
      "▁بذا": 7608,
      "▁استغني": 7609,
      "▁بحركة": 7610,
      "▁يفسر": 7611,
      "▁تسع": 7612,
      "▁نواس": 7613,
      "▁التهذيب": 7614,
      "نا\"": 7615,
      "▁فالن": 7616,
      "▁هب": 7617,
      "▁القل": 7618,
      "▁والاج": 7619,
      "▁لقلت": 7620,
      "▁تكسر": 7621,
      "▁سلمة": 7622,
      "▁بيتا": 7623,
      "▁للذي": 7624,
      "▁وراي": 7625,
      "▁دوا": 7626,
      "▁القوم،": 7627,
      "▁[٢]": 7628,
      "▁سيرا": 7629,
      "▁الكسائي:": 7630,
      "▁الفجر": 7631,
      "▁الديار": 7632,
      "▁لازما": 7633,
      "وي\n": 7634,
      "▁وناقة": 7635,
      "▁مخالفة": 7636,
      "▁وارض": 7637,
      "▁وعين": 7638,
      "جلس": 7639,
      "▁تتح": 7640,
      "▁تحتاج": 7641,
      "▁مجي": 7642,
      "▁يوثر": 7643,
      "ئية": 7644,
      "▁الحوض": 7645,
      "▁السبب:": 7646,
      "▁يتغير": 7647,
      "▁الامالة": 7648,
      "▁والناس": 7649,
      "▁اجري": 7650,
      "▁المتكلم،": 7651,
      "▁نزلت": 7652,
      "▁شمال": 7653,
      "▁الحاد": 7654,
      "▁صدره": 7655,
      "▁بخط": 7656,
      "▁ينبت": 7657,
      "▁يوضع": 7658,
      "▁واخبر": 7659,
      "وك،": 7660,
      "▁مقلوب": 7661,
      "▁الجود": 7662,
      "▁مفا": 7663,
      "▁البين": 7664,
      "▁لعبد": 7665,
      "▁قاض": 7666,
      "▁ادعي": 7667,
      "▁الاخلاق": 7668,
      "▁الزمان،": 7669,
      "▁للاخ": 7670,
      "▁جزاء": 7671,
      "▁تولي": 7672,
      "قدار": 7673,
      "▁مفعولي": 7674,
      "▁النور": 7675,
      "▁بالحق": 7676,
      "▁خيل": 7677,
      "ذير": 7678,
      "▁الخروج": 7679,
      "ميس": 7680,
      "▁مجرورا": 7681,
      "▁الوط": 7682,
      "▁تال": 7683,
      "▁الجذر:": 7684,
      "▁فعلة": 7685,
      "ب)": 7686,
      "وظ": 7687,
      "▁صا": 7688,
      "▁هذان": 7689,
      "▁ضاح": 7690,
      "طوطة": 7691,
      "▁الطريقة": 7692,
      "▁سلط": 7693,
      "▁اقامة": 7694,
      "▁٦٤": 7695,
      "▁والهمزة": 7696,
      "▁الشجاع": 7697,
      "▁الصيد": 7698,
      "ضيع": 7699,
      "▁جملة،": 7700,
      "ل)": 7701,
      "رارة": 7702,
      "▁تكلف": 7703,
      "▁وتف": 7704,
      "▁الدالة": 7705,
      "▁والمد": 7706,
      "وس:": 7707,
      "▁المفتوحة": 7708,
      "▁يمر": 7709,
      "▁الهدي": 7710,
      "▁والرتبة:": 7711,
      "▁دليلا": 7712,
      "▁ثانيا": 7713,
      "ول.": 7714,
      "▁به\n": 7715,
      "▁موصولة": 7716,
      "▁الصلا": 7717,
      "▁المنزل": 7718,
      "▁متعديا": 7719,
      "▁طاهر": 7720,
      "▁بحكم": 7721,
      "▁المغرب": 7722,
      "نية،": 7723,
      "▁تقوي": 7724,
      "▁والحال": 7725,
      "▁بسط": 7726,
      "▁واقام": 7727,
      "▁الظلم": 7728,
      "▁شعرا": 7729,
      "▁الانكليزية": 7730,
      "▁المختص": 7731,
      "▁وابت": 7732,
      "▁العز": 7733,
      "▁مفاعل": 7734,
      "▁النفي،": 7735,
      "▁بابن": 7736,
      "▁قاب": 7737,
      "▁التقاء": 7738,
      "▁الكوفة": 7739,
      "ي.\n": 7740,
      "▁بسر": 7741,
      "١٢": 7742,
      "▁تاليف": 7743,
      "▁١٩٣": 7744,
      "▁تقت": 7745,
      "▁والزم": 7746,
      "▁٤).\n": 7747,
      "▁١٤٠": 7748,
      "▁عقب": 7749,
      "▁(ضرب": 7750,
      "▁الصباح": 7751,
      "▁ارق": 7752,
      "▁شب": 7753,
      "▁اللون": 7754,
      "▁تخصيص": 7755,
      "▁صم": 7756,
      "اجر": 7757,
      "▁والظاهر": 7758,
      "يل.": 7759,
      "▁وبها": 7760,
      "▁الظاهر،": 7761,
      "▁حاض": 7762,
      "▁ويج": 7763,
      "▁ضر": 7764,
      "طيئة": 7765,
      "هض": 7766,
      "▁(كان)": 7767,
      "▁يمس": 7768,
      "رادة": 7769,
      "▁يسلم": 7770,
      "ذال": 7771,
      "▁الرشيد": 7772,
      "▁وفق": 7773,
      "▁واخرج": 7774,
      "▁كالف": 7775,
      "▁والفاء": 7776,
      "ثقال": 7777,
      "▁الكبري": 7778,
      "▁كج": 7779,
      "▁شانه": 7780,
      "▁(١٠": 7781,
      "▁البسيط،": 7782,
      "▁والرتبة:-": 7783,
      "▁جيء": 7784,
      "نساء": 7785,
      "▁رئيس": 7786,
      "تهن": 7787,
      "▁للث": 7788,
      "▁والقص": 7789,
      "بل،": 7790,
      "▁طرفة": 7791,
      "▁\"الك": 7792,
      "▁المحت": 7793,
      "▁نذكر": 7794,
      "▁لهم،": 7795,
      "▁وصفه": 7796,
      "▁ظهورها": 7797,
      "▁وشع": 7798,
      "▁الادباء": 7799,
      "▁فكرة": 7800,
      "مرفوض": 7801,
      "▁بنصب": 7802,
      "▁الراي:مرفوض": 7803,
      "▁(وما": 7804,
      "▁المها": 7805,
      "▁حمر": 7806,
      "▁بذلك،": 7807,
      "▁حف": 7808,
      "▁[الن": 7809,
      "▁نظرا": 7810,
      "▁الحكيم": 7811,
      "▁الفصاحة": 7812,
      "▁الفرن": 7813,
      "▁الفصيح": 7814,
      "▁اخاه": 7815,
      "▁سام": 7816,
      "انا،": 7817,
      "▁غيرها،": 7818,
      "▁يحتج": 7819,
      "▁[٤": 7820,
      "▁والشيء": 7821,
      "فخ": 7822,
      "▁مقي": 7823,
      "▁ابنة": 7824,
      "بطة": 7825,
      "▁باضمار": 7826,
      "▁البرد": 7827,
      "▁قعد": 7828,
      "رجو": 7829,
      "▁البرا": 7830,
      "▁اشتقاق": 7831,
      "▁الاسلامية": 7832,
      "بيا": 7833,
      "▁للفظ": 7834,
      "▁جرم": 7835,
      "▁البقرة": 7836,
      "▁وشد": 7837,
      "روس": 7838,
      "▁وجوز": 7839,
      "▁\"قال": 7840,
      "▁غير،": 7841,
      "▁بالفتح:": 7842,
      "▁كات": 7843,
      "▁فيهما،": 7844,
      "▁الجلالة:": 7845,
      "طلاق": 7846,
      "▁بعل": 7847,
      "▁ع\n": 7848,
      "▁اخيه": 7849,
      "صرة": 7850,
      "▁ايد": 7851,
      "▁خلط": 7852,
      "▁حوله": 7853,
      "▁العشرة": 7854,
      "▁والرب": 7855,
      "▁وسيب": 7856,
      "▁يصب": 7857,
      "▁وفت": 7858,
      "▁زيد\"": 7859,
      "▁سنين": 7860,
      "▁فانظر": 7861,
      "▁متصلا": 7862,
      "موا": 7863,
      "▁وبذلك": 7864,
      "▁مالي": 7865,
      "▁اكلت": 7866,
      "دار": 7867,
      "▁يشد": 7868,
      "▁المكسورة": 7869,
      "▁صير": 7870,
      "▁١٩٦": 7871,
      "▁افع": 7872,
      "▁قديم": 7873,
      "طي،": 7874,
      "▁اقب": 7875,
      "▁تمنع": 7876,
      "▁تعود": 7877,
      "▁وجدنا": 7878,
      "▁اتح": 7879,
      "▁الحرف،": 7880,
      "▁عجل": 7881,
      "رق،": 7882,
      "▁علمه": 7883,
      "▁للنا": 7884,
      "▁الاولي:": 7885,
      "▁لاسم": 7886,
      "▁للجمع": 7887,
      "قضي": 7888,
      "▁التغيير": 7889,
      "▁القائ": 7890,
      "▁محلا": 7891,
      "▁الفتح،": 7892,
      "▁حكا": 7893,
      "▁العيون": 7894,
      "خرا": 7895,
      "▁الطويل\n": 7896,
      "▁النحويون": 7897,
      "▁سهم": 7898,
      "▁؟": 7899,
      "▁قبر": 7900,
      "▁يشهد": 7901,
      "▁انج": 7902,
      "▁علوم": 7903,
      "رابة": 7904,
      "▁للاس": 7905,
      "▁جميعا،": 7906,
      "▁اغني": 7907,
      "▁والات": 7908,
      "لها": 7909,
      "نيف": 7910,
      "▁فرن": 7911,
      "▁جلس": 7912,
      "▁واشباه": 7913,
      "▁ووق": 7914,
      "▁وحدث": 7915,
      "▁لبيان": 7916,
      "▁العظم": 7917,
      "▁الجمه": 7918,
      "▁تبعا": 7919,
      "▁دح": 7920,
      "▁مجرورة": 7921,
      "▁٨)": 7922,
      "▁والكوفي": 7923,
      "▁احتمال": 7924,
      "▁عجبت": 7925,
      "▁التخفيف": 7926,
      "▁والرابع": 7927,
      "▁ساح": 7928,
      "٧.\n": 7929,
      "▁وجها": 7930,
      "▁الامر:": 7931,
      "▁تغلب": 7932,
      "▁منازل": 7933,
      "▁وجعله": 7934,
      "راسات": 7935,
      "▁فرغ": 7936,
      "ورية": 7937,
      "ش.": 7938,
      "▁اضطر": 7939,
      "▁زيادتها": 7940,
      "٣:": 7941,
      "▁تفتح": 7942,
      "▁سيده:": 7943,
      "▁الطفل": 7944,
      "▁للفر": 7945,
      "ذا،": 7946,
      "▁قائما،": 7947,
      "▁(فان": 7948,
      "▁تامل": 7949,
      "اثر": 7950,
      "نبيه": 7951,
      "٧؛": 7952,
      "▁كاني": 7953,
      "▁وافق": 7954,
      "▁(٣):": 7955,
      "▁اللذين": 7956,
      "▁عاطفة": 7957,
      "ق)": 7958,
      "ري)": 7959,
      "▁الشراب": 7960,
      "▁الاستفهام،": 7961,
      "▁يمن": 7962,
      "▁والصف": 7963,
      "▁بابه": 7964,
      "▁التاسع": 7965,
      "روء": 7966,
      "▁المنفي": 7967,
      "▁الابتداء،": 7968,
      "▁(ابن": 7969,
      "▁للفاعل": 7970,
      "صارا": 7971,
      "▁الفعل.\n": 7972,
      "طقة": 7973,
      "▁تسم": 7974,
      "▁الوزير": 7975,
      "ذع": 7976,
      "▁الناصب": 7977,
      "▁الشافعي": 7978,
      "▁والعل": 7979,
      "▁طوال": 7980,
      "▁نجا": 7981,
      "▁شاة": 7982,
      "▁يطرد": 7983,
      "واضع": 7984,
      "▁ثمر": 7985,
      "دفع": 7986,
      "▁فقوله:": 7987,
      "▁منهم،": 7988,
      "▁نادر": 7989,
      "▁تقطع": 7990,
      "▁والشر": 7991,
      "بلة": 7992,
      "وات،": 7993,
      "▁الزيدان": 7994,
      "▁اشرف": 7995,
      "▁فالي": 7996,
      "▁ترخيم": 7997,
      "▁بيروت": 7998,
      "▁السوء": 7999,
      "▁يموت": 8000,
      "▁سفيان": 8001,
      "▁الغليظ": 8002,
      "دة.": 8003,
      "▁النم": 8004,
      "▁طار": 8005,
      "▁العرب.\n": 8006,
      "▁تجوز": 8007,
      "▁بقا": 8008,
      "▁عنت": 8009,
      "هم؛": 8010,
      "▁النصر": 8011,
      "خاء": 8012,
      "▁يملك": 8013,
      "▁يهم": 8014,
      "ني\n": 8015,
      "لبث": 8016,
      "▁المجلس": 8017,
      "▁محدث": 8018,
      "▁ي\n": 8019,
      "ركها": 8020,
      "▁العمل،": 8021,
      "ري\"": 8022,
      "▁الناحية": 8023,
      "▁فجمع": 8024,
      "▁تفصيل": 8025,
      "▁الفقهاء": 8026,
      "▁طع": 8027,
      "▁الثانية:": 8028,
      "▁يحد": 8029,
      "▁والبي": 8030,
      "▁زا": 8031,
      "▁الاحرف": 8032,
      "▁عنق": 8033,
      "▁\"الع": 8034,
      "▁عقيل": 8035,
      "فور": 8036,
      "▁عاج": 8037,
      "▁القرب": 8038,
      "▁يخاف": 8039,
      "▁بالمفعول": 8040,
      "يها": 8041,
      "▁وحل": 8042,
      "▁يبعد": 8043,
      "▁ومثله:": 8044,
      "قش": 8045,
      "▁غيره.": 8046,
      "▁وحو": 8047,
      "▁وسائر": 8048,
      "لاوة": 8049,
      "▁اسا": 8050,
      "▁مود": 8051,
      "▁د.": 8052,
      "▁رفعا": 8053,
      "▁نية": 8054,
      "▁\"قد": 8055,
      "▁بالنون": 8056,
      "▁المعتز": 8057,
      "▁فصيح": 8058,
      "▁وقوعه": 8059,
      "▁بواسطة": 8060,
      "▁وشرط": 8061,
      "▁رحي": 8062,
      "▁اليهود": 8063,
      "▁هام": 8064,
      "▁ارتفاع": 8065,
      "▁كثيرا،": 8066,
      "▁النظام": 8067,
      "▁كتا": 8068,
      "▁جرا": 8069,
      "▁مفس": 8070,
      "▁الجواز": 8071,
      "▁عمر:": 8072,
      "خف": 8073,
      "▁يسقط": 8074,
      "▁قيمة": 8075,
      "ريق،": 8076,
      "▁الاطلاق": 8077,
      "▁الاتيان": 8078,
      "▁محمد،": 8079,
      "م)": 8080,
      "▁بحق": 8081,
      "ويض": 8082,
      "▁لاهل": 8083,
      "▁متاع": 8084,
      "▁ولكنهم": 8085,
      "حا\n": 8086,
      "▁المائ": 8087,
      "▁الخليل:": 8088,
      "ارها": 8089,
      "▁الفواد": 8090,
      "يل)": 8091,
      "▁اصحابه": 8092,
      "ظ،": 8093,
      "▁افرد": 8094,
      "ونك": 8095,
      "▁دق": 8096,
      "▁ص٣": 8097,
      "ثلث": 8098,
      "▁وموضع": 8099,
      "▁ع:": 8100,
      "▁الاسا": 8101,
      "▁فيها:": 8102,
      "▁ونظير": 8103,
      "▁اجاب": 8104,
      "▁الاصطلاح": 8105,
      "▁الليل،": 8106,
      "▁عاملا": 8107,
      "▁مسند": 8108,
      "▁حبا": 8109,
      "▁بعير": 8110,
      "▁اعجب": 8111,
      "▁يعتقد": 8112,
      "▁غاب": 8113,
      "افعال": 8114,
      "مر\n": 8115,
      "عمال،": 8116,
      "▁والجميع": 8117,
      "يناه": 8118,
      "▁ويو": 8119,
      "▁وباب": 8120,
      "رث": 8121,
      "▁كاذ": 8122,
      "▁المعاني،": 8123,
      "▁مفعولين": 8124,
      "▁بالابتداء": 8125,
      "▁عليه؛": 8126,
      "▁يعتمد": 8127,
      "▁تبني": 8128,
      "▁عمرا،": 8129,
      "▁تستطيع": 8130,
      "▁السائل": 8131,
      "▁اقصي": 8132,
      "▁الغنم": 8133,
      "▁يليها": 8134,
      "▁بالماء": 8135,
      "▁والكس": 8136,
      "▁الاعتراض": 8137,
      "▁زيد.\n": 8138,
      "▁ظاهره": 8139,
      "سرة": 8140,
      "فد": 8141,
      "▁واكت": 8142,
      "▁بيضاء": 8143,
      "▁اسقط": 8144,
      "ذهبت": 8145,
      "▁لقوم": 8146,
      "▁وخبره": 8147,
      "لته،": 8148,
      "▁واسع": 8149,
      "فا\n": 8150,
      "▁حذفوا": 8151,
      "صية": 8152,
      "▁بمد": 8153,
      "متها": 8154,
      "▁الجنا": 8155,
      "▁باطن": 8156,
      "▁السيا": 8157,
      "▁يستدرك": 8158,
      "▁كمثل": 8159,
      "▁الصفة،": 8160,
      "▁البقر": 8161,
      "▁\"است": 8162,
      "▁اشعر": 8163,
      "▁بنفسه،": 8164,
      "▁لحي": 8165,
      "▁يبدل": 8166,
      "▁\"كل": 8167,
      "▁الايات": 8168,
      "▁وبلغ": 8169,
      "▁قرط": 8170,
      "▁الخ،": 8171,
      "انا\n": 8172,
      "خب": 8173,
      "▁يقرب": 8174,
      "▁الوجه،": 8175,
      "▁عمد": 8176,
      "▁الساكنين،": 8177,
      "▁يخص": 8178,
      "▁مجازا": 8179,
      "▁اكن": 8180,
      "▁انكم": 8181,
      "▁كلب": 8182,
      "▁ذكره،": 8183,
      "▁صحيح،": 8184,
      "▁اراك": 8185,
      "▁مبالغة": 8186,
      "مل\n": 8187,
      "▁مضارعه": 8188,
      "فر:": 8189,
      "١٩": 8190,
      "▁(قال": 8191,
      "▁الخفض": 8192,
      "▁الجماعة.": 8193,
      "بيث": 8194,
      "▁ش:": 8195,
      "▁البياض": 8196,
      "▁التخصيص": 8197,
      "▁التزم": 8198,
      "▁يزعم": 8199,
      "▁الجري": 8200,
      "▁عصا": 8201,
      "▁والرج": 8202,
      "▁نوح": 8203,
      "▁متصل-": 8204,
      "▁السيوف": 8205,
      "ضد": 8206,
      "▁دالة": 8207,
      "وب:": 8208,
      "٨؛": 8209,
      "▁ف\n": 8210,
      "▁بحا": 8211,
      "▁عنهما": 8212,
      "▁يتضمن": 8213,
      "رابا": 8214,
      "▁السماوات": 8215,
      "صع": 8216,
      "▁والبر": 8217,
      "ناه،": 8218,
      "▁شح": 8219,
      "▁(٦).\n": 8220,
      "▁بواحد": 8221,
      "▁المفضل": 8222,
      "▁اعرابها.": 8223,
      "جبني": 8224,
      "▁الابهام": 8225,
      "خو": 8226,
      "▁صلاح": 8227,
      "▁تزوج": 8228,
      "▁الود": 8229,
      "▁بظ": 8230,
      "ضاة": 8231,
      "غن": 8232,
      "▁٦٦": 8233,
      "▁حمزة": 8234,
      "رتب": 8235,
      "▁متن": 8236,
      "شح": 8237,
      "▁مان": 8238,
      "▁(اع": 8239,
      "▁العجز": 8240,
      "▁اتبا": 8241,
      "ركه": 8242,
      "▁مضمرة": 8243,
      "▁القبي": 8244,
      "▁دينار": 8245,
      "▁فمثال": 8246,
      "▁(هـ)": 8247,
      "▁وحده،": 8248,
      "▁اثني": 8249,
      "▁بقدر": 8250,
      "▁يتوهم": 8251,
      "▁المفرد،": 8252,
      "▁حركات": 8253,
      "▁ذل": 8254,
      "▁مجل": 8255,
      "▁نصيب": 8256,
      "▁اجتمعت": 8257,
      "▁(ث": 8258,
      "ضيح": 8259,
      "▁استق": 8260,
      "▁القران،": 8261,
      "▁المرض": 8262,
      "▁الاذن": 8263,
      "فر\n": 8264,
      "تي)": 8265,
      "▁امين": 8266,
      "▁بينما": 8267,
      "▁\"الا\"": 8268,
      "▁الظلام": 8269,
      "▁القضاء": 8270,
      "▁العسل": 8271,
      "▁الحافظ": 8272,
      "قرير": 8273,
      "▁وحيث": 8274,
      "ديت": 8275,
      "▁بالفتحة.\n": 8276,
      "دن": 8277,
      "▁للاسم": 8278,
      "مار،": 8279,
      "▁حسنة": 8280,
      "▁د\n": 8281,
      "▁المخبر": 8282,
      "١٣": 8283,
      "▁بثلاث": 8284,
      "▁٦٣": 8285,
      "▁وفاعله": 8286,
      "▁وكر": 8287,
      "▁البغدادي": 8288,
      "▁الضمائر": 8289,
      "▁الكافية": 8290,
      "زح": 8291,
      "▁الشواهد": 8292,
      "▁يخاطب": 8293,
      "▁مناس": 8294,
      "▁زيد.": 8295,
      "▁ناس": 8296,
      "▁الارض.": 8297,
      "▁البصريين،": 8298,
      "▁عمران": 8299,
      "▁تها": 8300,
      "لقي": 8301,
      "▁تراب": 8302,
      "دة.\n": 8303,
      "▁اخراج": 8304,
      "هرا": 8305,
      "▁فكر": 8306,
      "كية": 8307,
      "▁بعلم": 8308,
      "▁والعي": 8309,
      "▁الاساس": 8310,
      "▁الفم": 8311,
      "▁خصائص": 8312,
      "▁معج": 8313,
      "▁سيدنا": 8314,
      "▁اخوه": 8315,
      "ضاد": 8316,
      "▁الالت": 8317,
      "▁تصلح": 8318,
      "▁جند": 8319,
      "▁يحكي": 8320,
      "▁الاصلية": 8321,
      "▁المضارع،": 8322,
      "▁ظهرت": 8323,
      "ج.": 8324,
      "▁قاد": 8325,
      "▁سقوط": 8326,
      "٩؛": 8327,
      "▁وياتي": 8328,
      "رته،": 8329,
      "ني.": 8330,
      "▁بنون": 8331,
      "▁مقطوع": 8332,
      "▁التابع": 8333,
      "▁ويغ": 8334,
      "▁ويشت": 8335,
      "▁شيء.\n": 8336,
      "▁الحروف،": 8337,
      "▁للجنس": 8338,
      "▁التسمية": 8339,
      "▁الردي": 8340,
      "▁محذوفا": 8341,
      "▁يستوي": 8342,
      "▁(٣).": 8343,
      "فات": 8344,
      "▁صنف": 8345,
      "▁ناصب": 8346,
      "▁شديدا": 8347,
      "▁برح": 8348,
      "▁شت": 8349,
      "مون": 8350,
      "▁ودل": 8351,
      "▁وتو": 8352,
      "▁هي:": 8353,
      "▁لدن": 8354,
      "ثن": 8355,
      "▁عوف": 8356,
      "▁سوق": 8357,
      "داث": 8358,
      "▁بيده": 8359,
      "▁النفس،": 8360,
      "▁مبت": 8361,
      "▁قائمة": 8362,
      "▁الانسانية": 8363,
      "▁والشاهد": 8364,
      "▁افادة": 8365,
      "▁طلحة": 8366,
      "▁وافت": 8367,
      "فيت": 8368,
      "▁لسانه": 8369,
      "▁فرفع": 8370,
      "اصة": 8371,
      "▁الكامل،": 8372,
      "عاد": 8373,
      "▁(غير": 8374,
      "▁سلطان": 8375,
      "▁استدل": 8376,
      "▁وظن": 8377,
      "▁فيقولون:": 8378,
      "▁مذكور": 8379,
      "ولا،": 8380,
      "جزء": 8381,
      "▁عطفت": 8382,
      "▁فاه": 8383,
      "▁منها.\n": 8384,
      "وصول": 8385,
      "▁قصيد": 8386,
      "▁وامثال": 8387,
      "▁معاملة": 8388,
      "▁الاحمر": 8389,
      "▁فخر": 8390,
      "▁تكسير": 8391,
      "▁الضارب": 8392,
      "▁التضعيف": 8393,
      "بعي": 8394,
      "▁زر": 8395,
      "▁دلت": 8396,
      "▁الدخول": 8397,
      "وتها": 8398,
      "▁اتت": 8399,
      "▁يرضي": 8400,
      "▁مها": 8401,
      "لي)": 8402,
      "▁الاخطل": 8403,
      "▁جر،": 8404,
      "▁يكونا": 8405,
      "▁شبهه": 8406,
      "٢]": 8407,
      "▁تصير": 8408,
      "▁الاور": 8409,
      "▁لذ": 8410,
      "▁فيه؛": 8411,
      "▁تدا": 8412,
      "باعد": 8413,
      "▁البسيط]\n": 8414,
      "▁وعرض": 8415,
      "▁الكلام.\n": 8416,
      "▁الحكاية": 8417,
      "▁عملها": 8418,
      "▁تكرار": 8419,
      "▁الفعلي": 8420,
      "▁للز": 8421,
      "▁المنقول": 8422,
      "▁لحا": 8423,
      "فيض": 8424,
      "لاقه": 8425,
      "ذا)": 8426,
      "▁الدمع": 8427,
      "▁كالج": 8428,
      "▁الظالم": 8429,
      "▁ولكل": 8430,
      "لهما": 8431,
      "▁عينيه": 8432,
      "٠\n": 8433,
      "▁(باب": 8434,
      "▁قولنا": 8435,
      "▁البرق": 8436,
      "▁محب": 8437,
      "▁لقوله": 8438,
      "▁تخفيف": 8439,
      "▁يفسره": 8440,
      "▁كرب": 8441,
      "▁خرق": 8442,
      "▁ثاب": 8443,
      "▁(٦)،": 8444,
      "▁الاقسام": 8445,
      "▁اولها": 8446,
      "كبر": 8447,
      "▁هدا": 8448,
      "قيقا": 8449,
      "▁[الا": 8450,
      "▁يسا": 8451,
      "▁بعدهما": 8452,
      "▁الوقا": 8453,
      "▁منها.": 8454,
      "قيق،": 8455,
      "▁بدم": 8456,
      "ائك": 8457,
      "▁شيء.": 8458,
      "▁عنوان": 8459,
      "داح": 8460,
      "يت،": 8461,
      "▁فينب": 8462,
      "▁خفيف": 8463,
      "▁تاوي": 8464,
      "▁الاديب": 8465,
      "ته)": 8466,
      "▁الكه": 8467,
      "واية": 8468,
      "▁اللوم": 8469,
      "زون": 8470,
      "▁انثي": 8471,
      "لازم": 8472,
      "▁الرافعي": 8473,
      "!!": 8474,
      "ت\n": 8475,
      "عله": 8476,
      "▁باص": 8477,
      "▁صغار": 8478,
      "▁ينوب": 8479,
      "▁مستقبل": 8480,
      "▁رباع": 8481,
      "▁يعتد": 8482,
      "غه": 8483,
      "▁-ا": 8484,
      "▁الذال": 8485,
      "▁فنقول:": 8486,
      "▁فالف": 8487,
      "▁تقدم.\n": 8488,
      "▁حبس": 8489,
      "▁راب": 8490,
      "▁عاما": 8491,
      "▁ثمان": 8492,
      "▁يضر": 8493,
      "ذر،": 8494,
      "▁ميز": 8495,
      "▁شيوخ": 8496,
      "▁الاندلس": 8497,
      "▁\":": 8498,
      "▁المتح": 8499,
      "طويل]\n": 8500,
      "▁تحقق": 8501,
      "▁والثلاث": 8502,
      "▁\"عن": 8503,
      "▁(اس": 8504,
      "▁البقاء": 8505,
      "▁كالس": 8506,
      "▁صنعت": 8507,
      "▁الجموع": 8508,
      "▁الايجاز": 8509,
      "▁لوجه": 8510,
      "▁الصناعة": 8511,
      "▁النحل": 8512,
      "دب": 8513,
      "▁القلم": 8514,
      "٦؛": 8515,
      "▁عبيد،": 8516,
      "سوس": 8517,
      "▁المقدم": 8518,
      "▁شكر": 8519,
      "▁ومحمد": 8520,
      "جلة": 8521,
      "ضيض": 8522,
      "▁٦٧": 8523,
      "▁المصنف،": 8524,
      "▁يلبس": 8525,
      "ديك": 8526,
      "▁وفهم": 8527,
      "▁فري": 8528,
      "▁البشر": 8529,
      "▁طلي": 8530,
      "▁قاعدة": 8531,
      "▁والقي": 8532,
      "▁ومصدر": 8533,
      "▁تزيد": 8534,
      "▁جس": 8535,
      "▁يتعرض": 8536,
      "▁كني": 8537,
      "▁تصور": 8538,
      "▁كله،": 8539,
      "▁والشعر": 8540,
      "▁الهيئة": 8541,
      "▁الحرام": 8542,
      "▁يكونوا": 8543,
      "▁خبره،": 8544,
      "▁المخل": 8545,
      "ياك": 8546,
      "١٤": 8547,
      "يل\"": 8548,
      "▁بهن": 8549,
      "▁اقتصر": 8550,
      "نته": 8551,
      "▁القتال": 8552,
      "▁السلاح": 8553,
      "▁الرواة": 8554,
      "ائه،": 8555,
      "▁وحسب": 8556,
      "صار،": 8557,
      "▁الخطيب": 8558,
      "▁منطلقا": 8559,
      "▁النحو،": 8560,
      "▁حسين": 8561,
      "▁صغيرة": 8562,
      "ظم،": 8563,
      "قوط": 8564,
      "▁حية": 8565,
      "▁هنالك": 8566,
      "▁سكر": 8567,
      "▁بيته": 8568,
      "▁يركب": 8569,
      "▁فاصل": 8570,
      "▁بالفعل،": 8571,
      "▁الصرف،": 8572,
      "▁تسا": 8573,
      "رار،": 8574,
      "▁واسمه": 8575,
      "نعت-": 8576,
      "▁الصحيح،": 8577,
      "▁هاتين": 8578,
      "▁ارك": 8579,
      "▁دهر": 8580,
      "▁بكونه": 8581,
      "▁والسب": 8582,
      "▁معك": 8583,
      "▁بئس": 8584,
      "▁تمكن": 8585,
      "▁الاوز": 8586,
      "▁خلقه": 8587,
      "▁نواحي": 8588,
      "▁اضافته": 8589,
      "▁فرعون": 8590,
      "ابة،": 8591,
      "▁المستتر": 8592,
      "▁جرير:\n": 8593,
      "وا)": 8594,
      "▁الغضب": 8595,
      "؟؟": 8596,
      "سكين": 8597,
      "▁\"فا": 8598,
      "▁٤)،": 8599,
      "▁مستع": 8600,
      "▁عليها.\n": 8601,
      "▁المنعوت": 8602,
      "▁اعتقد": 8603,
      "طها": 8604,
      "▁الاستقبال": 8605,
      "▁نهر": 8606,
      "▁٦٨": 8607,
      "▁الفتح.": 8608,
      "ئون": 8609,
      "▁فيلزم": 8610,
      "▁الفي": 8611,
      "▁الامرين": 8612,
      "▁كبيرة": 8613,
      "▁الفرزدق:\n": 8614,
      "بش": 8615,
      "▁البدر": 8616,
      "▁وعمر": 8617,
      "▁المتع": 8618,
      "▁مقصود": 8619,
      "٣.": 8620,
      "▁(:": 8621,
      "▁ويقول:": 8622,
      "▁اللام:": 8623,
      "▁مضمومة": 8624,
      "▁الباء،": 8625,
      "▁وبيان": 8626,
      "▁قابل": 8627,
      "▁ج:": 8628,
      "▁يغلب": 8629,
      "▁الموف": 8630,
      "▁صلب": 8631,
      "▁نقيض": 8632,
      "بارا": 8633,
      "▁١):\n": 8634,
      "جا،": 8635,
      "بنية": 8636,
      "▁هلال": 8637,
      "▁نقلت": 8638,
      "▁يون": 8639,
      "▁سحر": 8640,
      "قلا": 8641,
      "قته،": 8642,
      "▁ونحوه،": 8643,
      "▁الابيض": 8644,
      "▁تبلغ": 8645,
      "ركين": 8646,
      "▁تدع": 8647,
      "▁معنوي": 8648,
      "▁ووقع": 8649,
      "▁قاتل": 8650,
      "▁اورده": 8651,
      "▁اليمين": 8652,
      "▁تحسب": 8653,
      "▁تدغم": 8654,
      "▁قاط": 8655,
      "▁وجع": 8656,
      "▁الثبوت": 8657,
      "را\"": 8658,
      "▁تنفي": 8659,
      "▁الة": 8660,
      "عل،": 8661,
      "▁العرا": 8662,
      "▁والتق": 8663,
      "▁اعين": 8664,
      "▁الخلافة": 8665,
      "▁السياق": 8666,
      "▁الاخري،": 8667,
      "▁اضمر": 8668,
      "▁انث": 8669,
      "▁يختار": 8670,
      "▁كائن": 8671,
      "▁ص:": 8672,
      "▁دما": 8673,
      "حوم": 8674,
      "▁ومفعول": 8675,
      "▁حلو": 8676,
      "داوة": 8677,
      "▁والمغ": 8678,
      "▁بتشديد": 8679,
      "▁تسمية": 8680,
      "جها": 8681,
      "▁ساء": 8682,
      "▁السوا": 8683,
      "▁الهاء،": 8684,
      "\")": 8685,
      "دا.": 8686,
      "جيب": 8687,
      "▁نزع": 8688,
      "▁ذكرته": 8689,
      "▁(الع": 8690,
      "▁مركبة": 8691,
      "▁روبة:\n": 8692,
      "كم\"": 8693,
      "انك": 8694,
      "▁\"الف": 8695,
      "▁الجاهلي": 8696,
      "▁الطرق": 8697,
      "▁ذكر،": 8698,
      "▁\"الح": 8699,
      "▁يستحق": 8700,
      "▁اصلي": 8701,
      "▁الزرع": 8702,
      "▁تنبي": 8703,
      "▁المستع": 8704,
      "▁جديدة": 8705,
      "▁السلم": 8706,
      "▁الانكليزية]": 8707,
      "▁النهر": 8708,
      "▁استط": 8709,
      "▁نعرف": 8710,
      "تمام": 8711,
      "▁عليهم،": 8712,
      "تها.\n": 8713,
      "ش.\n": 8714,
      "▁وفض": 8715,
      "▁الفقر": 8716,
      "▁الشرف": 8717,
      "▁اللئ": 8718,
      "ره.": 8719,
      "▁خصوص": 8720,
      "▁الترخيم": 8721,
      "▁صريح": 8722,
      "▁مستان": 8723,
      "▁يود": 8724,
      "▁مثبت": 8725,
      "▁يمثل": 8726,
      "▁والعامة": 8727,
      "▁ساكنا": 8728,
      "▁بغي": 8729,
      "▁..\n": 8730,
      "▁الرحي": 8731,
      "وها،": 8732,
      "دا.\n": 8733,
      "▁وجميع": 8734,
      "▁ورف": 8735,
      "▁شط": 8736,
      "▁(٢):\n": 8737,
      "▁الحكمة": 8738,
      "▁باش": 8739,
      "▁حميد": 8740,
      "عدية": 8741,
      "▁انعم": 8742,
      "▁قتلت": 8743,
      "▁ضرو": 8744,
      "▁علاقة": 8745,
      "▁وطل": 8746,
      "▁والخل": 8747,
      "▁الخض": 8748,
      "▁المعنوي": 8749,
      "▁قلبها": 8750,
      "▁الفرنسية]": 8751,
      "جر،": 8752,
      "افه": 8753,
      "تها.": 8754,
      "قبح": 8755,
      "وي.\n": 8756,
      "▁الثانية،": 8757,
      "▁مضاف،": 8758,
      "▁القلة": 8759,
      "▁الملك،": 8760,
      "▁المتن": 8761,
      "▁ولعله": 8762,
      "▁\"لو": 8763,
      "▁و\"ع": 8764,
      "▁منهما،": 8765,
      "مح": 8766,
      "▁الصوف": 8767,
      "▁تسال": 8768,
      "▁التنكير": 8769,
      "▁الشتاء": 8770,
      "▁المضاعف": 8771,
      "▁الحوادث": 8772,
      "▁عنده،": 8773,
      "▁اتا": 8774,
      "▁مرفوع،": 8775,
      "▁والحذف": 8776,
      "▁الكافر": 8777,
      "▁ويذكر": 8778,
      "▁التنوين،": 8779,
      "وه:": 8780,
      "وكم": 8781,
      "نساء:": 8782,
      "▁يقلب": 8783,
      "▁تقديرا": 8784,
      "▁جمهور": 8785,
      "▁اسرائ": 8786,
      "٤:": 8787,
      "كند": 8788,
      "رت،": 8789,
      "▁[الح": 8790,
      "▁المطا": 8791,
      "▁طعم": 8792,
      "فساد": 8793,
      "▁الشيخ:": 8794,
      "▁و)": 8795,
      "ريط": 8796,
      "▁ولدت": 8797,
      "▁بالضمير": 8798,
      "▁الصحاب": 8799,
      "٨.\n": 8800,
      "▁اسي": 8801,
      "ته\"": 8802,
      "▁متعلقة": 8803,
      "▁فنا": 8804,
      "▁المصطلح": 8805,
      "▁القطعة": 8806,
      "ف.": 8807,
      "▁الهر": 8808,
      "معا": 8809,
      "ورخ": 8810,
      "▁بضع": 8811,
      "ينا،": 8812,
      "▁العجم": 8813,
      "▁بمصدر": 8814,
      "ارم": 8815,
      "▁والمل": 8816,
      "▁وتز": 8817,
      "تبع": 8818,
      "▁تصب": 8819,
      "لمس": 8820,
      "▁المول": 8821,
      "▁اصابه": 8822,
      "▁عليها.": 8823,
      "▁مضارعا": 8824,
      "ج.\n": 8825,
      "▁لسكون": 8826,
      "ماع،": 8827,
      "▁الجانب": 8828,
      "ره.\n": 8829,
      "▁بلام": 8830,
      "▁ق\n": 8831,
      "▁سريع": 8832,
      "▁١):": 8833,
      "▁المومنين،": 8834,
      "▁وظاهر": 8835,
      "▁الاسباب": 8836,
      "▁(٨)": 8837,
      "▁نال": 8838,
      "▁فانهما": 8839,
      "ارع": 8840,
      "▁السهم": 8841,
      "▁باقي": 8842,
      "▁ليلا": 8843,
      "▁كالن": 8844,
      "زل،": 8845,
      "▁وجعلت": 8846,
      "▁الموج": 8847,
      "▁الشمس،": 8848,
      "▁بالسكون": 8849,
      "▁بوزن": 8850,
      "▁البيت:": 8851,
      "▁بطريق": 8852,
      "▁فينبغي": 8853,
      "▁منح": 8854,
      "▁والواحد": 8855,
      "▁مكسور": 8856,
      "▁عملا": 8857,
      "▁اليوم،": 8858,
      "▁تحق": 8859,
      "▁الخفيفة": 8860,
      "▁فوجد": 8861,
      "سرع": 8862,
      "▁الاداة": 8863,
      "▁درس": 8864,
      "▁جزءا": 8865,
      "▁القريب": 8866,
      "▁الثلاثة،": 8867,
      "▁مومن": 8868,
      "عاية": 8869,
      "▁جماع": 8870,
      "▁فالمعني": 8871,
      "▁والحديث": 8872,
      "▁واصبح": 8873,
      "▁الناس:": 8874,
      "▁والسين": 8875,
      "▁جابر": 8876,
      "▁٣)\n": 8877,
      "▁(ليس": 8878,
      "▁(الس": 8879,
      "▁وصلي": 8880,
      "▁-وهو": 8881,
      "مة،": 8882,
      "▁حلم": 8883,
      "▁بلغة": 8884,
      "▁الميم،": 8885,
      "▁عرب": 8886,
      "▁صحيحة": 8887,
      "▁حافظ": 8888,
      "▁[٣]": 8889,
      "▁وبد": 8890,
      "زاز": 8891,
      "▁٧-": 8892,
      "▁عطاء": 8893,
      "شون": 8894,
      "▁لحن": 8895,
      "▁لاس": 8896,
      "غيرة": 8897,
      "▁اللسان،": 8898,
      "▁الغز": 8899,
      "▁الكامل]\n": 8900,
      "▁الممدوح": 8901,
      "▁وكثرة": 8902,
      "▁والمكان": 8903,
      "▁تتعلق": 8904,
      "▁يجعله": 8905,
      "▁(٧)\n": 8906,
      "▁المختار": 8907,
      "▁(هل": 8908,
      "مل:": 8909,
      "▁مجه": 8910,
      "▁حاضر": 8911,
      "١٥": 8912,
      "▁ذلك\n": 8913,
      "▁الاداب": 8914,
      "▁حط": 8915,
      "يلان": 8916,
      "▁ويز": 8917,
      "▁كبر": 8918,
      "بتك": 8919,
      "▁وابا": 8920,
      "▁الوافر،": 8921,
      "ورا،": 8922,
      "▁وقص": 8923,
      "▁النجا": 8924,
      "▁فالذي": 8925,
      "▁٧٠": 8926,
      "▁(جاء": 8927,
      "اءة": 8928,
      "▁١.\n": 8929,
      "▁اخل": 8930,
      "و:": 8931,
      "▁ووز": 8932,
      "▁فاخبر": 8933,
      "كي،": 8934,
      "▁مدلول": 8935,
      "كف": 8936,
      "▁المختلف": 8937,
      "▁(است": 8938,
      "نة:": 8939,
      "▁فليست": 8940,
      "▁مقامه": 8941,
      "لي\"": 8942,
      "▁المضي": 8943,
      "▁الوري": 8944,
      "▁الاستغناء": 8945,
      "▁مشك": 8946,
      "▁زوجها": 8947,
      "▁(رب": 8948,
      "▁تصف": 8949,
      "▁توجيه": 8950,
      "▁دالا": 8951,
      "▁مجلة": 8952,
      "▁واري": 8953,
      "▁اولا،": 8954,
      "▁استشهد": 8955,
      "▁فاعله،": 8956,
      "▁٦٩": 8957,
      "▁ورائ": 8958,
      "▁البدي": 8959,
      "▁١٩٧": 8960,
      "▁فلهذا": 8961,
      "▁دائرة": 8962,
      "▁يكره": 8963,
      "▁تمس": 8964,
      "▁مرفوعة": 8965,
      "▁اعتقاد": 8966,
      "▁الفتا": 8967,
      "▁كالذي": 8968,
      "▁القرية": 8969,
      "▁اسما،": 8970,
      "▁قع": 8971,
      "▁المتقارب": 8972,
      "▁والليل": 8973,
      "▁(كل": 8974,
      "▁فواد": 8975,
      "▁المائة": 8976,
      "▁الانواع": 8977,
      "▁تسقط": 8978,
      "▁الولا": 8979,
      "بابة": 8980,
      "▁ساق": 8981,
      "▁لي:": 8982,
      "▁الرومي": 8983,
      "▁احتاج": 8984,
      "▁ماذا؟": 8985,
      "▁لاجتماع": 8986,
      "▁الذنب": 8987,
      "▁رزق": 8988,
      "▁لكونها": 8989,
      "▁وعطف": 8990,
      "جزاء": 8991,
      "▁لهم:": 8992,
      "▁المدرسة": 8993,
      "▁الابل:": 8994,
      "▁فاتي": 8995,
      "▁كائ": 8996,
      "▁القلب،": 8997,
      "▁الثقيلة": 8998,
      "▁١٩٨": 8999,
      "بتداء": 9000,
      "▁المامون": 9001,
      "واته": 9002,
      "▁محمول": 9003,
      "غط": 9004,
      "▁العنا": 9005,
      "▁محله": 9006,
      "ظه": 9007,
      "وي\"": 9008,
      "▁مضافة": 9009,
      "▁صناعة": 9010,
      "وائم": 9011,
      "▁ويه": 9012,
      "يا\"": 9013,
      "▁تجاوز": 9014,
      "▁(لو": 9015,
      "▁العاد": 9016,
      "▁معشر": 9017,
      "▁هذا.": 9018,
      "▁مصدر،": 9019,
      "ونهم": 9020,
      "▁لاق": 9021,
      "▁غداة": 9022,
      "▁رش": 9023,
      "وه.": 9024,
      "جر:": 9025,
      "▁الحديثة": 9026,
      "▁عمر،": 9027,
      "▁كيسان": 9028,
      "▁يسبق": 9029,
      "-:": 9030,
      "▁الحكومة": 9031,
      "▁وقسم": 9032,
      "▁الصب": 9033,
      "▁الطبيع": 9034,
      "▁اليق": 9035,
      "▁لكنها": 9036,
      "▁الرياض": 9037,
      "▁اقدم": 9038,
      "▁التفصيل": 9039,
      "▁داخلة": 9040,
      "خيص": 9041,
      "فرقة": 9042,
      "خن": 9043,
      "▁وقتل": 9044,
      "زياد": 9045,
      "▁سلامة": 9046,
      "▁اعلال": 9047,
      "▁تامة": 9048,
      "▁فقام": 9049,
      "▁فلان:": 9050,
      "▁عاب": 9051,
      "▁القنا": 9052,
      "تان،": 9053,
      "ح)": 9054,
      "جة،": 9055,
      "ووا": 9056,
      "زيمة": 9057,
      "▁مطلع": 9058,
      "▁العاط": 9059,
      "▁بعيدا": 9060,
      "▁يقولوا": 9061,
      "▁وكثر": 9062,
      "▁لعلي": 9063,
      "▁ويري": 9064,
      "▁وذي": 9065,
      "▁العظي": 9066,
      "▁الجوز": 9067,
      "▁تقسيم": 9068,
      "▁واحترز": 9069,
      "▁عموم": 9070,
      "وضوع": 9071,
      "▁اراء": 9072,
      "▁الخوف": 9073,
      "▁اثنان": 9074,
      "مات،": 9075,
      "فال": 9076,
      "١-": 9077,
      "▁اضعف": 9078,
      "▁ويص": 9079,
      "وم:": 9080,
      "مسة": 9081,
      "▁رحل": 9082,
      "▁(نعم": 9083,
      "ستان": 9084,
      "▁وخبرها": 9085,
      "▁وري": 9086,
      "▁الاجل": 9087,
      "▁تنظر": 9088,
      "كث": 9089,
      "▁فظ": 9090,
      "▁اليكم": 9091,
      "▁غليظ": 9092,
      "▁ايراد": 9093,
      "▁حكما": 9094,
      "▁وابد": 9095,
      "▁نغ": 9096,
      "▁زك": 9097,
      "ق\"": 9098,
      "▁لوا": 9099,
      "▁والحركة": 9100,
      "لون": 9101,
      "دا:": 9102,
      "▁يتبين": 9103,
      "نائي": 9104,
      "▁يفعل،": 9105,
      "▁عزم": 9106,
      "▁هجر": 9107,
      "عل)": 9108,
      "▁فاحت": 9109,
      "▁دنا": 9110,
      "▁ومخ": 9111,
      "▁مثلا،": 9112,
      "وهن": 9113,
      "▁الكلام:": 9114,
      "وي.": 9115,
      "▁رجعت": 9116,
      "▁اغت": 9117,
      "▁لعله": 9118,
      "▁]": 9119,
      "د)": 9120,
      "زها": 9121,
      "▁بخل": 9122,
      "▁تمن": 9123,
      "▁الغيب": 9124,
      "▁الضخم": 9125,
      "▁ورواه": 9126,
      "وح،": 9127,
      "▁جح": 9128,
      "▁اخلاق": 9129,
      "▁اصلا،": 9130,
      "لي.": 9131,
      "▁شام": 9132,
      "▁الشاذ": 9133,
      "▁وبمعني": 9134,
      "بار،": 9135,
      "▁معهم": 9136,
      "▁الله\n": 9137,
      "▁الدمام": 9138,
      "هان": 9139,
      "▁المنصور": 9140,
      "▁بتاء": 9141,
      "▁المثل:": 9142,
      "▁الكلاب": 9143,
      "▁الحذف،": 9144,
      "▁ابوك": 9145,
      "▁واجيب": 9146,
      "▁وبت": 9147,
      "▁فيس": 9148,
      "▁الذكور.": 9149,
      "▁والنهي": 9150,
      "▁معطوفا": 9151,
      "؟!": 9152,
      "▁العلمي": 9153,
      "▁عجب": 9154,
      "▁الحص": 9155,
      "▁يميل": 9156,
      "▁المضاف،": 9157,
      "▁الركب": 9158,
      "▁ذرا": 9159,
      "▁والنهار": 9160,
      "▁جر.": 9161,
      "▁يذكره": 9162,
      "س)": 9163,
      "شئ": 9164,
      "▁وقدم": 9165,
      "▁مسي": 9166,
      "▁القطر": 9167,
      "▁يوهم": 9168,
      "لاحظة": 9169,
      "▁الممت": 9170,
      "راسة": 9171,
      "▁كذاك": 9172,
      "▁الرت": 9173,
      "▁يدر": 9174,
      "▁وادي": 9175,
      "▁ربع": 9176,
      "▁مونثا": 9177,
      "▁بالاح": 9178,
      "رزق": 9179,
      "▁قتله": 9180,
      "▁اعاد": 9181,
      "▁ضا": 9182,
      "▁\"ومن": 9183,
      "▁عظيمة": 9184,
      "▁مخاط": 9185,
      "▁افي": 9186,
      "▁الحاق": 9187,
      "▁عالما": 9188,
      "▁ناف": 9189,
      "▁محرك": 9190,
      "▁فانشد": 9191,
      "ختصاص": 9192,
      "ل.\n": 9193,
      "▁(س)": 9194,
      "شهاد": 9195,
      "▁عه": 9196,
      "▁تضع": 9197,
      "▁واوا،": 9198,
      "وه.\n": 9199,
      "▁كتابة": 9200,
      "▁صبح": 9201,
      "▁موجودة": 9202,
      "▁الطبي": 9203,
      "▁انتصب": 9204,
      "روها": 9205,
      "▁السموات": 9206,
      "▁\"وهو": 9207,
      "▁الرحل": 9208,
      "▁السكيت:": 9209,
      "▁والعا": 9210,
      "▁سكت": 9211,
      "▁الموسي": 9212,
      "▁بالاد": 9213,
      "▁يتحدث": 9214,
      "▁مفعول،": 9215,
      "▁القرينة": 9216,
      "▁المرة": 9217,
      "▁بتلك": 9218,
      "▁لـ\"": 9219,
      "▁فغير": 9220,
      "▁الشاع": 9221,
      "▁موس": 9222,
      "جاجة": 9223,
      "▁احدث": 9224,
      "▁نصب،": 9225,
      "١٦": 9226,
      "▁وقط": 9227,
      "▁انشدني": 9228,
      "▁الحقيقة،": 9229,
      "▁المذكور،": 9230,
      "▁الايجاب": 9231,
      "▁اضيفت": 9232,
      "▁ادل": 9233,
      "مع،": 9234,
      "▁غائ": 9235,
      "▁السحر": 9236,
      "▁باء": 9237,
      "▁المبدل": 9238,
      "▁المفهوم": 9239,
      "▁يعين": 9240,
      "▁يتناول": 9241,
      "▁الخامس:": 9242,
      "▁تزل": 9243,
      "▁تقرير": 9244,
      "يفة": 9245,
      "▁\"وت": 9246,
      "باع،": 9247,
      "▁احسان": 9248,
      "▁فعلوا": 9249,
      "كارم": 9250,
      "قوت": 9251,
      "▁انب": 9252,
      "علب": 9253,
      "▁سط": 9254,
      "ائدة،": 9255,
      "▁نفر": 9256,
      "▁خفت": 9257,
      "▁الانشاء": 9258,
      "▁القران:": 9259,
      "▁مذاهب": 9260,
      "▁\"اس": 9261,
      "▁و\"ت": 9262,
      "▁يلتبس": 9263,
      "▁موقف": 9264,
      "جته": 9265,
      "▁الخبرية": 9266,
      "تهاء": 9267,
      "▁صفحة": 9268,
      "▁فقوله": 9269,
      "واف": 9270,
      "▁حفص": 9271,
      "▁بالاص": 9272,
      "▁الفلك": 9273,
      "عمرو": 9274,
      "▁الجملة:": 9275,
      "▁طويلا": 9276,
      "▁تقط": 9277,
      "▁ويط": 9278,
      "▁الغري": 9279,
      "▁طرفا": 9280,
      "▁لواحد": 9281,
      "▁الضحي": 9282,
      "عيين": 9283,
      "▁٧٢": 9284,
      "▁راكبا": 9285,
      "١٨": 9286,
      "لت،": 9287,
      "▁احدهم": 9288,
      "▁دعوي": 9289,
      "▁فدخل": 9290,
      "▁فالك": 9291,
      "▁وغيرهم": 9292,
      "▁وضعه": 9293,
      "▁المحذوف،": 9294,
      "في\n": 9295,
      "▁فاش": 9296,
      "ركيب": 9297,
      "▁٧٤": 9298,
      "▁وينبغي": 9299,
      "▁عليك،": 9300,
      "▁باضافة": 9301,
      "▁المطلوب": 9302,
      "▁حركتها": 9303,
      "▁\"ابن": 9304,
      "▁بابا": 9305,
      "▁منصور": 9306,
      "▁مقدما": 9307,
      "▁قاضي": 9308,
      "▁الغين": 9309,
      "▁قاعد": 9310,
      "▁اعز": 9311,
      "▁قيم": 9312,
      "▁واخري": 9313,
      "▁يقتضيه": 9314,
      "▁بسب": 9315,
      "▁بباب": 9316,
      "بت:": 9317,
      "▁دنيا": 9318,
      "فع،": 9319,
      "▁الدين،": 9320,
      "▁المنون": 9321,
      "سم،": 9322,
      "▁زيد)": 9323,
      "▁٥).\n": 9324,
      "▁وفل": 9325,
      "▁الداخلة": 9326,
      "بع،": 9327,
      "▁والقط": 9328,
      "▁(وم": 9329,
      "▁الطالب": 9330,
      "▁يحسب": 9331,
      "▁انت،": 9332,
      "▁تناول": 9333,
      "▁حذا": 9334,
      "▁حزن": 9335,
      "▁وعق": 9336,
      "▁تنزل": 9337,
      "▁اخرها": 9338,
      "▁توكيدا": 9339,
      "▁النوي": 9340,
      "سي:": 9341,
      "▁فتع": 9342,
      "مته،": 9343,
      "▁وتغ": 9344,
      "▁واسمها": 9345,
      "▁ومعناه:": 9346,
      "▁المنذر": 9347,
      "▁العطف،": 9348,
      "▁الحجارة": 9349,
      "▁شرك": 9350,
      "▁تجا": 9351,
      "يا.": 9352,
      "ريته": 9353,
      "▁شديدة": 9354,
      "رب\"": 9355,
      "▁عمران:": 9356,
      "▁الجنس،": 9357,
      "▁والافعال": 9358,
      "▁واكرم": 9359,
      "▁مصطفي": 9360,
      "▁العالمين": 9361,
      "شر:": 9362,
      "▁سنا": 9363,
      "▁فابدل": 9364,
      "وسا": 9365,
      "▁الاسلام،": 9366,
      "▁٧٧": 9367,
      "▁ممتنع": 9368,
      "▁شفاء": 9369,
      "▁الشم": 9370,
      "مرار": 9371,
      "▁اعادة": 9372,
      "جيل": 9373,
      "صر\n": 9374,
      "▁الجميل": 9375,
      "▁تختص": 9376,
      "ود.": 9377,
      "▁اللفظة": 9378,
      "نوية": 9379,
      "▁تقرر": 9380,
      "▁سعة": 9381,
      "▁ذهن": 9382,
      "▁دعوت": 9383,
      "▁توسط": 9384,
      "▁ذاك،": 9385,
      "▁ثلاثة،": 9386,
      "▁عاصم": 9387,
      "لي.\n": 9388,
      "▁الخاف": 9389,
      "اح،": 9390,
      "▁يبس": 9391,
      "▁ثور": 9392,
      "▁(زيد)": 9393,
      "▁المطب": 9394,
      "▁والكسرة": 9395,
      "▁الثابت": 9396,
      "▁الفك": 9397,
      "قبض": 9398,
      "▁التصحيح": 9399,
      "▁طلع": 9400,
      "▁تخفيفا": 9401,
      "▁اراه": 9402,
      "▁الثناء": 9403,
      "▁يليه": 9404,
      "▁وجوده": 9405,
      "▁استعملت": 9406,
      "▁(ز).": 9407,
      "▁لانت": 9408,
      "ودة،": 9409,
      "▁الثري": 9410,
      "▁البيت\n": 9411,
      "▁التشبيه،": 9412,
      "▁الشطر": 9413,
      "▁وقولهم": 9414,
      "▁واو،": 9415,
      "▁جيش": 9416,
      "▁الذم": 9417,
      "▁بهاء": 9418,
      "▁تصنع": 9419,
      "▁٨٠": 9420,
      "▁وصفت": 9421,
      "▁سقطت": 9422,
      "جال": 9423,
      "رد،": 9424,
      "▁مسك": 9425,
      "▁عرفنا": 9426,
      "▁ينتهي": 9427,
      "▁الارض.\n": 9428,
      "▁المشهورة": 9429,
      "▁الغيث": 9430,
      "▁منتهي": 9431,
      "▁اناس": 9432,
      "▁والحي": 9433,
      "▁سماء": 9434,
      "▁قبائل": 9435,
      "▁العجاج:\n": 9436,
      "▁فبين": 9437,
      "▁وافر": 9438,
      "▁التاليف": 9439,
      "مين": 9440,
      "▁غيرهما": 9441,
      "▁لير": 9442,
      "▁ذاه": 9443,
      "▁المانع": 9444,
      "▁الاختيار": 9445,
      "▁ينقسم": 9446,
      "ف.\n": 9447,
      "▁المفرد.\n": 9448,
      "▁اضع": 9449,
      "▁فاي": 9450,
      "▁فرقا": 9451,
      "▁قبيح": 9452,
      "نعة": 9453,
      "الفة": 9454,
      "▁بالهمزة": 9455,
      "▁عليه\n": 9456,
      "▁استعمالها": 9457,
      "▁تطلب": 9458,
      "▁مالك،": 9459,
      "▁الادبي": 9460,
      "▁الشرطية": 9461,
      "▁وسمعت": 9462,
      "ان\"،": 9463,
      "ار.\n": 9464,
      "شابه": 9465,
      "▁فشبه": 9466,
      "ديل": 9467,
      "▁الجه": 9468,
      "▁وانهم": 9469,
      "راف:": 9470,
      "▁(عن": 9471,
      "▁اوت": 9472,
      "▁وليت": 9473,
      "▁اكون": 9474,
      "▁خام": 9475,
      "▁مقابلة": 9476,
      "٥:": 9477,
      "▁يرا": 9478,
      "وصاف": 9479,
      "▁يرون": 9480,
      "▁بهمزة": 9481,
      "▁\"نعم": 9482,
      "حيل": 9483,
      "▁المطابقة": 9484,
      "▁ويدخل": 9485,
      "▁دقيق": 9486,
      "▁بالنظر": 9487,
      "▁الفصحي": 9488,
      "▁والعائد": 9489,
      "▁سنة،": 9490,
      "▁سكنت": 9491,
      "▁دوي": 9492,
      "▁الرئيس": 9493,
      "يم\n": 9494,
      "▁حيات": 9495,
      "▁تبت": 9496,
      "▁العصا": 9497,
      "▁اتص": 9498,
      "▁الرجال،": 9499,
      "▁تسب": 9500,
      "▁(الاية": 9501,
      "واب،": 9502,
      "▁الكثيرة": 9503,
      "▁قبول": 9504,
      "افع": 9505,
      "ومي": 9506,
      "▁مستقب": 9507,
      "▁حاصل": 9508,
      "▁لذكر": 9509,
      "▁احس": 9510,
      "▁تمثل": 9511,
      "▁وماء": 9512,
      "▁والعد": 9513,
      "▁الياس": 9514,
      "▁الوض": 9515,
      "▁اولي،": 9516,
      "▁شغل": 9517,
      "▁اخطا": 9518,
      "▁سبقت": 9519,
      "▁هاشم": 9520,
      "بل\n": 9521,
      "▁\"وقد": 9522,
      "فاة": 9523,
      "▁وحين": 9524,
      "▁القوس": 9525,
      "اعت": 9526,
      "▁يستلزم": 9527,
      "▁قلوبهم": 9528,
      "▁(اج": 9529,
      "▁السيل": 9530,
      "▁اعرض": 9531,
      "▁علل": 9532,
      "▁مباشرة": 9533,
      "▁فيكم": 9534,
      "▁تحته": 9535,
      "▁المعني.": 9536,
      "▁والجمع:": 9537,
      "ني.\n": 9538,
      "▁نبا": 9539,
      "ميا": 9540,
      "▁(وهو": 9541,
      "▁صرت": 9542,
      "▁الناس.": 9543,
      "▁القول،": 9544,
      "▁الاحو": 9545,
      "▁اياها": 9546,
      "▁للالحاق": 9547,
      "دد": 9548,
      "▁اسقاط": 9549,
      "جازة": 9550,
      "▁البيتين": 9551,
      "ودها": 9552,
      "▁عاقل": 9553,
      "ذ)": 9554,
      "▁(الب": 9555,
      "▁الصحاح:": 9556,
      "▁الاعداء": 9557,
      "▁واهم": 9558,
      "▁رط": 9559,
      "▁قدره": 9560,
      "هن،": 9561,
      "▁ورسوله": 9562,
      "▁كبيرا": 9563,
      "▁المبد": 9564,
      "▁الامل": 9565,
      "▁فاق": 9566,
      "▁يقوي": 9567,
      "▁المنسوب": 9568,
      "▁ففعل": 9569,
      "▁يطل": 9570,
      "▁الحظ": 9571,
      "يا.\n": 9572,
      "▁بعده:\n": 9573,
      "▁فهلا": 9574,
      "▁المنقوص": 9575,
      "٤.": 9576,
      "▁الخ.": 9577,
      "▁واصحاب": 9578,
      "▁التعليم": 9579,
      "▁صادق": 9580,
      "▁لغتان": 9581,
      "▁خات": 9582,
      "▁طبيعة": 9583,
      "▁الثقافة": 9584,
      "▁الحماسة": 9585,
      "▁الاول.": 9586,
      "▁تكرر": 9587,
      "▁نشا": 9588,
      "▁والاولي": 9589,
      "حاء": 9590,
      "١٧": 9591,
      "ال\"": 9592,
      "▁العمي": 9593,
      "▁وصاح": 9594,
      "▁فاصبح": 9595,
      "▁معلقة": 9596,
      "▁المطلب": 9597,
      "غ:": 9598,
      "▁منك،": 9599,
      "▁واسماء": 9600,
      "٣-": 9601,
      "▁غيرهم": 9602,
      "▁حمراء": 9603,
      "▁واعط": 9604,
      "▁مجردا": 9605,
      "▁طلوع": 9606,
      "▁فعلم": 9607,
      "▁تريد:": 9608,
      "ظفر": 9609,
      "كل،": 9610,
      "ة،\n": 9611,
      "▁ارفع": 9612,
      "▁عيد": 9613,
      "ته:\n": 9614,
      "▁الابط": 9615,
      "▁دف": 9616,
      "▁حلب": 9617,
      "▁بالاخ": 9618,
      "▁الله\"": 9619,
      "▁كلها،": 9620,
      "...": 9621,
      "▁استن": 9622,
      "▁دريد،": 9623,
      "دراك": 9624,
      "رنا": 9625,
      "▁اللغة:": 9626,
      "▁كذلك.": 9627,
      "▁القافية": 9628,
      "▁اعترض": 9629,
      "▁وفرس": 9630,
      "▁قضاء": 9631,
      "▁دولة": 9632,
      "▁اجمل": 9633,
      "▁والدال": 9634,
      "▁للمعني": 9635,
      "▁ذلك:\n": 9636,
      "▁جامعة": 9637,
      "▁لقيته": 9638,
      "جبت": 9639,
      "▁الدرس": 9640,
      "▁الضعف": 9641,
      "▁سبا": 9642,
      "▁انتقل": 9643,
      "▁نصبا": 9644,
      "].": 9645,
      "▁فاك": 9646,
      "▁مستعمل": 9647,
      "▁كافة": 9648,
      "▁العس": 9649,
      "▁الحصر": 9650,
      "▁دابة": 9651,
[...]
